{
  "vocab": {
    "token_to_id": {
      "<PAD>": 0,
      "<UNK>": 1,
      "<BOS>": 2,
      "<EOS>": 3,
      "!": 4,
      "\"": 5,
      "$": 6,
      "%": 7,
      "&": 8,
      "'": 9,
      "(": 10,
      ")": 11,
      "+": 12,
      ",": 13,
      "-": 14,
      ".": 15,
      "/": 16,
      "0": 17,
      "1": 18,
      "2": 19,
      "3": 20,
      "4": 21,
      "5": 22,
      "6": 23,
      "7": 24,
      "8": 25,
      "9": 26,
      ":": 27,
      ";": 28,
      "</w>": 29,
      "?": 30,
      "a": 31,
      "b": 32,
      "c": 33,
      "d": 34,
      "e": 35,
      "f": 36,
      "g": 37,
      "h": 38,
      "i": 39,
      "j": 40,
      "k": 41,
      "l": 42,
      "m": 43,
      "n": 44,
      "o": 45,
      "p": 46,
      "q": 47,
      "r": 48,
      "s": 49,
      "t": 50,
      "u": 51,
      "v": 52,
      "w": 53,
      "x": 54,
      "y": 55,
      "z": 56,
      "«": 57,
      "°": 58,
      "»": 59,
      "à": 60,
      "á": 61,
      "â": 62,
      "ç": 63,
      "è": 64,
      "é": 65,
      "ê": 66,
      "ë": 67,
      "í": 68,
      "î": 69,
      "ï": 70,
      "ô": 71,
      "ù": 72,
      "û": 73,
      "ü": 74,
      "ō": 75,
      "œ": 76,
      "​": 77,
      "‘": 78,
      "’": 79,
      "‽": 80,
      "e</w>": 81,
      "s</w>": 82,
      ".</w>": 83,
      "t</w>": 84,
      "ai": 85,
      "ou": 86,
      "en": 87,
      "'</w>": 88,
      "on": 89,
      "r</w>": 90,
      "qu": 91,
      "a</w>": 92,
      "es</w>": 93,
      "re</w>": 94,
      "pa": 95,
      "je</w>": 96,
      "l</w>": 97,
      "es": 98,
      "le</w>": 99,
      "de</w>": 100,
      "u</w>": 101,
      "n</w>": 102,
      "ne</w>": 103,
      "ous</w>": 104,
      "oi": 105,
      "an": 106,
      "om": 107,
      "-</w>": 108,
      "que</w>": 109,
      "er</w>": 110,
      "eu": 111,
      "é</w>": 112,
      "pas</w>": 113,
      "?</w>": 114,
      "est</w>": 115,
      "vous</w>": 116,
      "on</w>": 117,
      "à</w>": 118,
      "ais</w>": 119,
      "er": 120,
      "la</w>": 121,
      "te</w>": 122,
      "i</w>": 123,
      "av": 124,
      "ent</w>": 125,
      "ch": 126,
      "il</w>": 127,
      "ce</w>": 128,
      "ri": 129,
      "z</w>": 130,
      "ez</w>": 131,
      "em": 132,
      "tu</w>": 133,
      "tom": 134,
      "tr": 135,
      "ti": 136,
      "tom</w>": 137,
      "el": 138,
      "d</w>": 139,
      "en</w>": 140,
      "ait</w>": 141,
      "ai</w>": 142,
      "se</w>": 143,
      "pr": 144,
      "au": 145,
      "x</w>": 146,
      "j</w>": 147,
      "me</w>": 148,
      "su": 149,
      "un</w>": 150,
      "ar": 151,
      "di": 152,
      "pou": 153,
      "les</w>": 154,
      "or": 155,
      "eux</w>": 156,
      "c</w>": 157,
      "pl": 158,
      "ét": 159,
      ",</w>": 160,
      "is</w>": 161,
      "tre</w>": 162,
      "nous</w>": 163,
      "oi</w>": 164,
      "ss": 165,
      "une</w>": 166,
      "il": 167,
      "in": 168,
      "ons</w>": 169,
      "par": 170,
      "com": 171,
      "et": 172,
      "al": 173,
      "fai": 174,
      "tes</w>": 175,
      "con": 176,
      "elle</w>": 177,
      "tou": 178,
      "end": 179,
      "vi": 180,
      "dé": 181,
      "qu</w>": 182,
      "am": 183,
      "li": 184,
      "suis</w>": 185,
      "pour</w>": 186,
      "au</w>": 187,
      "our": 188,
      "ant</w>": 189,
      "faire</w>": 190,
      "ans</w>": 191,
      "ça</w>": 192,
      "ont</w>": 193,
      "si": 194,
      "y</w>": 195,
      "oir</w>": 196,
      "ap": 197,
      "us</w>": 198,
      "as</w>": 199,
      "pen": 200,
      "ag": 201,
      "re": 202,
      "de": 203,
      "ci": 204,
      "ement</w>": 205,
      "ère</w>": 206,
      "ée</w>": 207,
      "ois</w>": 208,
      "bi": 209,
      "des</w>": 210,
      "et</w>": 211,
      "m</w>": 212,
      "ment</w>": 213,
      "at": 214,
      "son</w>": 215,
      "ouv": 216,
      "dans</w>": 217,
      "ent": 218,
      "vo": 219,
      "plus</w>": 220,
      "ré": 221,
      "ci</w>": 222,
      "pro": 223,
      "mes</w>": 224,
      "!</w>": 225,
      "tout</w>": 226,
      "ce": 227,
      "eur</w>": 228,
      "ès</w>": 229,
      "du</w>": 230,
      "veux</w>": 231,
      "moi</w>": 232,
      "ang": 233,
      "fait</w>": 234,
      "qui</w>": 235,
      "vr": 236,
      "ler</w>": 237,
      "ui": 238,
      "tu": 239,
      "pour": 240,
      "sais</w>": 241,
      "té</w>": 242,
      "po": 243,
      "être</w>": 244,
      "était</w>": 245,
      "per": 246,
      "co": 247,
      "ma": 248,
      "cou": 249,
      "jour": 250,
      "emp": 251,
      "quoi</w>": 252,
      "ess": 253,
      "si</w>": 254,
      "quel": 255,
      "p</w>": 256,
      "fi": 257,
      "ac": 258,
      "ec</w>": 259,
      "tion</w>": 260,
      "mon</w>": 261,
      "ette</w>": 262,
      "avec</w>": 263,
      "ui</w>": 264,
      "onn": 265,
      "êtes</w>": 266,
      "ble</w>": 267,
      "ses</w>": 268,
      "eur": 269,
      "avez</w>": 270,
      "ter</w>": 271,
      "pri": 272,
      "por": 273,
      "temp": 274,
      "pe": 275,
      "mai": 276,
      "ils</w>": 277,
      "cho": 278,
      "bien</w>": 279,
      "mi": 280,
      "onne</w>": 281,
      "sont</w>": 282,
      "temps</w>": 283,
      "cu": 284,
      "cette</w>": 285,
      "vou": 286,
      "fr": 287,
      "bl": 288,
      "ten": 289,
      "dit</w>": 290,
      "endre</w>": 291,
      "ni": 292,
      "ser": 293,
      "très</w>": 294,
      "ex": 295,
      "cela</w>": 296,
      "peux</w>": 297,
      "ér": 298,
      "ens</w>": 299,
      "ain</w>": 300,
      "pi": 301,
      "été</w>": 302,
      "pense</w>": 303,
      "pré": 304,
      "ton</w>": 305,
      "gr": 306,
      "ven": 307,
      "cr": 308,
      "ass": 309,
      "no": 310,
      "sur</w>": 311,
      "dem": 312,
      "ici</w>": 313,
      "ts</w>": 314,
      "ma</w>": 315,
      "pourquoi</w>": 316,
      "votre</w>": 317,
      "mon": 318,
      "im": 319,
      "avoir</w>": 320,
      "mar": 321,
      "eut</w>": 322,
      "us": 323,
      "eau</w>": 324,
      "res": 325,
      "trav": 326,
      "all": 327,
      "chose</w>": 328,
      "voul": 329,
      "jam": 330,
      "sse</w>": 331,
      "ca": 332,
      "és</w>": 333,
      "oin</w>": 334,
      "oit</w>": 335,
      "dev": 336,
      "toi</w>": 337,
      "eau": 338,
      "pouv": 339,
      "gar": 340,
      "pers": 341,
      "riv": 342,
      "coup</w>": 343,
      "jamais</w>": 344,
      "so": 345,
      "lui</w>": 346,
      "pu": 347,
      "avons</w>": 348,
      "ille</w>": 349,
      "and</w>": 350,
      "ill": 351,
      "où": 352,
      "où</w>": 353,
      "arriv": 354,
      "travai": 355,
      "el</w>": 356,
      "ta": 357,
      "comment</w>": 358,
      "vrai": 359,
      "der</w>": 360,
      "ir</w>": 361,
      "lai": 362,
      "jours</w>": 363,
      "elles</w>": 364,
      "age</w>": 365,
      "che</w>": 366,
      "jou": 367,
      "él": 368,
      "beau": 369,
      "vraiment</w>": 370,
      "éri": 371,
      "mer": 372,
      "res</w>": 373,
      "quelque</w>": 374,
      "sem": 375,
      "beaucoup</w>": 376,
      "som": 377,
      "ue</w>": 378,
      "voi": 379,
      "dire</w>": 380,
      "sou": 381,
      "seu": 382,
      "bes": 383,
      "sa</w>": 384,
      "trouv": 385,
      "eu</w>": 386,
      "besoin</w>": 387,
      "personne</w>": 388,
      "rais</w>": 389,
      "tous</w>": 390,
      "pass": 391,
      "ture</w>": 392,
      "par</w>": 393,
      "là</w>": 394,
      "heur": 395,
      "fer": 396,
      "hi": 397,
      "ter": 398,
      "voir</w>": 399,
      "peut</w>": 400,
      "aime</w>": 401,
      "avais</w>": 402,
      "rien</w>": 403,
      "aller</w>": 404,
      "vais</w>": 405,
      "deman": 406,
      "o</w>": 407,
      "fau": 408,
      "mari": 409,
      "dis": 410,
      "app": 411,
      "va</w>": 412,
      "br": 413,
      "jus": 414,
      "ren": 415,
      "conn": 416,
      "tro": 417,
      "mang": 418,
      "sé</w>": 419,
      "ay": 420,
      "arg": 421,
      "’</w>": 422,
      "déj": 423,
      "père</w>": 424,
      "for": 425,
      "avait</w>": 426,
      "sommes</w>": 427,
      "fa": 428,
      "étais</w>": 429,
      "aî": 430,
      "se": 431,
      "peu</w>": 432,
      "man": 433,
      "ces</w>": 434,
      "lé</w>": 435,
      "vre</w>": 436,
      "ain": 437,
      "ta</w>": 438,
      "ach": 439,
      "ents</w>": 440,
      "prendre</w>": 441,
      "parti": 442,
      "parler</w>": 443,
      "uit</w>": 444,
      "ver": 445,
      "arr": 446,
      "men": 447,
      "ête</w>": 448,
      "donn": 449,
      "der": 450,
      "toujours</w>": 451,
      "quand</w>": 452,
      "maison</w>": 453,
      "att": 454,
      "ance</w>": 455,
      "fu": 456,
      "ig": 457,
      "ser</w>": 458,
      "trop</w>": 459,
      "mais</w>": 460,
      "mê": 461,
      "éc": 462,
      "ff": 463,
      "ad": 464,
      "core</w>": 465,
      "comme</w>": 466,
      "encore</w>": 467,
      "oc": 468,
      "ées</w>": 469,
      "enf": 470,
      "qui": 471,
      "monde</w>": 472,
      "deux</w>": 473,
      "cour": 474,
      "dé</w>": 475,
      "puis</w>": 476,
      "ph": 477,
      "oin": 478,
      "fran": 479,
      "main": 480,
      "fois</w>": 481,
      "dois</w>": 482,
      "argent</w>": 483,
      "bli": 484,
      "ants</w>": 485,
      "«</w>": 486,
      "»</w>": 487,
      "sor": 488,
      "même</w>": 489,
      "mary</w>": 490,
      "nouv": 491,
      "oire</w>": 492,
      "pris</w>": 493,
      "chi": 494,
      "aimer": 495,
      "ends</w>": 496,
      "ner</w>": 497,
      "franç": 498,
      "près</w>": 499,
      "st": 500,
      "porte</w>": 501,
      "gu": 502,
      "bre</w>": 503,
      "aux</w>": 504,
      "bon</w>": 505,
      "dre</w>": 506,
      "ssi</w>": 507,
      "ab": 508,
      "français</w>": 509,
      "autre</w>": 510,
      "ôt</w>": 511,
      "mo": 512,
      "faut</w>": 513,
      "eurs</w>": 514,
      "train</w>": 515,
      "combien</w>": 516,
      "cher</w>": 517,
      "vu</w>": 518,
      "ssi": 519,
      "endr": 520,
      "aient</w>": 521,
      "ong": 522,
      "aire</w>": 523,
      "devr": 524,
      "quelle</w>": 525,
      "pensais</w>": 526,
      "ard</w>": 527,
      "tions</w>": 528,
      "voiture</w>": 529,
      "mé": 530,
      "aujour": 531,
      "aujourd</w>": 532,
      "hui</w>": 533,
      "quel</w>": 534,
      "ques</w>": 535,
      "soit</w>": 536,
      "air</w>": 537,
      "min": 538,
      "bou": 539,
      "ffi": 540,
      "laiss": 541,
      "chez</w>": 542,
      "aussi</w>": 543,
      "ie</w>": 544,
      "aimerais</w>": 545,
      "vie</w>": 546,
      "marie</w>": 547,
      "mainten": 548,
      "travail</w>": 549,
      "pon": 550,
      "nom": 551,
      "achet": 552,
      "maintenant</w>": 553,
      "fais</w>": 554,
      "regar": 555,
      "essay": 556,
      "ation</w>": 557,
      "aît</w>": 558,
      "aine</w>": 559,
      "ème</w>": 560,
      "cor": 561,
      "lement</w>": 562,
      "nu": 563,
      "peti": 564,
      "sur": 565,
      "riez</w>": 566,
      "lu": 567,
      "travail": 568,
      "eure</w>": 569,
      "aider</w>": 570,
      "déjà</w>": 571,
      "juste</w>": 572,
      "sû": 573,
      "probl": 574,
      "tez</w>": 575,
      "hom": 576,
      "chan": 577,
      "née</w>": 578,
      "avant</w>": 579,
      "rait</w>": 580,
      "venir</w>": 581,
      "bo": 582,
      "derni": 583,
      "ret": 584,
      "sait</w>": 585,
      "ence</w>": 586,
      "contr": 587,
      "cile</w>": 588,
      "hier</w>": 589,
      "emi": 590,
      "entr": 591,
      "int": 592,
      "eill": 593,
      "met": 594,
      "ceci</w>": 595,
      "endu</w>": 596,
      "mal</w>": 597,
      "cer": 598,
      "pouvez</w>": 599,
      "quelqu</w>": 600,
      "bu": 601,
      "enti": 602,
      "ot": 603,
      "tement</w>": 604,
      "commen": 605,
      "tél": 606,
      "sion</w>": 607,
      "tant</w>": 608,
      "occu": 609,
      "cl": 610,
      "pe</w>": 611,
      "ou</w>": 612,
      "ur</w>": 613,
      "euse</w>": 614,
      "ha": 615,
      "notre</w>": 616,
      "voy": 617,
      "étu": 618,
      "ge</w>": 619,
      "tôt</w>": 620,
      "après</w>": 621,
      "pren": 622,
      "rent</w>": 623,
      "auc": 624,
      "sans</w>": 625,
      "mieux</w>": 626,
      "assez</w>": 627,
      "semble</w>": 628,
      "arrê": 629,
      "le": 630,
      "trois</w>": 631,
      "rem": 632,
      "ques": 633,
      "bonne</w>": 634,
      "sa": 635,
      "demain</w>": 636,
      "leur</w>": 637,
      "iez</w>": 638,
      "ste</w>": 639,
      "livre</w>": 640,
      "long": 641,
      "plaît</w>": 642,
      "viens</w>": 643,
      "seul</w>": 644,
      "étudi": 645,
      "appel": 646,
      "mor": 647,
      "enfants</w>": 648,
      "occup": 649,
      "fin": 650,
      "ors</w>": 651,
      "problème</w>": 652,
      "cher": 653,
      "voulez</w>": 654,
      "arrive</w>": 655,
      "ante</w>": 656,
      "toutes</w>": 657,
      "ali": 658,
      "éco": 659,
      "f</w>": 660,
      "dû": 661,
      "ve</w>": 662,
      "devrais</w>": 663,
      "dû</w>": 664,
      "idé": 665,
      "pres": 666,
      "dét": 667,
      "noë": 668,
      "ég": 669,
      "oy": 670,
      "habi": 671,
      "dr": 672,
      "heure</w>": 673,
      "ob": 674,
      "noël</w>": 675,
      "aiss": 676,
      "gens</w>": 677,
      "école</w>": 678,
      "jour</w>": 679,
      "manger</w>": 680,
      "répon": 681,
      "télé": 682,
      "prends</w>": 683,
      "sim": 684,
      "diffi": 685,
      "dis</w>": 686,
      "al</w>": 687,
      "rou": 688,
      "pli": 689,
      "écri": 690,
      "sup": 691,
      "pay": 692,
      "dui": 693,
      "col": 694,
      "passé</w>": 695,
      "sui": 696,
      "aide</w>": 697,
      "oubli": 698,
      "chau": 699,
      "cha": 700,
      "choses</w>": 701,
      "mal": 702,
      "savoir</w>": 703,
      "toute</w>": 704,
      "déso": 705,
      "soir</w>": 706,
      "chang": 707,
      "mati": 708,
      "ba": 709,
      "aurais</w>": 710,
      "rai": 711,
      "venu</w>": 712,
      "part</w>": 713,
      "tres</w>": 714,
      "di</w>": 715,
      "préci": 716,
      "mer</w>": 717,
      "ellement</w>": 718,
      "pla": 719,
      "cet</w>": 720,
      "vos</w>": 721,
      "ra": 722,
      "dou": 723,
      "heures</w>": 724,
      "cti": 725,
      "voulais</w>": 726,
      "espère</w>": 727,
      "bos": 728,
      "boston</w>": 729,
      "grand</w>": 730,
      "né</w>": 731,
      "prom": 732,
      "erai</w>": 733,
      "sez</w>": 734,
      "chien</w>": 735,
      "déci": 736,
      "ol": 737,
      "nuit</w>": 738,
      "ché</w>": 739,
      "homme</w>": 740,
      "idée</w>": 741,
      "mom": 742,
      "ers</w>": 743,
      "partir</w>": 744,
      "quelques</w>": 745,
      "veu": 746,
      "rir</w>": 747,
      "souv": 748,
      "mère</w>": 749,
      "non</w>": 750,
      "véri": 751,
      "dent</w>": 752,
      "savais</w>": 753,
      "moment</w>": 754,
      "fon": 755,
      "ente</w>": 756,
      "ur": 757,
      "peur</w>": 758,
      "sûr</w>": 759,
      "fut</w>": 760,
      "aur": 761,
      "pu</w>": 762,
      "fl": 763,
      "réu": 764,
      "mé</w>": 765,
      "prê": 766,
      "rester</w>": 767,
      "sens</w>": 768,
      "difficile</w>": 769,
      "petit</w>": 770,
      "uti": 771,
      "cham": 772,
      "cert": 773,
      "dor": 774,
      "plu": 775,
      "veut</w>": 776,
      "rencontr": 777,
      "heureux</w>": 778,
      "tri": 779,
      "os</w>": 780,
      "ouver": 781,
      "dernière</w>": 782,
      "gran": 783,
      "intér": 784,
      "comp": 785,
      "fem": 786,
      "parle</w>": 787,
      "mis</w>": 788,
      "atten": 789,
      "depuis</w>": 790,
      "pend": 791,
      "table</w>": 792,
      "amis</w>": 793,
      "mau": 794,
      "faites</w>": 795,
      "sé": 796,
      "nouveau</w>": 797,
      "str": 798,
      "che": 799,
      "moin": 800,
      "raison</w>": 801,
      "ds</w>": 802,
      "op": 803,
      "gag": 804,
      "plement</w>": 805,
      "én": 806,
      "simplement</w>": 807,
      "qué</w>": 808,
      "err": 809,
      "préf": 810,
      "crois</w>": 811,
      "des": 812,
      "tomb": 813,
      "pui": 814,
      "fil": 815,
      "jet</w>": 816,
      "sorti": 817,
      "déjeu": 818,
      "meill": 819,
      "ager</w>": 820,
      "voud": 821,
      "phon": 822,
      "entendu</w>": 823,
      "poli": 824,
      "appréci": 825,
      "éti": 826,
      "étr": 827,
      "question</w>": 828,
      "soy": 829,
      "able</w>": 830,
      "ign": 831,
      "lo": 832,
      "ail": 833,
      "seule</w>": 834,
      "vent</w>": 835,
      "lor": 836,
      "habitu": 837,
      "lors": 838,
      "longtemps</w>": 839,
      "port": 840,
      "proch": 841,
      "as": 842,
      "nom</w>": 843,
      "œur</w>": 844,
      "commenc": 845,
      "fati": 846,
      "sera</w>": 847,
      "premi": 848,
      "demandé</w>": 849,
      "pendant</w>": 850,
      "teur</w>": 851,
      "semaine</w>": 852,
      "souvent</w>": 853,
      "rap": 854,
      "téléphon": 855,
      "connaiss": 856,
      "sois</w>": 857,
      "fatigu": 858,
      "let": 859,
      "aise</w>": 860,
      "parents</w>": 861,
      "sent": 862,
      "écou": 863,
      "çon</w>": 864,
      "pourrais</w>": 865,
      "mu": 866,
      "trouvé</w>": 867,
      "vrai</w>": 868,
      "ami</w>": 869,
      "acheter</w>": 870,
      "poin": 871,
      "piè": 872,
      "ant": 873,
      "devons</w>": 874,
      "ment": 875,
      "cri": 876,
      "possi": 877,
      "accor": 878,
      "éch": 879,
      "pose</w>": 880,
      "tard</w>": 881,
      "avi": 882,
      "ine</w>": 883,
      "choi": 884,
      "jusqu</w>": 885,
      "croire</w>": 886,
      "la": 887,
      "tent</w>": 888,
      "af": 889,
      "rendre</w>": 890,
      "poi": 891,
      "jeu": 892,
      "ets</w>": 893,
      "intéress": 894,
      "sau": 895,
      "nes</w>": 896,
      "acheté</w>": 897,
      "arrivé</w>": 898,
      "entre</w>": 899,
      "aie</w>": 900,
      "sons</w>": 901,
      "pru": 902,
      "onnes</w>": 903,
      "passe</w>": 904,
      "femme</w>": 905,
      "penses</w>": 906,
      "fille</w>": 907,
      "pouvons</w>": 908,
      "soyez</w>": 909,
      "chambre</w>": 910,
      "demande</w>": 911,
      "phot": 912,
      "cui": 913,
      "parl": 914,
      "èrent</w>": 915,
      "pensé</w>": 916,
      "ade</w>": 917,
      "matin</w>": 918,
      "trouver</w>": 919,
      "étrang": 920,
      "teau</w>": 921,
      "era</w>": 922,
      "fam": 923,
      "connais</w>": 924,
      "conse": 925,
      "laisse</w>": 926,
      "ure</w>": 927,
      "perdu</w>": 928,
      "ec": 929,
      "minu": 930,
      "ères</w>": 931,
      "mettre</w>": 932,
      "étaient</w>": 933,
      "eille</w>": 934,
      "rions</w>": 935,
      "donné</w>": 936,
      "désolé</w>": 937,
      "ori": 938,
      "esse</w>": 939,
      "ver</w>": 940,
      "pourrait</w>": 941,
      "ti</w>": 942,
      "aucun</w>": 943,
      "déjeuner</w>": 944,
      "retard</w>": 945,
      "cin": 946,
      "vas</w>": 947,
      "confi": 948,
      "vient</w>": 949,
      "merci</w>": 950,
      "moins</w>": 951,
      "ré</w>": 952,
      "ats</w>": 953,
      "car": 954,
      "can": 955,
      "allons</w>": 956,
      "caf": 957,
      "passer</w>": 958,
      "aucune</w>": 959,
      "th": 960,
      "lire</w>": 961,
      "rs</w>": 962,
      "sin": 963,
      "duire</w>": 964,
      "fort</w>": 965,
      "cam": 966,
      "quer</w>": 967,
      "presque</w>": 968,
      "alement</w>": 969,
      "tés</w>": 970,
      "rentr": 971,
      "doit</w>": 972,
      "blement</w>": 973,
      "enne</w>": 974,
      "donner</w>": 975,
      "fête</w>": 976,
      "utili": 977,
      "cel": 978,
      "diff": 979,
      "gn": 980,
      "assi": 981,
      "lit</w>": 982,
      "jouer</w>": 983,
      "allez</w>": 984,
      "attend": 985,
      "reste</w>": 986,
      "vérité</w>": 987,
      "port</w>": 988,
      "attendre</w>": 989,
      "bat": 990,
      "ville</w>": 991,
      "cours</w>": 992,
      "conti": 993,
      "téléphone</w>": 994,
      "viendr": 995,
      "0</w>": 996,
      "prie</w>": 997,
      "ress": 998,
      "appelle</w>": 999,
      "accord</w>": 1000,
      "possible</w>": 1001,
      "sent</w>": 1002,
      "mag": 1003,
      "étiez</w>": 1004,
      "jap": 1005,
      "dont</w>": 1006,
      "rai</w>": 1007,
      "chemi": 1008,
      "vres</w>": 1009,
      "bless": 1010,
      "ati": 1011,
      "pièce</w>": 1012,
      "visi": 1013,
      "nouvelle</w>": 1014,
      "café</w>": 1015,
      "journée</w>": 1016,
      "bus</w>": 1017,
      "détes": 1018,
      "lais</w>": 1019,
      "empl": 1020,
      "cep": 1021,
      "hist": 1022,
      "ues</w>": 1023,
      "montr": 1024,
      "différ": 1025,
      "main</w>": 1026,
      "trouve</w>": 1027,
      "mort</w>": 1028,
      "enfant</w>": 1029,
      "médi": 1030,
      "famille</w>": 1031,
      "autres</w>": 1032,
      "vé</w>": 1033,
      "hu": 1034,
      "pati": 1035,
      "ili": 1036,
      "illez</w>": 1037,
      "sujet</w>": 1038,
      "savez</w>": 1039,
      "hô": 1040,
      "plai": 1041,
      "gi": 1042,
      "froi": 1043,
      "ein": 1044,
      "année</w>": 1045,
      "travailler</w>": 1046,
      "hors</w>": 1047,
      "chaque</w>": 1048,
      "vois</w>": 1049,
      "bal": 1050,
      "nour": 1051,
      "allé</w>": 1052,
      "eil</w>": 1053,
      "mou": 1054,
      "reau</w>": 1055,
      "pouvoir</w>": 1056,
      "point</w>": 1057,
      "rec": 1058,
      "frère</w>": 1059,
      "sortir</w>": 1060,
      "devez</w>": 1061,
      "lorsque</w>": 1062,
      "rer</w>": 1063,
      "expli": 1064,
      "bureau</w>": 1065,
      "propo": 1066,
      "lig": 1067,
      "ore</w>": 1068,
      "cen": 1069,
      "voulait</w>": 1070,
      "ra</w>": 1071,
      "dites</w>": 1072,
      "excu": 1073,
      "din": 1074,
      "euses</w>": 1075,
      "mani": 1076,
      "vite</w>": 1077,
      "senti": 1078,
      "voudrais</w>": 1079,
      "anglais</w>": 1080,
      "quit": 1081,
      "termin": 1082,
      "sous</w>": 1083,
      "chance</w>": 1084,
      "entendre</w>": 1085,
      "proba": 1086,
      "esp": 1087,
      "grande</w>": 1088,
      "avant": 1089,
      "serait</w>": 1090,
      "compl": 1091,
      "occupé</w>": 1092,
      "veuillez</w>": 1093,
      "prise</w>": 1094,
      "discu": 1095,
      "an</w>": 1096,
      "ains</w>": 1097,
      "devriez</w>": 1098,
      "jeune</w>": 1099,
      "lettre</w>": 1100,
      "contre</w>": 1101,
      "ensemble</w>": 1102,
      "fin</w>": 1103,
      "nombr": 1104,
      "yeux</w>": 1105,
      "petite</w>": 1106,
      "ef": 1107,
      "pensez</w>": 1108,
      "veill": 1109,
      "lun": 1110,
      "ga": 1111,
      "our</w>": 1112,
      "histoire</w>": 1113,
      "acci": 1114,
      "ne": 1115,
      "leurs</w>": 1116,
      "avantage</w>": 1117,
      "ateur</w>": 1118,
      "ches</w>": 1119,
      "tellement</w>": 1120,
      "sal": 1121,
      "amus": 1122,
      "in</w>": 1123,
      "serai</w>": 1124,
      "erreur</w>": 1125,
      "nager</w>": 1126,
      "agi": 1127,
      "dez</w>": 1128,
      "inqui": 1129,
      "ense": 1130,
      "tête</w>": 1131,
      "essayer</w>": 1132,
      "ctionn": 1133,
      "confiance</w>": 1134,
      "sci": 1135,
      "stu": 1136,
      "vue</w>": 1137,
      "adore</w>": 1138,
      "cau": 1139,
      "san": 1140,
      "gen": 1141,
      "envie</w>": 1142,
      "souh": 1143,
      "rom": 1144,
      "illes</w>": 1145,
      "comprends</w>": 1146,
      "bles</w>": 1147,
      "sti": 1148,
      "appeler</w>": 1149,
      "livres</w>": 1150,
      "sembl": 1151,
      "sœur</w>": 1152,
      "préfér": 1153,
      "fen": 1154,
      "bri": 1155,
      "appar": 1156,
      "apprendre</w>": 1157,
      "fini</w>": 1158,
      "ète</w>": 1159,
      "vél": 1160,
      "nos</w>": 1161,
      "nourri": 1162,
      "vivre</w>": 1163,
      "lent</w>": 1164,
      "facile</w>": 1165,
      "uie</w>": 1166,
      "bient": 1167,
      "bientôt</w>": 1168,
      "davantage</w>": 1169,
      "seulement</w>": 1170,
      "croy": 1171,
      "donne</w>": 1172,
      "exac": 1173,
      "dang": 1174,
      "aim": 1175,
      "lée</w>": 1176,
      "laissez</w>": 1177,
      "prêt</w>": 1178,
      "cal": 1179,
      "dér": 1180,
      "souhai": 1181,
      "personnes</w>": 1182,
      "cô": 1183,
      "dix</w>": 1184,
      "froid</w>": 1185,
      "arrêter</w>": 1186,
      "rest": 1187,
      "méde": 1188,
      "sig": 1189,
      "partie</w>": 1190,
      "poser</w>": 1191,
      "continu": 1192,
      "porter</w>": 1193,
      "demander</w>": 1194,
      "enn": 1195,
      "ettes</w>": 1196,
      "coû": 1197,
      "curi": 1198,
      "conv": 1199,
      "réuni": 1200,
      "questions</w>": 1201,
      "pag": 1202,
      "colère</w>": 1203,
      "attr": 1204,
      "mangé</w>": 1205,
      "soi": 1206,
      "ves</w>": 1207,
      "prenez</w>": 1208,
      "photo</w>": 1209,
      "invi": 1210,
      "devrait</w>": 1211,
      "duit</w>": 1212,
      "police</w>": 1213,
      "mauvais</w>": 1214,
      "vieux</w>": 1215,
      "attention</w>": 1216,
      "heureuse</w>": 1217,
      "da</w>": 1218,
      "çu</w>": 1219,
      "bas</w>": 1220,
      "lang": 1221,
      "at</w>": 1222,
      "place</w>": 1223,
      "ferais</w>": 1224,
      "film</w>": 1225,
      "serais</w>": 1226,
      "dî": 1227,
      "mir</w>": 1228,
      "endroit</w>": 1229,
      "oublié</w>": 1230,
      "trai": 1231,
      "réponse</w>": 1232,
      "fatigué</w>": 1233,
      "attrap": 1234,
      "inter": 1235,
      "cade": 1236,
      "ements</w>": 1237,
      "alors</w>": 1238,
      "accident</w>": 1239,
      "vélo</w>": 1240,
      "dernier</w>": 1241,
      "essayé</w>": 1242,
      "déc": 1243,
      "pec": 1244,
      "compte</w>": 1245,
      "réunion</w>": 1246,
      "parlé</w>": 1247,
      "emb": 1248,
      "belle</w>": 1249,
      "eaux</w>": 1250,
      "arriver</w>": 1251,
      "conduire</w>": 1252,
      "sée</w>": 1253,
      "rapi": 1254,
      "pau": 1255,
      "fils</w>": 1256,
      "midi</w>": 1257,
      "devrions</w>": 1258,
      "déteste</w>": 1259,
      "vers</w>": 1260,
      "k</w>": 1261,
      "fier</w>": 1262,
      "du": 1263,
      "mois</w>": 1264,
      "rière</w>": 1265,
      "aut</w>": 1266,
      "rement</w>": 1267,
      "prix</w>": 1268,
      "écrit</w>": 1269,
      "pourriez</w>": 1270,
      "écrire</w>": 1271,
      "autant</w>": 1272,
      "prof": 1273,
      "igno": 1274,
      "meilleur</w>": 1275,
      "celui</w>": 1276,
      "dur</w>": 1277,
      "médeci": 1278,
      "amie</w>": 1279,
      "séri": 1280,
      "nourriture</w>": 1281,
      "capa": 1282,
      "cul": 1283,
      "chat</w>": 1284,
      "musi": 1285,
      "gé</w>": 1286,
      "comprendre</w>": 1287,
      "sus</w>": 1288,
      "ordin": 1289,
      "éni": 1290,
      "tour</w>": 1291,
      "travaille</w>": 1292,
      "conque</w>": 1293,
      "enir</w>": 1294,
      "minutes</w>": 1295,
      "ignore</w>": 1296,
      "ignor": 1297,
      "nis</w>": 1298,
      "feu</w>": 1299,
      "ouvert</w>": 1300,
      "âge</w>": 1301,
      "boire</w>": 1302,
      "pluie</w>": 1303,
      "laissé</w>": 1304,
      "regarde</w>": 1305,
      "ale</w>": 1306,
      "mi</w>": 1307,
      "dispo": 1308,
      "alie</w>": 1309,
      "erais</w>": 1310,
      "inten": 1311,
      "malade</w>": 1312,
      "genre</w>": 1313,
      "tons</w>": 1314,
      "retour": 1315,
      "pie": 1316,
      "lu</w>": 1317,
      "accep": 1318,
      "tel</w>": 1319,
      "regarder</w>": 1320,
      "sir</w>": 1321,
      "erre</w>": 1322,
      "tor": 1323,
      "médecin</w>": 1324,
      "asse</w>": 1325,
      "suffi": 1326,
      "côté</w>": 1327,
      "venue</w>": 1328,
      "pom": 1329,
      "dormir</w>": 1330,
      "off": 1331,
      "laisser</w>": 1332,
      "situ": 1333,
      "imag": 1334,
      "garçon</w>": 1335,
      "arrête</w>": 1336,
      "mot</w>": 1337,
      "aille</w>": 1338,
      "aines</w>": 1339,
      "probablement</w>": 1340,
      "ju": 1341,
      "gâ": 1342,
      "ban": 1343,
      "gare</w>": 1344,
      "niver": 1345,
      "parti</w>": 1346,
      "rend": 1347,
      "penser</w>": 1348,
      "équi": 1349,
      "sûre</w>": 1350,
      "tran": 1351,
      "mauv": 1352,
      "manière</w>": 1353,
      "adi": 1354,
      "cle</w>": 1355,
      "prend</w>": 1356,
      "exactement</w>": 1357,
      "importe</w>": 1358,
      "verre</w>": 1359,
      "dessus</w>": 1360,
      "assé</w>": 1361,
      "aimes</w>": 1362,
      "parer</w>": 1363,
      "plutôt</w>": 1364,
      "impres": 1365,
      "premier</w>": 1366,
      "dehors</w>": 1367,
      "pleur": 1368,
      "austr": 1369,
      "go": 1370,
      "faim</w>": 1371,
      "chemin</w>": 1372,
      "aurait</w>": 1373,
      "sy": 1374,
      "impor": 1375,
      "puisse</w>": 1376,
      "neig": 1377,
      "be</w>": 1378,
      "ple": 1379,
      "rê": 1380,
      "infor": 1381,
      "aut": 1382,
      "cheveux</w>": 1383,
      "australie</w>": 1384,
      "choix</w>": 1385,
      "lot</w>": 1386,
      "pays</w>": 1387,
      "cer</w>": 1388,
      "journ": 1389,
      "pê": 1390,
      "plan</w>": 1391,
      "sonn": 1392,
      "prochaine</w>": 1393,
      "sement</w>": 1394,
      "sin</w>": 1395,
      "chaud</w>": 1396,
      "perdre</w>": 1397,
      "ssu": 1398,
      "jet": 1399,
      "mat": 1400,
      "ann": 1401,
      "beau</w>": 1402,
      "per</w>": 1403,
      "exam": 1404,
      "pouvais</w>": 1405,
      "musique</w>": 1406,
      "vit</w>": 1407,
      "décidé</w>": 1408,
      "ainsi</w>": 1409,
      "commencé</w>": 1410,
      "important</w>": 1411,
      "ances</w>": 1412,
      "apprécie</w>": 1413,
      "rire</w>": 1414,
      "èmes</w>": 1415,
      "ami": 1416,
      "stupi": 1417,
      "oirs</w>": 1418,
      "mée</w>": 1419,
      "bé": 1420,
      "fenêtre</w>": 1421,
      "dîner</w>": 1422,
      "pleu": 1423,
      "embr": 1424,
      "fs</w>": 1425,
      "dérang": 1426,
      "tenir</w>": 1427,
      "peu": 1428,
      "première</w>": 1429,
      "missi": 1430,
      "ceux</w>": 1431,
      "loin</w>": 1432,
      "èg": 1433,
      "ing": 1434,
      "ages</w>": 1435,
      "suppose</w>": 1436,
      "ôle</w>": 1437,
      "cre": 1438,
      "content</w>": 1439,
      "cier</w>": 1440,
      "entrer</w>": 1441,
      "envoy": 1442,
      "profess": 1443,
      "import": 1444,
      "appris</w>": 1445,
      "suc": 1446,
      "cont": 1447,
      "suite</w>": 1448,
      "joue</w>": 1449,
      "étudier</w>": 1450,
      "vin</w>": 1451,
      "nifi": 1452,
      "boulot</w>": 1453,
      "sine</w>": 1454,
      "amment</w>": 1455,
      "savait</w>": 1456,
      "dan": 1457,
      "étions</w>": 1458,
      "mains</w>": 1459,
      "mets</w>": 1460,
      "désolée</w>": 1461,
      "intention</w>": 1462,
      "prit</w>": 1463,
      "gro": 1464,
      "montre</w>": 1465,
      "néc": 1466,
      "curité</w>": 1467,
      "comman": 1468,
      "maga": 1469,
      "tour": 1470,
      "gros</w>": 1471,
      "ion</w>": 1472,
      "réfl": 1473,
      "lieu</w>": 1474,
      "plait</w>": 1475,
      "péri": 1476,
      "sition</w>": 1477,
      "dement</w>": 1478,
      "ennu": 1479,
      "tis": 1480,
      "mange</w>": 1481,
      "lait</w>": 1482,
      "essaie</w>": 1483,
      "h</w>": 1484,
      "eusement</w>": 1485,
      "peuvent</w>": 1486,
      "envi": 1487,
      "ris": 1488,
      "affaire</w>": 1489,
      "inst": 1490,
      "cé": 1491,
      "prendr": 1492,
      "attends</w>": 1493,
      "pre</w>": 1494,
      "chanter</w>": 1495,
      "chercher</w>": 1496,
      "cs</w>": 1497,
      "obli": 1498,
      "rez</w>": 1499,
      "problèmes</w>": 1500,
      "lar": 1501,
      "chaussu": 1502,
      "iller</w>": 1503,
      "présent": 1504,
      "évi": 1505,
      "dur": 1506,
      "lav": 1507,
      "convain": 1508,
      "payer</w>": 1509,
      "cé</w>": 1510,
      "êt": 1511,
      "japon</w>": 1512,
      "vont</w>": 1513,
      "changer</w>": 1514,
      "pé": 1515,
      "aires</w>": 1516,
      "gén": 1517,
      "cent</w>": 1518,
      "marché</w>": 1519,
      "érieur</w>": 1520,
      "décision</w>": 1521,
      "surpris</w>": 1522,
      "voyage</w>": 1523,
      "servi": 1524,
      "ferai</w>": 1525,
      "peine</w>": 1526,
      "élè": 1527,
      "gér": 1528,
      "pouvait</w>": 1529,
      "règ": 1530,
      "quiconque</w>": 1531,
      "cadeau</w>": 1532,
      "tal</w>": 1533,
      "tée</w>": 1534,
      "bois</w>": 1535,
      "sécurité</w>": 1536,
      "fumer</w>": 1537,
      "posé</w>": 1538,
      "lumi": 1539,
      "marcher</w>": 1540,
      "situation</w>": 1541,
      "lundi</w>": 1542,
      "satis": 1543,
      "professeur</w>": 1544,
      "viv": 1545,
      "propos</w>": 1546,
      "ouvrir</w>": 1547,
      "génér": 1548,
      "nécess": 1549,
      "rentrer</w>": 1550,
      "to": 1551,
      "répondre</w>": 1552,
      "qua": 1553,
      "espér": 1554,
      "aban": 1555,
      "terre</w>": 1556,
      "ani": 1557,
      "habitude</w>": 1558,
      "chaussures</w>": 1559,
      "visite</w>": 1560,
      "œu": 1561,
      "respon": 1562,
      "nouvelles</w>": 1563,
      "ot</w>": 1564,
      "ètement</w>": 1565,
      "fus": 1566,
      "télévi": 1567,
      "pé</w>": 1568,
      "tique</w>": 1569,
      "vac": 1570,
      "gui": 1571,
      "emploi</w>": 1572,
      "assis</w>": 1573,
      "bres</w>": 1574,
      "çons</w>": 1575,
      "we": 1576,
      "allait</w>": 1577,
      "devoirs</w>": 1578,
      "ru": 1579,
      "illé</w>": 1580,
      "commence</w>": 1581,
      "stupide</w>": 1582,
      "immédi": 1583,
      "agit</w>": 1584,
      "moy": 1585,
      "ner": 1586,
      "asse": 1587,
      "entre": 1588,
      "pan": 1589,
      "utiliser</w>": 1590,
      "lon": 1591,
      "bout</w>": 1592,
      "sul": 1593,
      "reçu</w>": 1594,
      "complètement</w>": 1595,
      "aviez</w>": 1596,
      "ty": 1597,
      "celle</w>": 1598,
      "blessé</w>": 1599,
      "bon": 1600,
      "capable</w>": 1601,
      "terminé</w>": 1602,
      "cherche</w>": 1603,
      "q</w>": 1604,
      "cation</w>": 1605,
      "produit</w>": 1606,
      "rencontrer</w>": 1607,
      "cret</w>": 1608,
      "fac": 1609,
      "parce</w>": 1610,
      "ari": 1611,
      "lè": 1612,
      "pein": 1613,
      "route</w>": 1614,
      "ll": 1615,
      "derrière</w>": 1616,
      "alité</w>": 1617,
      "aimé</w>": 1618,
      "classe</w>": 1619,
      "affai": 1620,
      "suiv": 1621,
      "façon</w>": 1622,
      "sson</w>": 1623,
      "autori": 1624,
      "revoir</w>": 1625,
      "faisons</w>": 1626,
      "asser</w>": 1627,
      "mauvaise</w>": 1628,
      "intel": 1629,
      "cause</w>": 1630,
      "amour": 1631,
      "prochain</w>": 1632,
      "aupar": 1633,
      "auparavant</w>": 1634,
      "chap": 1635,
      "cinq</w>": 1636,
      "enseign": 1637,
      "équipe</w>": 1638,
      "imagin": 1639,
      "hôpi": 1640,
      "commencer</w>": 1641,
      "langue</w>": 1642,
      "hor": 1643,
      "neige</w>": 1644,
      "avion</w>": 1645,
      "bière</w>": 1646,
      "appelé</w>": 1647,
      "mes": 1648,
      "ord</w>": 1649,
      "atement</w>": 1650,
      "occupée</w>": 1651,
      "trente</w>": 1652,
      "intellig": 1653,
      "erait</w>": 1654,
      "voulons</w>": 1655,
      "éro</w>": 1656,
      "immédiatement</w>": 1657,
      "chanson</w>": 1658,
      "hôpital</w>": 1659,
      "ordinateur</w>": 1660,
      "clé</w>": 1661,
      "èrement</w>": 1662,
      "secret</w>": 1663,
      "bruit</w>": 1664,
      "rapidement</w>": 1665,
      "boî": 1666,
      "thé</w>": 1667,
      "faisait</w>": 1668,
      "cœur</w>": 1669,
      "suffis": 1670,
      "traver": 1671,
      "bé</w>": 1672,
      "tomber</w>": 1673,
      "ions</w>": 1674,
      "jo": 1675,
      "riche</w>": 1676,
      "ate</w>": 1677,
      "parfois</w>": 1678,
      "aies</w>": 1679,
      "oyer</w>": 1680,
      "sionn": 1681,
      "dol": 1682,
      "trom": 1683,
      "allu": 1684,
      "souviens</w>": 1685,
      "changé</w>": 1686,
      "japon": 1687,
      "idi": 1688,
      "tionn": 1689,
      "nombreux</w>": 1690,
      "publi": 1691,
      "cuisin": 1692,
      "solu": 1693,
      "tent": 1694,
      "arbre</w>": 1695,
      "guerre</w>": 1696,
      "ls</w>": 1697,
      "gagner</w>": 1698,
      "tation</w>": 1699,
      "restaur": 1700,
      "rue</w>": 1701,
      "discuter</w>": 1702,
      "end</w>": 1703,
      "concer": 1704,
      "font</w>": 1705,
      "rencontré</w>": 1706,
      "devenir</w>": 1707,
      "danger": 1708,
      "gri": 1709,
      "ni</w>": 1710,
      "somm": 1711,
      "antes</w>": 1712,
      "arrêté</w>": 1713,
      "thom": 1714,
      "ardi": 1715,
      "vis</w>": 1716,
      "thomas</w>": 1717,
      "convainc": 1718,
      "rée</w>": 1719,
      "honn": 1720,
      "ball</w>": 1721,
      "télévision</w>": 1722,
      "nécessaire</w>": 1723,
      "arti": 1724,
      "certain</w>": 1725,
      "venez</w>": 1726,
      "rel": 1727,
      "œil</w>": 1728,
      "plein</w>": 1729,
      "rob": 1730,
      "aître</w>": 1731,
      "étein": 1732,
      "santé</w>": 1733,
      "rivi": 1734,
      "chapeau</w>": 1735,
      "hôtel</w>": 1736,
      "laire</w>": 1737,
      "tort</w>": 1738,
      "devant</w>": 1739,
      "montrer</w>": 1740,
      "tennis</w>": 1741,
      "affaires</w>": 1742,
      "but</w>": 1743,
      "vacances</w>": 1744,
      "endor": 1745,
      "dents</w>": 1746,
      "proche</w>": 1747,
      "ressem": 1748,
      "goû": 1749,
      "don": 1750,
      "doi": 1751,
      "num": 1752,
      "vêt": 1753,
      "join": 1754,
      "boîte</w>": 1755,
      "ple</w>": 1756,
      "rappelle</w>": 1757,
      "cas</w>": 1758,
      "propre</w>": 1759,
      "vêtements</w>": 1760,
      "avis</w>": 1761,
      "biz": 1762,
      "effr": 1763,
      "rouge</w>": 1764,
      "reti": 1765,
      "ett": 1766,
      "consci": 1767,
      "retour</w>": 1768,
      "sieurs</w>": 1769,
      "bébé</w>": 1770,
      "poste</w>": 1771,
      "instant</w>": 1772,
      "viendra</w>": 1773,
      "télé</w>": 1774,
      "prun": 1775,
      "magasin</w>": 1776,
      "laquelle</w>": 1777,
      "song": 1778,
      "frapp": 1779,
      "veulent</w>": 1780,
      "prête</w>": 1781,
      "plaisir</w>": 1782,
      "vaut</w>": 1783,
      "sole": 1784,
      "soleil</w>": 1785,
      "prin": 1786,
      "aimez</w>": 1787,
      "épou": 1788,
      "liez</w>": 1789,
      "consi": 1790,
      "fasse</w>": 1791,
      "droit</w>": 1792,
      "bras</w>": 1793,
      "fou": 1794,
      "restaurant</w>": 1795,
      "remar": 1796,
      "long</w>": 1797,
      "emprun": 1798,
      "sable</w>": 1799,
      "numéro</w>": 1800,
      "parc</w>": 1801,
      "donnez</w>": 1802,
      "informa": 1803,
      "jardi": 1804,
      "blan": 1805,
      "sac</w>": 1806,
      "rons</w>": 1807,
      "meilleure</w>": 1808,
      "sés</w>": 1809,
      "cès</w>": 1810,
      "rivière</w>": 1811,
      "plusieurs</w>": 1812,
      "bâ": 1813,
      "améri": 1814,
      "éli": 1815,
      "vouloir</w>": 1816,
      "accu": 1817,
      "cuisine</w>": 1818,
      "fo": 1819,
      "ayez</w>": 1820,
      "désor": 1821,
      "tru": 1822,
      "étudiants</w>": 1823,
      "lle</w>": 1824,
      "nett": 1825,
      "donc</w>": 1826,
      "chev": 1827,
      "fit</w>": 1828,
      "mourir</w>": 1829,
      "années</w>": 1830,
      "refus": 1831,
      "compag": 1832,
      "lumière</w>": 1833,
      "ctionne</w>": 1834,
      "expéri": 1835,
      "intéressant</w>": 1836,
      "ène</w>": 1837,
      "nivers": 1838,
      "ps</w>": 1839,
      "réfléch": 1840,
      "examen</w>": 1841,
      "lorsqu</w>": 1842,
      "quatre</w>": 1843,
      "journal</w>": 1844,
      "ro": 1845,
      "volé</w>": 1846,
      "sorte</w>": 1847,
      "bizar": 1848,
      "plain": 1849,
      "cré": 1850,
      "garde</w>": 1851,
      "dollar": 1852,
      "dollars</w>": 1853,
      "cro": 1854,
      "eff": 1855,
      "tag": 1856,
      "libre</w>": 1857,
      "èque</w>": 1858,
      "sage</w>": 1859,
      "oublie</w>": 1860,
      "pied</w>": 1861,
      "carte</w>": 1862,
      "liste</w>": 1863,
      "jardin</w>": 1864,
      "vieille</w>": 1865,
      "réveill": 1866,
      "correc": 1867,
      "soin</w>": 1868,
      "dangereux</w>": 1869,
      "signifi": 1870,
      "fleurs</w>": 1871,
      "lou": 1872,
      "gâteau</w>": 1873,
      "illi": 1874,
      "neu": 1875,
      "compris</w>": 1876,
      "ction</w>": 1877,
      "para": 1878,
      "racon": 1879,
      "sym": 1880,
      "cap": 1881,
      "venus</w>": 1882,
      "annivers": 1883,
      "serv": 1884,
      "empê": 1885,
      "minute</w>": 1886,
      "tenu</w>": 1887,
      "secon": 1888,
      "étranger</w>": 1889,
      "ze</w>": 1890,
      "pire</w>": 1891,
      "indi": 1892,
      "devoir</w>": 1893,
      "nombreuses</w>": 1894,
      "rig": 1895,
      "lever</w>": 1896,
      "fou</w>": 1897,
      "promets</w>": 1898,
      "prépar": 1899,
      "marche</w>": 1900,
      "porté</w>": 1901,
      "étrange</w>": 1902,
      "anniversaire</w>": 1903,
      "garder</w>": 1904,
      "four": 1905,
      "connaît</w>": 1906,
      "sug": 1907,
      "patr": 1908,
      "direc": 1909,
      "wee": 1910,
      "charg": 1911,
      "pa</w>": 1912,
      "prouv": 1913,
      "voici</w>": 1914,
      "fonctionne</w>": 1915,
      "résou": 1916,
      "gent": 1917,
      "ois": 1918,
      "faute</w>": 1919,
      "conc": 1920,
      "robe</w>": 1921,
      "aisse</w>": 1922,
      "ut</w>": 1923,
      "hommes</w>": 1924,
      "réparer</w>": 1925,
      "méri": 1926,
      "parlez</w>": 1927,
      "cess": 1928,
      "val": 1929,
      "rapport</w>": 1930,
      "chiens</w>": 1931,
      "avions</w>": 1932,
      "poids</w>": 1933,
      "cat</w>": 1934,
      "expliquer</w>": 1935,
      "tié</w>": 1936,
      "reconnaiss": 1937,
      "resté</w>": 1938,
      "utile</w>": 1939,
      "assur": 1940,
      "manche</w>": 1941,
      "tiens</w>": 1942,
      "sai": 1943,
      "plage</w>": 1944,
      "remer": 1945,
      "plac": 1946,
      "regr": 1947,
      "courir</w>": 1948,
      "type</w>": 1949,
      "terai</w>": 1950,
      "prot": 1951,
      "meur</w>": 1952,
      "âmes</w>": 1953,
      "pleuvoir</w>": 1954,
      "hé": 1955,
      "voulu</w>": 1956,
      "oui</w>": 1957,
      "pleurer</w>": 1958,
      "respec": 1959,
      "erreurs</w>": 1960,
      "entend": 1961,
      "préfère</w>": 1962,
      "rendu</w>": 1963,
      "entes</w>": 1964,
      "bizarre</w>": 1965,
      "désormais</w>": 1966,
      "tax": 1967,
      "vement</w>": 1968,
      "cité</w>": 1969,
      "ague</w>": 1970,
      "tait</w>": 1971,
      "copi": 1972,
      "dès</w>": 1973,
      "ador": 1974,
      "dispose</w>": 1975,
      "mots</w>": 1976,
      "avo": 1977,
      "tasse</w>": 1978,
      "conseil</w>": 1979,
      "arme</w>": 1980,
      "éner": 1981,
      "résoudre</w>": 1982,
      "sil": 1983,
      "cli": 1984,
      "pouss": 1985,
      "tal": 1986,
      "dormi</w>": 1987,
      "cieux</w>": 1988,
      "tué</w>": 1989,
      "bout": 1990,
      "tures</w>": 1991,
      "savons</w>": 1992,
      "courant</w>": 1993,
      "filles</w>": 1994,
      "desc": 1995,
      "entreprise</w>": 1996,
      "déb": 1997,
      "dés": 1998,
      "terri": 1999,
      "seriez</w>": 2000,
      "vienne</w>": 2001,
      "patient</w>": 2002,
      "tin": 2003,
      "restez</w>": 2004,
      "mess": 2005,
      "manque</w>": 2006,
      "enseig": 2007,
      "règles</w>": 2008,
      "oth": 2009,
      "produi": 2010,
      "face</w>": 2011,
      "poss": 2012,
      "promis</w>": 2013,
      "mit</w>": 2014,
      "occa": 2015,
      "arrêtez</w>": 2016,
      "mettez</w>": 2017,
      "promen": 2018,
      "voudriez</w>": 2019,
      "croi": 2020,
      "asseoir</w>": 2021,
      "sty": 2022,
      "amies</w>": 2023,
      "clai": 2024,
      "papi": 2025,
      "trad": 2026,
      "emment</w>": 2027,
      "fera</w>": 2028,
      "connu</w>": 2029,
      "sité</w>": 2030,
      "sol": 2031,
      "regardé</w>": 2032,
      "prison</w>": 2033,
      "six</w>": 2034,
      "dictionn": 2035,
      "sus": 2036,
      "radi": 2037,
      "week</w>": 2038,
      "finir</w>": 2039,
      "bibli": 2040,
      "biblioth": 2041,
      "nag": 2042,
      "rendez</w>": 2043,
      "ande</w>": 2044,
      "manteau</w>": 2045,
      "payé</w>": 2046,
      "excuses</w>": 2047,
      "élec": 2048,
      "avaient</w>": 2049,
      "mesure</w>": 2050,
      "dom": 2051,
      "écouter</w>": 2052,
      "finalement</w>": 2053,
      "sation</w>": 2054,
      "effray": 2055,
      "erons</w>": 2056,
      "gentil</w>": 2057,
      "ier</w>": 2058,
      "pain</w>": 2059,
      "conf": 2060,
      "rév": 2061,
      "gie</w>": 2062,
      "amour</w>": 2063,
      "fermer</w>": 2064,
      "suffisamment</w>": 2065,
      "profon": 2066,
      "surprise</w>": 2067,
      "opin": 2068,
      "doute</w>": 2069,
      "mission</w>": 2070,
      "dictionnaire</w>": 2071,
      "souhaite</w>": 2072,
      "atta": 2073,
      "telle</w>": 2074,
      "nat": 2075,
      "ano</w>": 2076,
      "plupart</w>": 2077,
      "ins</w>": 2078,
      "aider": 2079,
      "int</w>": 2080,
      "dirait</w>": 2081,
      "onte</w>": 2082,
      "sk": 2083,
      "sérieux</w>": 2084,
      "cherch": 2085,
      "cée</w>": 2086,
      "ciel</w>": 2087,
      "tombé</w>": 2088,
      "coûte</w>": 2089,
      "tabl": 2090,
      "lequel</w>": 2091,
      "bu</w>": 2092,
      "éro": 2093,
      "tente</w>": 2094,
      "bibliothèque</w>": 2095,
      "poisson</w>": 2096,
      "bâti": 2097,
      "empor": 2098,
      "expérience</w>": 2099,
      "rend</w>": 2100,
      "réussi</w>": 2101,
      "parfai": 2102,
      "cassé</w>": 2103,
      "devenu</w>": 2104,
      "quels</w>": 2105,
      "drôle</w>": 2106,
      "constr": 2107,
      "tra": 2108,
      "avocat</w>": 2109,
      "projet</w>": 2110,
      "impressionn": 2111,
      "piano</w>": 2112,
      "timi": 2113,
      "simple</w>": 2114,
      "grav": 2115,
      "attendais</w>": 2116,
      "triste</w>": 2117,
      "réali": 2118,
      "parapluie</w>": 2119,
      "fass": 2120,
      "plan": 2121,
      "grosse</w>": 2122,
      "moi": 2123,
      "moindre</w>": 2124,
      "autour</w>": 2125,
      "sses</w>": 2126,
      "serez</w>": 2127,
      "tir</w>": 2128,
      "sol</w>": 2129,
      "pes</w>": 2130,
      "aises</w>": 2131,
      "allée</w>": 2132,
      "nez</w>": 2133,
      "denti": 2134,
      "condui": 2135,
      "contac": 2136,
      "év": 2137,
      "souff": 2138,
      "dépê": 2139,
      "do": 2140,
      "30</w>": 2141,
      "danger</w>": 2142,
      "envir": 2143,
      "salle</w>": 2144,
      "ennent</w>": 2145,
      "stitu": 2146,
      "bons</w>": 2147,
      "rêve</w>": 2148,
      "noir</w>": 2149,
      "ables</w>": 2150,
      "quitter</w>": 2151,
      "seras</w>": 2152,
      "personn": 2153,
      "ilité</w>": 2154,
      "genti": 2155,
      "fav": 2156,
      "pai": 2157,
      "ferme</w>": 2158,
      "fermé</w>": 2159,
      "médicam": 2160,
      "prud": 2161,
      "dimanche</w>": 2162,
      "patron</w>": 2163,
      "vali": 2164,
      "connaître</w>": 2165,
      "crains</w>": 2166,
      "impression</w>": 2167,
      "amoureux</w>": 2168,
      "sommeil</w>": 2169,
      "brou": 2170,
      "sac": 2171,
      "portes</w>": 2172,
      "douleur</w>": 2173,
      "femmes</w>": 2174,
      "rit</w>": 2175,
      "succès</w>": 2176,
      "actu": 2177,
      "auriez</w>": 2178,
      "esti": 2179,
      "chine</w>": 2180,
      "bar": 2181,
      "bonnes</w>": 2182,
      "hau": 2183,
      "message</w>": 2184,
      "bour": 2185,
      "lunettes</w>": 2186,
      "résul": 2187,
      "pommes</w>": 2188,
      "culi": 2189,
      "bateau</w>": 2190,
      "court</w>": 2191,
      "prati": 2192,
      "ouverte</w>": 2193,
      "gau": 2194,
      "ède</w>": 2195,
      "anim": 2196,
      "rav": 2197,
      "ns</w>": 2198,
      "différence</w>": 2199,
      "certains</w>": 2200,
      "japonais</w>": 2201,
      "sions</w>": 2202,
      "rat": 2203,
      "progr": 2204,
      "danser</w>": 2205,
      "ster</w>": 2206,
      "chemise</w>": 2207,
      "resse</w>": 2208,
      "xi": 2209,
      "ch</w>": 2210,
      "furent</w>": 2211,
      "attraper</w>": 2212,
      "repas</w>": 2213,
      "attendu</w>": 2214,
      "fatiguée</w>": 2215,
      "uni": 2216,
      "ainement</w>": 2217,
      "pari": 2218,
      "croyais</w>": 2219,
      "jeu</w>": 2220,
      "gagné</w>": 2221,
      "impossible</w>": 2222,
      "ennes</w>": 2223,
      "coucher</w>": 2224,
      "gue</w>": 2225,
      "styl": 2226,
      "amen": 2227,
      "rar": 2228,
      "hab": 2229,
      "suivre</w>": 2230,
      "éle": 2231,
      "éter</w>": 2232,
      "fonctionn": 2233,
      "esprit</w>": 2234,
      "réjou": 2235,
      "press": 2236,
      "b</w>": 2237,
      "taxi</w>": 2238,
      "seconde</w>": 2239,
      "aug": 2240,
      "ignorais</w>": 2241,
      "ang</w>": 2242,
      "tuer</w>": 2243,
      "voyez</w>": 2244,
      "travaill": 2245,
      "haut</w>": 2246,
      "prudent</w>": 2247,
      "bill": 2248,
      "viande</w>": 2249,
      "papier</w>": 2250,
      "prés": 2251,
      "feriez</w>": 2252,
      "boi": 2253,
      "calme</w>": 2254,
      "occuper</w>": 2255,
      "demanda</w>": 2256,
      "lég": 2257,
      "échapp": 2258,
      "ras</w>": 2259,
      "regardez</w>": 2260,
      "nég": 2261,
      "ations</w>": 2262,
      "ger</w>": 2263,
      "ments</w>": 2264,
      "cheval</w>": 2265,
      "voix</w>": 2266,
      "atti": 2267,
      "entends</w>": 2268,
      "mariage</w>": 2269,
      "véc": 2270,
      "sorti</w>": 2271,
      "montag": 2272,
      "trans": 2273,
      "ferait</w>": 2274,
      "intérieur</w>": 2275,
      "tranqu": 2276,
      "habite</w>": 2277,
      "vécu</w>": 2278,
      "appareil</w>": 2279,
      "clés</w>": 2280,
      "souci": 2281,
      "car</w>": 2282,
      "occasion</w>": 2283,
      "emprunter</w>": 2284,
      "adresse</w>": 2285,
      "déli": 2286,
      "nie</w>": 2287,
      "avance</w>": 2288,
      "concert</w>": 2289,
      "photos</w>": 2290,
      "soci": 2291,
      "remet": 2292,
      "quement</w>": 2293,
      "00</w>": 2294,
      "nor": 2295,
      "donna</w>": 2296,
      "demand": 2297,
      "allais</w>": 2298,
      "opinion</w>": 2299,
      "ssons</w>": 2300,
      "fri": 2301,
      "els</w>": 2302,
      "toi": 2303,
      "apparti": 2304,
      "certaine</w>": 2305,
      "eilles</w>": 2306,
      "ferm": 2307,
      "siez</w>": 2308,
      "compter</w>": 2309,
      "pieds</w>": 2310,
      "lis</w>": 2311,
      "dess": 2312,
      "idiot</w>": 2313,
      "aidé</w>": 2314,
      "oncle</w>": 2315,
      "entraî": 2316,
      "chante</w>": 2317,
      "essayez</w>": 2318,
      "sach": 2319,
      "quitté</w>": 2320,
      "grou": 2321,
      "urg": 2322,
      "bâtiment</w>": 2323,
      "paro": 2324,
      "géni": 2325,
      "voyager</w>": 2326,
      "popu": 2327,
      "ho": 2328,
      "joindre</w>": 2329,
      "écoute</w>": 2330,
      "ins": 2331,
      "sour": 2332,
      "aiment</w>": 2333,
      "intelligent</w>": 2334,
      "senti</w>": 2335,
      "lac</w>": 2336,
      "certaines</w>": 2337,
      "présent</w>": 2338,
      "org": 2339,
      "oblig": 2340,
      "préféré</w>": 2341,
      "ilement</w>": 2342,
      "inquiète</w>": 2343,
      "rés</w>": 2344,
      "également</w>": 2345,
      "retourner</w>": 2346,
      "rends</w>": 2347,
      "je": 2348,
      "ssez</w>": 2349,
      "étudie</w>": 2350,
      "banque</w>": 2351,
      "guita": 2352,
      "exi": 2353,
      "chats</w>": 2354,
      "rarement</w>": 2355,
      "moyen</w>": 2356,
      "garçons</w>": 2357,
      "allés</w>": 2358,
      "die</w>": 2359,
      "décl": 2360,
      "signifie</w>": 2361,
      "eras</w>": 2362,
      "rhu": 2363,
      "risque</w>": 2364,
      "amusant</w>": 2365,
      "radio</w>": 2366,
      "animaux</w>": 2367,
      "aura</w>": 2368,
      "mari</w>": 2369,
      "levé</w>": 2370,
      "irai</w>": 2371,
      "anti": 2372,
      "bag": 2373,
      "ail</w>": 2374,
      "environ</w>": 2375,
      "ép": 2376,
      "menti</w>": 2377,
      "art</w>": 2378,
      "étudiant</w>": 2379,
      "ea</w>": 2380,
      "dée</w>": 2381,
      "invité</w>": 2382,
      "responsable</w>": 2383,
      "canadi": 2384,
      "spé": 2385,
      "stylo</w>": 2386,
      "œufs</w>": 2387,
      "sav": 2388,
      "ouvre</w>": 2389,
      "sep": 2390,
      "améli": 2391,
      "vend": 2392,
      "proposition</w>": 2393,
      "bien": 2394,
      "présenter</w>": 2395,
      "ck": 2396,
      "travers</w>": 2397,
      "conseils</w>": 2398,
      "spéci": 2399,
      "échou": 2400,
      "tableau</w>": 2401,
      "arrivera</w>": 2402,
      "empêcher</w>": 2403,
      "extr": 2404,
      "battre</w>": 2405,
      "appell": 2406,
      "vivent</w>": 2407,
      "particuli": 2408,
      "parfait</w>": 2409,
      "prévu</w>": 2410,
      "lé": 2411,
      "enfin</w>": 2412,
      "réfléchir</w>": 2413,
      "brû": 2414,
      "este</w>": 2415,
      "traite</w>": 2416,
      "rappeler</w>": 2417,
      "censé</w>": 2418,
      "ving": 2419,
      "neuf</w>": 2420,
      "attendez</w>": 2421,
      "érer</w>": 2422,
      "rentré</w>": 2423,
      "aff": 2424,
      "lève</w>": 2425,
      "satisfait</w>": 2426,
      "durant</w>": 2427,
      "débarr": 2428,
      "super": 2429,
      "gla": 2430,
      "discours</w>": 2431,
      "mét": 2432,
      "dispu": 2433,
      "dos</w>": 2434,
      "fié</w>": 2435,
      "enseignant</w>": 2436,
      "doc": 2437,
      "sache</w>": 2438,
      "chauff": 2439,
      "réjouis</w>": 2440,
      "couleur</w>": 2441,
      "univer": 2442,
      "coo": 2443,
      "travaillé</w>": 2444,
      "lie</w>": 2445,
      "compli": 2446,
      "répondu</w>": 2447,
      "ext": 2448,
      "connaissez</w>": 2449,
      "maladi": 2450,
      "honte</w>": 2451,
      "souci</w>": 2452,
      "ennem": 2453,
      "augment": 2454,
      "tera</w>": 2455,
      "expl": 2456,
      "produire</w>": 2457,
      "taille</w>": 2458,
      "avenir</w>": 2459,
      "jeunes</w>": 2460,
      "viol": 2461,
      "dedans</w>": 2462,
      "debout</w>": 2463,
      "gauche</w>": 2464,
      "faits</w>": 2465,
      "parviens</w>": 2466,
      "eiller</w>": 2467,
      "milli": 2468,
      "dispar": 2469,
      "sel": 2470,
      "attein": 2471,
      "semblez</w>": 2472,
      "mus": 2473,
      "contente</w>": 2474,
      "loi</w>": 2475,
      "fini": 2476,
      "tempête</w>": 2477,
      "pensait</w>": 2478,
      "ky": 2479,
      "apé</w>": 2480,
      "envoyé</w>": 2481,
      "verrou": 2482,
      "sées</w>": 2483,
      "aéro": 2484,
      "cir": 2485,
      "chaise</w>": 2486,
      "espoir</w>": 2487,
      "annu": 2488,
      "anci": 2489,
      "preu": 2490,
      "tais</w>": 2491,
      "facilement</w>": 2492,
      "ences</w>": 2493,
      "manqu": 2494,
      "sugg": 2495,
      "lour": 2496,
      "attenti": 2497,
      "impli": 2498,
      "institu": 2499,
      "dérange</w>": 2500,
      "différent</w>": 2501,
      "lan": 2502,
      "vée</w>": 2503,
      "viendrai</w>": 2504,
      "guitare</w>": 2505,
      "début</w>": 2506,
      "probable</w>": 2507,
      "fall": 2508,
      "sors</w>": 2509,
      "ressemble</w>": 2510,
      "incroy": 2511,
      "erez</w>": 2512,
      "endrai</w>": 2513,
      "continuer</w>": 2514,
      "parles</w>": 2515,
      "ber": 2516,
      "va": 2517,
      "iner</w>": 2518,
      "ges</w>": 2519,
      "écon": 2520,
      "revenir</w>": 2521,
      "bain</w>": 2522,
      "sant</w>": 2523,
      "visage</w>": 2524,
      "volon": 2525,
      "vide</w>": 2526,
      "idées</w>": 2527,
      "offre</w>": 2528,
      "su</w>": 2529,
      "économ": 2530,
      "eue</w>": 2531,
      "partout</w>": 2532,
      "marier</w>": 2533,
      "longue</w>": 2534,
      "mur</w>": 2535,
      "propr": 2536,
      "nerveux</w>": 2537,
      "semaines</w>": 2538,
      "soirée</w>": 2539,
      "célè": 2540,
      "perd": 2541,
      "tient</w>": 2542,
      "bord</w>": 2543,
      "écriv": 2544,
      "couteau</w>": 2545,
      "nombre</w>": 2546,
      "doig": 2547,
      "solution</w>": 2548,
      "semblait</w>": 2549,
      "hiver</w>": 2550,
      "coin</w>": 2551,
      "dési": 2552,
      "seur</w>": 2553,
      "quelles</w>": 2554,
      "venues</w>": 2555,
      "intéressé</w>": 2556,
      "foot": 2557,
      "permis</w>": 2558,
      "préparer</w>": 2559,
      "sucre</w>": 2560,
      "meur": 2561,
      "crav": 2562,
      "public</w>": 2563,
      "quée</w>": 2564,
      "pomme</w>": 2565,
      "nati": 2566,
      "service</w>": 2567,
      "appelez</w>": 2568,
      "cuisiner</w>": 2569,
      "rac": 2570,
      "marié</w>": 2571,
      "information</w>": 2572,
      "droi": 2573,
      "baiss": 2574,
      "rapide</w>": 2575,
      "dres</w>": 2576,
      "essaye</w>": 2577,
      "forme</w>": 2578,
      "éta": 2579,
      "trou": 2580,
      "roman</w>": 2581,
      "entement</w>": 2582,
      "aéroport</w>": 2583,
      "gne</w>": 2584,
      "illa</w>": 2585,
      "courag": 2586,
      "blague</w>": 2587,
      "vol</w>": 2588,
      "thé": 2589,
      "uits</w>": 2590,
      "honnête</w>": 2591,
      "nement</w>": 2592,
      "attend</w>": 2593,
      "inconv": 2594,
      "inconvéni": 2595,
      "met</w>": 2596,
      "gérer</w>": 2597,
      "cravate</w>": 2598,
      "âche</w>": 2599,
      "lentement</w>": 2600,
      "organi": 2601,
      "mensong": 2602,
      "machine</w>": 2603,
      "ailles</w>": 2604,
      "sta": 2605,
      "canapé</w>": 2606,
      "moitié</w>": 2607,
      "prési": 2608,
      "propres</w>": 2609,
      "blanc</w>": 2610,
      "goût</w>": 2611,
      "entret": 2612,
      "morce": 2613,
      "inv": 2614,
      "chée</w>": 2615,
      "meu": 2616,
      "phra": 2617,
      "docteur</w>": 2618,
      "aver": 2619,
      "vouliez</w>": 2620,
      "pars</w>": 2621,
      "importante</w>": 2622,
      "rhume</w>": 2623,
      "rép": 2624,
      "oie</w>": 2625,
      "vingt</w>": 2626,
      "mili": 2627,
      "ul": 2628,
      "épo": 2629,
      "époque</w>": 2630,
      "clo": 2631,
      "vol": 2632,
      "sins</w>": 2633,
      "taire</w>": 2634,
      "pagne</w>": 2635,
      "portez</w>": 2636,
      "chac": 2637,
      "football</w>": 2638,
      "tiez</w>": 2639,
      "manqué</w>": 2640,
      "vendre</w>": 2641,
      "oubliez</w>": 2642,
      "ennuis</w>": 2643,
      "suivi</w>": 2644,
      "ly": 2645,
      "seront</w>": 2646,
      "mien</w>": 2647,
      "soud": 2648,
      "pleut</w>": 2649,
      "passée</w>": 2650,
      "démissi": 2651,
      "chou": 2652,
      "esc": 2653,
      "glace</w>": 2654,
      "agré": 2655,
      "fus</w>": 2656,
      "inconvénient</w>": 2657,
      "réc": 2658,
      "jal": 2659,
      "jalou": 2660,
      "aimait</w>": 2661,
      "université</w>": 2662,
      "excel": 2663,
      "amélior": 2664,
      "remercier</w>": 2665,
      "tées</w>": 2666,
      "habituellement</w>": 2667,
      "sport</w>": 2668,
      "supporter</w>": 2669,
      "sentir</w>": 2670,
      "plaisan": 2671,
      "nettoyer</w>": 2672,
      "convaincu</w>": 2673,
      "mement</w>": 2674,
      "montagne</w>": 2675,
      "entrée</w>": 2676,
      "tien</w>": 2677,
      "tranquille</w>": 2678,
      "ange</w>": 2679,
      "ennuy": 2680,
      "vieil</w>": 2681,
      "cha</w>": 2682,
      "euille</w>": 2683,
      "supposé</w>": 2684,
      "inno": 2685,
      "amérique</w>": 2686,
      "tombée</w>": 2687,
      "contrari": 2688,
      "illage</w>": 2689,
      "portait</w>": 2690,
      "ssir</w>": 2691,
      "3</w>": 2692,
      "recomman": 2693,
      "mille</w>": 2694,
      "généralement</w>": 2695,
      "cule</w>": 2696,
      "prêts</w>": 2697,
      "emmen": 2698,
      "cru</w>": 2699,
      "jeter</w>": 2700,
      "sept</w>": 2701,
      "marr": 2702,
      "bouteille</w>": 2703,
      "revenu</w>": 2704,
      "parlons</w>": 2705,
      "fiche</w>": 2706,
      "selon</w>": 2707,
      "gouver": 2708,
      "voit</w>": 2709,
      "seuls</w>": 2710,
      "tesse</w>": 2711,
      "faveur</w>": 2712,
      "heureusement</w>": 2713,
      "lise</w>": 2714,
      "faisais</w>": 2715,
      "pat": 2716,
      "accepter</w>": 2717,
      "jolie</w>": 2718,
      "conseillé</w>": 2719,
      "pause</w>": 2720,
      "nent</w>": 2721,
      "protég": 2722,
      "arrivée</w>": 2723,
      "div": 2724,
      "maladie</w>": 2725,
      "gique</w>": 2726,
      "regard": 2727,
      "obligé</w>": 2728,
      "ines</w>": 2729,
      "difficul": 2730,
      "prenons</w>": 2731,
      "disent</w>": 2732,
      "impati": 2733,
      "admi": 2734,
      "dise</w>": 2735,
      "aurai</w>": 2736,
      "décider</w>": 2737,
      "reconnaissant</w>": 2738,
      "zz": 2739,
      "appartient</w>": 2740,
      "êt</w>": 2741,
      "na": 2742,
      "légu": 2743,
      "savent</w>": 2744,
      "dra</w>": 2745,
      "voie</w>": 2746,
      "parfaitement</w>": 2747,
      "huit</w>": 2748,
      "certainement</w>": 2749,
      "exer": 2750,
      "merveill": 2751,
      "4</w>": 2752,
      "réussi": 2753,
      "groupe</w>": 2754,
      "or</w>": 2755,
      "appro": 2756,
      "viennent</w>": 2757,
      "états</w>": 2758,
      "note</w>": 2759,
      "corps</w>": 2760,
      "copine</w>": 2761,
      "pont</w>": 2762,
      "apprécié</w>": 2763,
      "uire</w>": 2764,
      "état</w>": 2765,
      "terminer</w>": 2766,
      "rempl": 2767,
      "employ": 2768,
      "extrê": 2769,
      "grands</w>": 2770,
      "signe</w>": 2771,
      "horri": 2772,
      "laver</w>": 2773,
      "mentir</w>": 2774,
      "élèves</w>": 2775,
      "sure</w>": 2776,
      "dirai</w>": 2777,
      "toky": 2778,
      "tokyo</w>": 2779,
      "cray": 2780,
      "ir": 2781,
      "obtenir</w>": 2782,
      "frais</w>": 2783,
      "gagne</w>": 2784,
      "aign": 2785,
      "achète</w>": 2786,
      "eons</w>": 2787,
      "courses</w>": 2788,
      "conscience</w>": 2789,
      "attrapé</w>": 2790,
      "remarqué</w>": 2791,
      "change</w>": 2792,
      "silen": 2793,
      "vérifier</w>": 2794,
      "réussir</w>": 2795,
      "ensi": 2796,
      "portable</w>": 2797,
      "aimeriez</w>": 2798,
      "ri</w>": 2799,
      "parole</w>": 2800,
      "démissionn": 2801,
      "unis</w>": 2802,
      "embrasser</w>": 2803,
      "chacun</w>": 2804,
      "gues</w>": 2805,
      "êtres</w>": 2806,
      "commença</w>": 2807,
      "fallu</w>": 2808,
      "mêmes</w>": 2809,
      "terais</w>": 2810,
      "président</w>": 2811,
      "prendra</w>": 2812,
      "chal": 2813,
      "pouvi": 2814,
      "grave</w>": 2815,
      "sauf</w>": 2816,
      "continué</w>": 2817,
      "ram": 2818,
      "extérieur</w>": 2819,
      "ira</w>": 2820,
      "régi": 2821,
      "sourire</w>": 2822,
      "prêter</w>": 2823,
      "appellerai</w>": 2824,
      "hâ": 2825,
      "pauvre</w>": 2826,
      "souri": 2827,
      "puissi": 2828,
      "fond</w>": 2829,
      "dieu</w>": 2830,
      "mour": 2831,
      "célèbre</w>": 2832,
      "déçu</w>": 2833,
      "voilà</w>": 2834,
      "importance</w>": 2835,
      "appartement</w>": 2836,
      "urs</w>": 2837,
      "repo": 2838,
      "sentiment</w>": 2839,
      "endormi</w>": 2840,
      "celles</w>": 2841,
      "condu": 2842,
      "obtenu</w>": 2843,
      "rier</w>": 2844,
      "rési": 2845,
      "tar": 2846,
      "actuellement</w>": 2847,
      "cadeaux</w>": 2848,
      "sold": 2849,
      "préférerais</w>": 2850,
      "deur</w>": 2851,
      "douche</w>": 2852,
      "illée</w>": 2853,
      "ogr": 2854,
      "entretenir</w>": 2855,
      "mariée</w>": 2856,
      "prises</w>": 2857,
      "donnerai</w>": 2858,
      "rég": 2859,
      "grat": 2860,
      "clair</w>": 2861,
      "tick": 2862,
      "ature</w>": 2863,
      "bes</w>": 2864,
      "ciné": 2865,
      "réveillé</w>": 2866,
      "nulle</w>": 2867,
      "assée</w>": 2868,
      "faux</w>": 2869,
      "habitué</w>": 2870,
      "sembles</w>": 2871,
      "inquiet</w>": 2872,
      "ôtre</w>": 2873,
      "montré</w>": 2874,
      "ote</w>": 2875,
      "truc</w>": 2876,
      "tenez</w>": 2877,
      "dition</w>": 2878,
      "ique</w>": 2879,
      "teurs</w>": 2880,
      "possib": 2881,
      "ies</w>": 2882,
      "légumes</w>": 2883,
      "conduit</w>": 2884,
      "chanceux</w>": 2885,
      "absolu": 2886,
      "inf": 2887,
      "apporté</w>": 2888,
      "respons": 2889,
      "améric": 2890,
      "forts</w>": 2891,
      "balle</w>": 2892,
      "vus</w>": 2893,
      "dépri": 2894,
      "démar": 2895,
      "octo": 2896,
      "princi": 2897,
      "tif</w>": 2898,
      "lions</w>": 2899,
      "fol": 2900,
      "agréable</w>": 2901,
      "pleine</w>": 2902,
      "19": 2903,
      "convaincre</w>": 2904,
      "ssant</w>": 2905,
      "cru": 2906,
      "entré</w>": 2907,
      "explo": 2908,
      "refu": 2909,
      "hy": 2910,
      "humeur</w>": 2911,
      "bru": 2912,
      "recherche</w>": 2913,
      "ection</w>": 2914,
      "pizz": 2915,
      "absolument</w>": 2916,
      "ssent</w>": 2917,
      "mienne</w>": 2918,
      "magnifi": 2919,
      "dure</w>": 2920,
      "of": 2921,
      "match</w>": 2922,
      "incen": 2923,
      "phrase</w>": 2924,
      "mè": 2925,
      "cartes</w>": 2926,
      "tribu": 2927,
      "cinéma</w>": 2928,
      "forte</w>": 2929,
      "octobre</w>": 2930,
      "dipl": 2931,
      "préparé</w>": 2932,
      "envers</w>": 2933,
      "pourrions</w>": 2934,
      "chocol": 2935,
      "mage</w>": 2936,
      "étage</w>": 2937,
      "engag": 2938,
      "église</w>": 2939,
      "informations</w>": 2940,
      "diez</w>": 2941,
      "auras</w>": 2942,
      "extrêmement</w>": 2943,
      "nue</w>": 2944,
      "rencontrés</w>": 2945,
      "faite</w>": 2946,
      "lac": 2947,
      "opér": 2948,
      "jets</w>": 2949,
      "perte</w>": 2950,
      "fli": 2951,
      "bouton</w>": 2952,
      "société</w>": 2953,
      "fré": 2954,
      "cy": 2955,
      "nage</w>": 2956,
      "prudente</w>": 2957,
      "chef</w>": 2958,
      "arbres</w>": 2959,
      "oiseau</w>": 2960,
      "secr": 2961,
      "serons</w>": 2962,
      "langues</w>": 2963,
      "stique</w>": 2964,
      "découvert</w>": 2965,
      "alim": 2966,
      "cesse</w>": 2967,
      "déclar": 2968,
      "lors</w>": 2969,
      "réellement</w>": 2970,
      "écl": 2971,
      "ajou": 2972,
      "contrôle</w>": 2973,
      "sert</w>": 2974,
      "souvenir</w>": 2975,
      "voitures</w>": 2976,
      "navi": 2977,
      "monter</w>": 2978,
      "permettre</w>": 2979,
      "exig": 2980,
      "vel": 2981,
      "dés</w>": 2982,
      "croit</w>": 2983,
      "joué</w>": 2984,
      "ravi</w>": 2985,
      "îmes</w>": 2986,
      "eront</w>": 2987,
      "capi": 2988,
      "choisi</w>": 2989,
      "abs": 2990,
      "ligne</w>": 2991,
      "arrière</w>": 2992,
      "divor": 2993,
      "promesse</w>": 2994,
      "refusé</w>": 2995,
      "const": 2996,
      "possède</w>": 2997,
      "autorisé</w>": 2998,
      "prendrai</w>": 2999,
      "sérieusement</w>": 3000,
      "pâ": 3001,
      "sang</w>": 3002,
      "devait</w>": 3003,
      "valise</w>": 3004,
      "tiré</w>": 3005,
      "musée</w>": 3006,
      "iné</w>": 3007,
      "tir": 3008,
      "trice</w>": 3009,
      "pron": 3010,
      "vez</w>": 3011,
      "dort</w>": 3012,
      "prévois</w>": 3013,
      "pol": 3014,
      "morte</w>": 3015,
      "déç": 3016,
      "tap": 3017,
      "espérons</w>": 3018,
      "morceau</w>": 3019,
      "ménag": 3020,
      "regrette</w>": 3021,
      "paix</w>": 3022,
      "gouvernement</w>": 3023,
      "écris</w>": 3024,
      "sortie</w>": 3025,
      "éteindre</w>": 3026,
      "étudié</w>": 3027,
      "prét": 3028,
      "connaissance</w>": 3029,
      "détail": 3030,
      "obé": 3031,
      "jecti": 3032,
      "tre": 3033,
      "épui": 3034,
      "fasses</w>": 3035,
      "cevoir</w>": 3036,
      "dirais</w>": 3037,
      "interrom": 3038,
      "annon": 3039,
      "hési": 3040,
      "considé": 3041,
      "protéger</w>": 3042,
      "dist": 3043,
      "part": 3044,
      "village</w>": 3045,
      "pronon": 3046,
      "tan": 3047,
      "comm": 3048,
      "ambi": 3049,
      "dence</w>": 3050,
      "voler</w>": 3051,
      "joh": 3052,
      "john</w>": 3053,
      "te": 3054,
      "page</w>": 3055,
      "occupés</w>": 3056,
      "égal</w>": 3057,
      "comprend</w>": 3058,
      "soyons</w>": 3059,
      "récemment</w>": 3060,
      "coupa": 3061,
      "jambe</w>": 3062,
      "résult": 3063,
      "cool</w>": 3064,
      "moire</w>": 3065,
      "couper</w>": 3066,
      "mensonge</w>": 3067,
      "envoyer</w>": 3068,
      "vaiss": 3069,
      "incendie</w>": 3070,
      "fallait</w>": 3071,
      "préférée</w>": 3072,
      "ensuite</w>": 3073,
      "raisonn": 3074,
      "moyens</w>": 3075,
      "muni": 3076,
      "soupe</w>": 3077,
      "maî": 3078,
      "pul": 3079,
      "choisir</w>": 3080,
      "résultats</w>": 3081,
      "accompag": 3082,
      "siè": 3083,
      "5</w>": 3084,
      "fâ": 3085,
      "compagnie</w>": 3086,
      "chocolat</w>": 3087,
      "reviens</w>": 3088,
      "fréqu": 3089,
      "trucs</w>": 3090,
      "plaindre</w>": 3091,
      "bro": 3092,
      "crayon</w>": 3093,
      "appli": 3094,
      "abandonner</w>": 3095,
      "venait</w>": 3096,
      "corde</w>": 3097,
      "sub": 3098,
      "droite</w>": 3099,
      "verrai</w>": 3100,
      "regret": 3101,
      "super</w>": 3102,
      "embarr": 3103,
      "répar": 3104,
      "promenade</w>": 3105,
      "sympa</w>": 3106,
      "explication</w>": 3107,
      "portef": 3108,
      "portefeuille</w>": 3109,
      "ron": 3110,
      "médicament</w>": 3111,
      "dérou": 3112,
      "monn": 3113,
      "heur</w>": 3114,
      "lune</w>": 3115,
      "rées</w>": 3116,
      "frères</w>": 3117,
      "stes</w>": 3118,
      "prêtes</w>": 3119,
      "fière</w>": 3120,
      "regarda</w>": 3121,
      "paraît</w>": 3122,
      "traverser</w>": 3123,
      "accepté</w>": 3124,
      "ograp": 3125,
      "pêcher</w>": 3126,
      "ennemi</w>": 3127,
      "assurer</w>": 3128,
      "vint</w>": 3129,
      "déter": 3130,
      "ing</w>": 3131,
      "couru</w>": 3132,
      "ciles</w>": 3133,
      "mauvaises</w>": 3134,
      "date</w>": 3135,
      "article</w>": 3136,
      "objecti": 3137,
      "allong": 3138,
      "permission</w>": 3139,
      "quelconque</w>": 3140,
      "compren": 3141,
      "coupable</w>": 3142,
      "velop": 3143,
      "endrais</w>": 3144,
      "voyons</w>": 3145,
      "débrou": 3146,
      "larg": 3147,
      "appe": 3148,
      "oiseaux</w>": 3149,
      "aurez</w>": 3150,
      "heureuses</w>": 3151,
      "colli": 3152,
      "intéresse</w>": 3153,
      "comprenez</w>": 3154,
      "achè": 3155,
      "limi": 3156,
      "bouche</w>": 3157,
      "nique</w>": 3158,
      "foule</w>": 3159,
      "attentivement</w>": 3160,
      "suppo": 3161,
      "eté</w>": 3162,
      "partici": 3163,
      "fert</w>": 3164,
      "trem": 3165,
      "billet</w>": 3166,
      "fron": 3167,
      "congé</w>": 3168,
      "force</w>": 3169,
      "da": 3170,
      "occupe</w>": 3171,
      "navire</w>": 3172,
      "stru": 3173,
      "contact</w>": 3174,
      "voisins</w>": 3175,
      "décé": 3176,
      "ayons</w>": 3177,
      "sel</w>": 3178,
      "grim": 3179,
      "réser": 3180,
      "nouveaux</w>": 3181,
      "sombre</w>": 3182,
      "chouette</w>": 3183,
      "arrêt</w>": 3184,
      "assey": 3185,
      "remettre</w>": 3186,
      "printemps</w>": 3187,
      "cien</w>": 3188,
      "ssait</w>": 3189,
      "intéressante</w>": 3190,
      "morts</w>": 3191,
      "accro": 3192,
      "crime</w>": 3193,
      "magnifique</w>": 3194,
      "autom": 3195,
      "demandez</w>": 3196,
      "pare</w>": 3197,
      "ms</w>": 3198,
      "soient</w>": 3199,
      "excusez</w>": 3200,
      "hâte</w>": 3201,
      "lettes</w>": 3202,
      "plu</w>": 3203,
      "char": 3204,
      "pée</w>": 3205,
      "éloi": 3206,
      "erie</w>": 3207,
      "suspec": 3208,
      "dépen": 3209,
      "seules</w>": 3210,
      "essi": 3211,
      "afin</w>": 3212,
      "doivent</w>": 3213,
      "échoué</w>": 3214,
      "embre</w>": 3215,
      "écr": 3216,
      "oublier</w>": 3217,
      "direction</w>": 3218,
      "correctement</w>": 3219,
      "bat</w>": 3220,
      "mam": 3221,
      "éclat": 3222,
      "électri": 3223,
      "commis</w>": 3224,
      "suppl": 3225,
      "éveill": 3226,
      "prisonn": 3227,
      "soul": 3228,
      "silencieux</w>": 3229,
      "has": 3230,
      "détr": 3231,
      "politique</w>": 3232,
      "program": 3233,
      "raté</w>": 3234,
      "agé</w>": 3235,
      "ridi": 3236,
      "entièrement</w>": 3237,
      "gars</w>": 3238,
      "salaire</w>": 3239,
      "expri": 3240,
      "règle</w>": 3241,
      "choisi": 3242,
      "fruits</w>": 3243,
      "abord</w>": 3244,
      "nouvel</w>": 3245,
      "œurs</w>": 3246,
      "derniers</w>": 3247,
      "réalité</w>": 3248,
      "retraite</w>": 3249,
      "fie</w>": 3250,
      "excuser</w>": 3251,
      "disparu</w>": 3252,
      "pizza</w>": 3253,
      "sûrs</w>": 3254,
      "dises</w>": 3255,
      "preuve</w>": 3256,
      "urgence</w>": 3257,
      "soucie</w>": 3258,
      "zo": 3259,
      "qua</w>": 3260,
      "devais</w>": 3261,
      "dirig": 3262,
      "trac": 3263,
      "docu": 3264,
      "incroyable</w>": 3265,
      "tim": 3266,
      "gol": 3267,
      "voleur</w>": 3268,
      "policier</w>": 3269,
      "bis": 3270,
      "mérite</w>": 3271,
      "particulier</w>": 3272,
      "tend": 3273,
      "parlent</w>": 3274,
      "mémoire</w>": 3275,
      "gle</w>": 3276,
      "tude</w>": 3277,
      "enqu": 3278,
      "passe": 3279,
      "vaisselle</w>": 3280,
      "soldats</w>": 3281,
      "conseilla</w>": 3282,
      "devient</w>": 3283,
      "cein": 3284,
      "uite</w>": 3285,
      "mangez</w>": 3286,
      "lettres</w>": 3287,
      "amusé</w>": 3288,
      "étoi": 3289,
      "acqui": 3290,
      "10</w>": 3291,
      "faill": 3292,
      "éche": 3293,
      "échecs</w>": 3294,
      "excuse</w>": 3295,
      "offrir</w>": 3296,
      "épau": 3297,
      "éteint</w>": 3298,
      "fix": 3299,
      "suici": 3300,
      "mign": 3301,
      "ize</w>": 3302,
      "refaire</w>": 3303,
      "passeport</w>": 3304,
      "vôtre</w>": 3305,
      "détermin": 3306,
      "exemp": 3307,
      "appu": 3308,
      "appuy": 3309,
      "sément</w>": 3310,
      "cherches</w>": 3311,
      "remerci": 3312,
      "cloche</w>": 3313,
      "ope</w>": 3314,
      "toilettes</w>": 3315,
      "rentre</w>": 3316,
      "demandais</w>": 3317,
      "demi</w>": 3318,
      "blesser</w>": 3319,
      "cat": 3320,
      "pensent</w>": 3321,
      "vitesse</w>": 3322,
      "paire</w>": 3323,
      "disait</w>": 3324,
      "manquer</w>": 3325,
      "tive</w>": 3326,
      "écu": 3327,
      "persu": 3328,
      "épouser</w>": 3329,
      "imagine</w>": 3330,
      "tot": 3331,
      "embrassé</w>": 3332,
      "cacher</w>": 3333,
      "ordinaire</w>": 3334,
      "assist": 3335,
      "crain": 3336,
      "détails</w>": 3337,
      "mez</w>": 3338,
      "souven": 3339,
      "failli</w>": 3340,
      "lave</w>": 3341,
      "arrivés</w>": 3342,
      "égar": 3343,
      "déf": 3344,
      "endra</w>": 3345,
      "énergie</w>": 3346,
      "camion</w>": 3347,
      "chaleur</w>": 3348,
      "asp": 3349,
      "invités</w>": 3350,
      "île</w>": 3351,
      "chant</w>": 3352,
      "éclai": 3353,
      "poche</w>": 3354,
      "commer": 3355,
      "pantal": 3356,
      "frappé</w>": 3357,
      "rêves</w>": 3358,
      "fenêtres</w>": 3359,
      "quet</w>": 3360,
      "culation</w>": 3361,
      "débarrasser</w>": 3362,
      "normal</w>": 3363,
      "vraie</w>": 3364,
      "éré</w>": 3365,
      "accompl": 3366,
      "suffit</w>": 3367,
      "essaya</w>": 3368,
      "mise</w>": 3369,
      "terie</w>": 3370,
      "croyez</w>": 3371,
      "eus</w>": 3372,
      "peint</w>": 3373,
      "allem": 3374,
      "aveu": 3375,
      "horrible</w>": 3376,
      "inquiéter</w>": 3377,
      "magaz": 3378,
      "eh</w>": 3379,
      "pisci": 3380,
      "piscine</w>": 3381,
      "lycée</w>": 3382,
      "vraient</w>": 3383,
      "apin</w>": 3384,
      "responsab": 3385,
      "hasard</w>": 3386,
      "conver": 3387,
      "refuse</w>": 3388,
      "bagages</w>": 3389,
      "meilleurs</w>": 3390,
      "déjeuné</w>": 3391,
      "grandes</w>": 3392,
      "mariés</w>": 3393,
      "faible</w>": 3394,
      "infi": 3395,
      "confor": 3396,
      "sentez</w>": 3397,
      "instituteur</w>": 3398,
      "consac": 3399,
      "enten": 3400,
      "sœurs</w>": 3401,
      "toit</w>": 3402,
      "veste</w>": 3403,
      "devraient</w>": 3404,
      "don</w>": 3405,
      "médicaments</w>": 3406,
      "noy": 3407,
      "sûres</w>": 3408,
      "g</w>": 3409,
      "caché</w>": 3410,
      "viennes</w>": 3411,
      "éviter</w>": 3412,
      "courage</w>": 3413,
      "âgé</w>": 3414,
      "passez</w>": 3415,
      "spec": 3416,
      "ressent": 3417,
      "érir</w>": 3418,
      "sortez</w>": 3419,
      "tenté</w>": 3420,
      "pique</w>": 3421,
      "agir</w>": 3422,
      "uer</w>": 3423,
      "dommage</w>": 3424,
      "impatient</w>": 3425,
      "europe</w>": 3426,
      "aurions</w>": 3427,
      "pit": 3428,
      "effec": 3429,
      "abandonné</w>": 3430,
      "exerci": 3431,
      "utilise</w>": 3432,
      "ticket</w>": 3433,
      "amuser</w>": 3434,
      "blessée</w>": 3435,
      "14</w>": 3436,
      "cations</w>": 3437,
      "campagne</w>": 3438,
      "amoureuse</w>": 3439,
      "chu": 3440,
      "enté</w>": 3441,
      "connaisse</w>": 3442,
      "marre</w>": 3443,
      "ctu": 3444,
      "bran": 3445,
      "larmes</w>": 3446,
      "reposer</w>": 3447,
      "profi": 3448,
      "appelles</w>": 3449,
      "partis</w>": 3450,
      "èle</w>": 3451,
      "chin": 3452,
      "distance</w>": 3453,
      "wi": 3454,
      "saches</w>": 3455,
      "silence</w>": 3456,
      "marrant</w>": 3457,
      "action</w>": 3458,
      "cycl": 3459,
      "différentes</w>": 3460,
      "grossi": 3461,
      "circulation</w>": 3462,
      "instru": 3463,
      "saviez</w>": 3464,
      "commun</w>": 3465,
      "continue</w>": 3466,
      "avan": 3467,
      "diplô": 3468,
      "èvre</w>": 3469,
      "aurons</w>": 3470,
      "cal</w>": 3471,
      "colle": 3472,
      "jeté</w>": 3473,
      "élé": 3474,
      "privé</w>": 3475,
      "notes</w>": 3476,
      "coin": 3477,
      "bleu</w>": 3478,
      "vés</w>": 3479,
      "tin</w>": 3480,
      "âg": 3481,
      "pierre</w>": 3482,
      "précisément</w>": 3483,
      "chaude</w>": 3484,
      "ception</w>": 3485,
      "tourner</w>": 3486,
      "devenue</w>": 3487,
      "her": 3488,
      "inutile</w>": 3489,
      "ctions</w>": 3490,
      "tire</w>": 3491,
      "ffre</w>": 3492,
      "épi": 3493,
      "infir": 3494,
      "milieu</w>": 3495,
      "dro": 3496,
      "forcé</w>": 3497,
      "gasp": 3498,
      "spect": 3499,
      "tenait</w>": 3500,
      "ame": 3501,
      "enseigner</w>": 3502,
      "ascen": 3503,
      "réveiller</w>": 3504,
      "monnaie</w>": 3505,
      "ressembl": 3506,
      "aimer</w>": 3507,
      "té": 3508,
      "chansons</w>": 3509,
      "reconnu</w>": 3510,
      "imaginer</w>": 3511,
      "mettr": 3512,
      "ordre</w>": 3513,
      "maman</w>": 3514,
      "espérais</w>": 3515,
      "sauver</w>": 3516,
      "construit</w>": 3517,
      "prêté</w>": 3518,
      "commandé</w>": 3519,
      "couver": 3520,
      "suggère</w>": 3521,
      "embau": 3522,
      "hur": 3523,
      "théori": 3524,
      "gnon</w>": 3525,
      "essayons</w>": 3526,
      "rage</w>": 3527,
      "lation</w>": 3528,
      "hie</w>": 3529,
      "ader</w>": 3530,
      "clu": 3531,
      "lam": 3532,
      "sentiments</w>": 3533,
      "tante</w>": 3534,
      "is": 3535,
      "véritable</w>": 3536,
      "dément</w>": 3537,
      "absent</w>": 3538,
      "érature</w>": 3539,
      "matinée</w>": 3540,
      "dépend</w>": 3541,
      "récu": 3542,
      "discussi": 3543,
      "jeux</w>": 3544,
      "saou": 3545,
      "accusé</w>": 3546,
      "candi": 3547,
      "riz</w>": 3548,
      "quant</w>": 3549,
      "compor": 3550,
      "vues</w>": 3551,
      "cents</w>": 3552,
      "ilités</w>": 3553,
      "aimais</w>": 3554,
      "escali": 3555,
      "sort</w>": 3556,
      "chère</w>": 3557,
      "films</w>": 3558,
      "énor": 3559,
      "ouvrez</w>": 3560,
      "embrass": 3561,
      "châ": 3562,
      "reç": 3563,
      "bicycl": 3564,
      "bicyclette</w>": 3565,
      "2</w>": 3566,
      "cteur</w>": 3567,
      "poli</w>": 3568,
      "visiter</w>": 3569,
      "écouté</w>": 3570,
      "raconter</w>": 3571,
      "nit</w>": 3572,
      "conscient</w>": 3573,
      "quette</w>": 3574,
      "base": 3575,
      "baseball</w>": 3576,
      "dispon": 3577,
      "disponi": 3578,
      "timide</w>": 3579,
      "trouvait</w>": 3580,
      "folle</w>": 3581,
      "offert</w>": 3582,
      "retourne</w>": 3583,
      "pression</w>": 3584,
      "confe": 3585,
      "départ</w>": 3586,
      "connaissait</w>": 3587,
      "formu": 3588,
      "sinc": 3589,
      "monté</w>": 3590,
      "kil": 3591,
      "belles</w>": 3592,
      "solu</w>": 3593,
      "batt": 3594,
      "tirer</w>": 3595,
      "infirmi": 3596,
      "pousser</w>": 3597,
      "esses</w>": 3598,
      "difficultés</w>": 3599,
      "tombe</w>": 3600,
      "coûté</w>": 3601,
      "feu": 3602,
      "effrayé</w>": 3603,
      "veille</w>": 3604,
      "bonheur</w>": 3605,
      "nettoy": 3606,
      "coupe</w>": 3607,
      "régime</w>": 3608,
      "raisonnable</w>": 3609,
      "assister</w>": 3610,
      "base</w>": 3611,
      "gré</w>": 3612,
      "japonaise</w>": 3613,
      "w</w>": 3614,
      "pantalon</w>": 3615,
      "exci": 3616,
      "offen": 3617,
      "pén": 3618,
      "pareille</w>": 3619,
      "papa</w>": 3620,
      "exercice</w>": 3621,
      "essu": 3622,
      "parie</w>": 3623,
      "présente</w>": 3624,
      "respi": 3625,
      "fermée</w>": 3626,
      "bul": 3627,
      "manges</w>": 3628,
      "rembour": 3629,
      "roi</w>": 3630,
      "alcool</w>": 3631,
      "vidé": 3632,
      "imagination</w>": 3633,
      "compar": 3634,
      "comportement</w>": 3635,
      "sauter</w>": 3636,
      "chanté</w>": 3637,
      "chanc": 3638,
      "gê": 3639,
      "principa": 3640,
      "oires</w>": 3641,
      "ouvri": 3642,
      "skier</w>": 3643,
      "pani": 3644,
      "semblant</w>": 3645,
      "coupé</w>": 3646,
      "veuilles</w>": 3647,
      "pièces</w>": 3648,
      "supplé": 3649,
      "touche</w>": 3650,
      "mentaire</w>": 3651,
      "rie</w>": 3652,
      "ouvrit</w>": 3653,
      "boit</w>": 3654,
      "restes</w>": 3655,
      "put</w>": 3656,
      "malheureusement</w>": 3657,
      "écoutez</w>": 3658,
      "tat</w>": 3659,
      "montrez</w>": 3660,
      "résolu</w>": 3661,
      "élevé</w>": 3662,
      "parlait</w>": 3663,
      "dors</w>": 3664,
      "cancer</w>": 3665,
      "matins</w>": 3666,
      "tionné</w>": 3667,
      "enseigne</w>": 3668,
      "apprends</w>": 3669,
      "same": 3670,
      "différente</w>": 3671,
      "ession</w>": 3672,
      "golf</w>": 3673,
      "acquisition</w>": 3674,
      "fassiez</w>": 3675,
      "garage</w>": 3676,
      "sépar": 3677,
      "valeur</w>": 3678,
      "pez</w>": 3679,
      "consom": 3680,
      "étrangers</w>": 3681,
      "compliqué</w>": 3682,
      "syst": 3683,
      "profondément</w>": 3684,
      "causé</w>": 3685,
      "étonn": 3686,
      "maire</w>": 3687,
      "trompé</w>": 3688,
      "champ</w>": 3689,
      "résultat</w>": 3690,
      "chauss": 3691,
      "coffre</w>": 3692,
      "théorie</w>": 3693,
      "petits</w>": 3694,
      "fil</w>": 3695,
      "général</w>": 3696,
      "échapper</w>": 3697,
      "candid": 3698,
      "ssante</w>": 3699,
      "correct</w>": 3700,
      "dépour": 3701,
      "contrô": 3702,
      "sale</w>": 3703,
      "orig": 3704,
      "ffr": 3705,
      "doigt</w>": 3706,
      "jette</w>": 3707,
      "supermarché</w>": 3708,
      "terrible</w>": 3709,
      "mondi": 3710,
      "lin": 3711,
      "aig": 3712,
      "confectionn": 3713,
      "costu": 3714,
      "tière</w>": 3715,
      "qués</w>": 3716,
      "jug": 3717,
      "traduire</w>": 3718,
      "moteur</w>": 3719,
      "rumeur</w>": 3720,
      "cuits</w>": 3721,
      "ûmes</w>": 3722,
      "patience</w>": 3723,
      "odeur</w>": 3724,
      "ennuyeux</w>": 3725,
      "sis</w>": 3726,
      "har": 3727,
      "ssé</w>": 3728,
      "apporter</w>": 3729,
      "canadien</w>": 3730,
      "promener</w>": 3731,
      "siège</w>": 3732,
      "soif</w>": 3733,
      "appel</w>": 3734,
      "tienne</w>": 3735,
      "génial</w>": 3736,
      "totalement</w>": 3737,
      "emporter</w>": 3738,
      "assise</w>": 3739,
      "armes</w>": 3740,
      "exemple</w>": 3741,
      "adul": 3742,
      "malheureux</w>": 3743,
      "populaire</w>": 3744,
      "grandi</w>": 3745,
      "sand": 3746,
      "sandwi": 3747,
      "saient</w>": 3748,
      "contrat</w>": 3749,
      "innocent</w>": 3750,
      "distin": 3751,
      "négo": 3752,
      "traiter</w>": 3753,
      "tale</w>": 3754,
      "toma": 3755,
      "discussion</w>": 3756,
      "envis": 3757,
      "brisé</w>": 3758,
      "terminée</w>": 3759,
      "he": 3760,
      "feuilles</w>": 3761,
      "joues</w>": 3762,
      "paress": 3763,
      "tourne</w>": 3764,
      "intéressée</w>": 3765,
      "fermez</w>": 3766,
      "lumières</w>": 3767,
      "zoo</w>": 3768,
      "treize</w>": 3769,
      "traversé</w>": 3770,
      "cigar": 3771,
      "impressionné</w>": 3772,
      "derai</w>": 3773,
      "atteint</w>": 3774,
      "alliez</w>": 3775,
      "faudra</w>": 3776,
      "sté</w>": 3777,
      "excell": 3778,
      "position</w>": 3779,
      "lisez</w>": 3780,
      "efforts</w>": 3781,
      "mec</w>": 3782,
      "noms</w>": 3783,
      "identi": 3784,
      "conversation</w>": 3785,
      "quin": 3786,
      "étrangère</w>": 3787,
      "maj": 3788,
      "répéter</w>": 3789,
      "clairement</w>": 3790,
      "jambes</w>": 3791,
      "enterr": 3792,
      "fraî": 3793,
      "veuille</w>": 3794,
      "occupées</w>": 3795,
      "ateurs</w>": 3796,
      "garer</w>": 3797,
      "yens</w>": 3798,
      "fatigués</w>": 3799,
      "ivre</w>": 3800,
      "dingue</w>": 3801,
      "édu": 3802,
      "net</w>": 3803,
      "projets</w>": 3804,
      "convient</w>": 3805,
      "cessé</w>": 3806,
      "queue</w>": 3807,
      "trait</w>": 3808,
      "descend": 3809,
      "course</w>": 3810,
      "dépensé</w>": 3811,
      "idiote</w>": 3812,
      "système</w>": 3813,
      "new</w>": 3814,
      "oublierai</w>": 3815,
      "expliqué</w>": 3816,
      "6</w>": 3817,
      "centre</w>": 3818,
      "mène</w>": 3819,
      "incapable</w>": 3820,
      "trouves</w>": 3821,
      "fume</w>": 3822,
      "aque</w>": 3823,
      "souris</w>": 3824,
      "cassée</w>": 3825,
      "cis</w>": 3826,
      "matiques</w>": 3827,
      "apporte</w>": 3828,
      "vert</w>": 3829,
      "peinture</w>": 3830,
      "séjour": 3831,
      "vivant</w>": 3832,
      "rencontre</w>": 3833,
      "ales</w>": 3834,
      "na</w>": 3835,
      "fabri": 3836,
      "démissionner</w>": 3837,
      "samedi</w>": 3838,
      "gli": 3839,
      "éprouv": 3840,
      "lâche</w>": 3841,
      "boisson</w>": 3842,
      "mie</w>": 3843,
      "brill": 3844,
      "laisserai</w>": 3845,
      "yor": 3846,
      "dentiste</w>": 3847,
      "crimin": 3848,
      "possibilité</w>": 3849,
      "unique</w>": 3850,
      "restée</w>": 3851,
      "étag": 3852,
      "ève</w>": 3853,
      "beur": 3854,
      "peindre</w>": 3855,
      "mité</w>": 3856,
      "volu": 3857,
      "devint</w>": 3858,
      "ards</w>": 3859,
      "considér": 3860,
      "ssement</w>": 3861,
      "menteur</w>": 3862,
      "armée</w>": 3863,
      "attendait</w>": 3864,
      "céli": 3865,
      "célibat": 3866,
      "panne</w>": 3867,
      "gren": 3868,
      "gardé</w>": 3869,
      "vra</w>": 3870,
      "concentrer</w>": 3871,
      "opération</w>": 3872,
      "chés</w>": 3873,
      "veniez</w>": 3874,
      "préh": 3875,
      "cieuse</w>": 3876,
      "viré</w>": 3877,
      "soli": 3878,
      "débu": 3879,
      "amu": 3880,
      "arrang": 3881,
      "costume</w>": 3882,
      "reur</w>": 3883,
      "condi": 3884,
      "fique</w>": 3885,
      "chement</w>": 3886,
      "décri": 3887,
      "merveilleux</w>": 3888,
      "récup": 3889,
      "cale</w>": 3890,
      "gou": 3891,
      "œuf</w>": 3892,
      "éte": 3893,
      "foot</w>": 3894,
      "jau": 3895,
      "jaloux</w>": 3896,
      "sommet</w>": 3897,
      "devi": 3898,
      "fan": 3899,
      "eriez</w>": 3900,
      "ascenseur</w>": 3901,
      "londres</w>": 3902,
      "personnel</w>": 3903,
      "ern": 3904,
      "cherchez</w>": 3905,
      "gueu": 3906,
      "dam": 3907,
      "acqu": 3908,
      "tune</w>": 3909,
      "obligée</w>": 3910,
      "couvert</w>": 3911,
      "pratiquement</w>": 3912,
      "oreilles</w>": 3913,
      "épouse</w>": 3914,
      "billets</w>": 3915,
      "maisons</w>": 3916,
      "assit</w>": 3917,
      "doigts</w>": 3918,
      "réponses</w>": 3919,
      "york</w>": 3920,
      "ache": 3921,
      "remis</w>": 3922,
      "décor": 3923,
      "olo": 3924,
      "indiquer</w>": 3925,
      "imaginé</w>": 3926,
      "pénétr": 3927,
      "sauvé</w>": 3928,
      "puissions</w>": 3929,
      "reconn": 3930,
      "biscuits</w>": 3931,
      "oins</w>": 3932,
      "poissons</w>": 3933,
      "ilier</w>": 3934,
      "naï": 3935,
      "roses</w>": 3936,
      "bienvenue</w>": 3937,
      "commençons</w>": 3938,
      "meurtre</w>": 3939,
      "acti": 3940,
      "intelligente</w>": 3941,
      "spectac": 3942,
      "vidéo</w>": 3943,
      "oisi": 3944,
      "changement</w>": 3945,
      "attendons</w>": 3946,
      "bonjour</w>": 3947,
      "fleu": 3948,
      "échi": 3949,
      "planté</w>": 3950,
      "utilisé</w>": 3951,
      "sque</w>": 3952,
      "disposons</w>": 3953,
      "jum": 3954,
      "essence</w>": 3955,
      "mangent</w>": 3956,
      "ssiez</w>": 3957,
      "adop": 3958,
      "doué</w>": 3959,
      "ût</w>": 3960,
      "allées</w>": 3961,
      "station</w>": 3962,
      "aveugle</w>": 3963,
      "fant": 3964,
      "suggér": 3965,
      "sie</w>": 3966,
      "données</w>": 3967,
      "rendit</w>": 3968,
      "procu": 3969,
      "échec</w>": 3970,
      "démarrer</w>": 3971,
      "toucher</w>": 3972,
      "partag": 3973,
      "soup": 3974,
      "audi": 3975,
      "ace</w>": 3976,
      "plans</w>": 3977,
      "comporte</w>": 3978,
      "réfléchi": 3979,
      "paie</w>": 3980,
      "bile</w>": 3981,
      "scienti": 3982,
      "quez</w>": 3983,
      "000</w>": 3984,
      "monte</w>": 3985,
      "enfance</w>": 3986,
      "gentille</w>": 3987,
      "traité</w>": 3988,
      "fiers</w>": 3989,
      "empi": 3990,
      "donnée</w>": 3991,
      "amener</w>": 3992,
      "uction</w>": 3993,
      "gné</w>": 3994,
      "programme</w>": 3995,
      "aiderai</w>": 3996,
      "gagn": 3997,
      "averti": 3998,
      "entier</w>": 3999,
      "approche</w>": 4000,
      "couramment</w>": 4001,
      "sign": 4002,
      "sonné</w>": 4003,
      "précipi": 4004,
      "disposez</w>": 4005,
      "cache</w>": 4006,
      "forêt</w>": 4007,
      "fantô": 4008,
      "propri": 4009,
      "ensible</w>": 4010,
      "difficiles</w>": 4011,
      "portu": 4012,
      "deu": 4013,
      "uns</w>": 4014,
      "oï": 4015,
      "pério": 4016,
      "hique</w>": 4017,
      "drai</w>": 4018,
      "sco": 4019,
      "tt": 4020,
      "jac": 4021,
      "èse</w>": 4022,
      "atteindre</w>": 4023,
      "dons</w>": 4024,
      "beurre</w>": 4025,
      "mathé": 4026,
      "bouger</w>": 4027,
      "vase</w>": 4028,
      "aller": 4029,
      "chait</w>": 4030,
      "fer</w>": 4031,
      "beaux</w>": 4032,
      "sser</w>": 4033,
      "oreille</w>": 4034,
      "sympat": 4035,
      "emmener</w>": 4036,
      "proxi": 4037,
      "proximité</w>": 4038,
      "pil": 4039,
      "pouvions</w>": 4040,
      "lâ": 4041,
      "mec": 4042,
      "fourni": 4043,
      "guer</w>": 4044,
      "fortune</w>": 4045,
      "sérieuse</w>": 4046,
      "impliqué</w>": 4047,
      "connaissais</w>": 4048,
      "verti": 4049,
      "riches</w>": 4050,
      "haute</w>": 4051,
      "procé": 4052,
      "auprès</w>": 4053,
      "crise</w>": 4054,
      "flics</w>": 4055,
      "préfères</w>": 4056,
      "traî": 4057,
      "demment</w>": 4058,
      "passag": 4059,
      "gardez</w>": 4060,
      "sentait</w>": 4061,
      "oti": 4062,
      "souhaitez</w>": 4063,
      "blessés</w>": 4064,
      "adol": 4065,
      "infirmière</w>": 4066,
      "prouver</w>": 4067,
      "entu": 4068,
      "arro": 4069,
      "étaire</w>": 4070,
      "soudain</w>": 4071,
      "consul": 4072,
      "âtre</w>": 4073,
      "versé</w>": 4074,
      "viendrait</w>": 4075,
      "mecs</w>": 4076,
      "tèrent</w>": 4077,
      "fous</w>": 4078,
      "posi": 4079,
      "ablement</w>": 4080,
      "entou": 4081,
      "regard</w>": 4082,
      "effi": 4083,
      "eures</w>": 4084,
      "détendre</w>": 4085,
      "histoires</w>": 4086,
      "taine</w>": 4087,
      "enc": 4088,
      "manif": 4089,
      "promet": 4090,
      "hér": 4091,
      "plat</w>": 4092,
      "étagère</w>": 4093,
      "assurance</w>": 4094,
      "bén": 4095,
      "bruy": 4096,
      "aliste</w>": 4097,
      "ration</w>": 4098,
      "fumée</w>": 4099,
      "let</w>": 4100,
      "bête</w>": 4101,
      "urgent</w>": 4102,
      "logique</w>": 4103,
      "promesses</w>": 4104,
      "membre</w>": 4105,
      "population</w>": 4106,
      "resterai</w>": 4107,
      "blanche</w>": 4108,
      "chat": 4109,
      "sentais</w>": 4110,
      "remon": 4111,
      "insi": 4112,
      "figu": 4113,
      "écrivez</w>": 4114,
      "sortit</w>": 4115,
      "néglig": 4116,
      "emporté</w>": 4117,
      "coutu": 4118,
      "crier</w>": 4119,
      "intro": 4120,
      "terait</w>": 4121,
      "repos</w>": 4122,
      "économi": 4123,
      "it</w>": 4124,
      "nourrir</w>": 4125,
      "horreur</w>": 4126,
      "retirer</w>": 4127,
      "animal</w>": 4128,
      "més</w>": 4129,
      "pleuré</w>": 4130,
      "veau</w>": 4131,
      "ceinture</w>": 4132,
      "pressé</w>": 4133,
      "rempli</w>": 4134,
      "vait</w>": 4135,
      "cong": 4136,
      "pel": 4137,
      "béné": 4138,
      "poème</w>": 4139,
      "suspect</w>": 4140,
      "mathématiques</w>": 4141,
      "régu": 4142,
      "battu</w>": 4143,
      "furi": 4144,
      "vendu</w>": 4145,
      "timbres</w>": 4146,
      "rencontrée</w>": 4147,
      "ignorer</w>": 4148,
      "fièvre</w>": 4149,
      "mine</w>": 4150,
      "8</w>": 4151,
      "menac": 4152,
      "joy": 4153,
      "tiers</w>": 4154,
      "discuté</w>": 4155,
      "ran": 4156,
      "hi</w>": 4157,
      "ménagé</w>": 4158,
      "curieux</w>": 4159,
      "survenu</w>": 4160,
      "meubles</w>": 4161,
      "journaux</w>": 4162,
      "exprès</w>": 4163,
      "appl": 4164,
      "visité</w>": 4165,
      "cercle</w>": 4166,
      "magazine</w>": 4167,
      "prisonni": 4168,
      "passagers</w>": 4169,
      "température</w>": 4170,
      "my": 4171,
      "chons</w>": 4172,
      "mali": 4173,
      "posa</w>": 4174,
      "mentaires</w>": 4175,
      "intérêt</w>": 4176,
      "conclu": 4177,
      "puisses</w>": 4178,
      "conduis</w>": 4179,
      "étude</w>": 4180,
      "terme</w>": 4181,
      "mignon</w>": 4182,
      "tendance</w>": 4183,
      "spectacle</w>": 4184,
      "ront</w>": 4185,
      "petites</w>": 4186,
      "ham": 4187,
      "ffe</w>": 4188,
      "souffre</w>": 4189,
      "manu": 4190,
      "mignonne</w>": 4191,
      "décida</w>": 4192,
      "rompu</w>": 4193,
      "serviette</w>": 4194,
      "disponible</w>": 4195,
      "déplac": 4196,
      "aimons</w>": 4197,
      "xième</w>": 4198,
      "colline</w>": 4199,
      "remi": 4200,
      "sentie</w>": 4201,
      "souffle</w>": 4202,
      "liqui": 4203,
      "four</w>": 4204,
      "voulaient</w>": 4205,
      "pratique</w>": 4206,
      "touché</w>": 4207,
      "découvrir</w>": 4208,
      "arrêta</w>": 4209,
      "chem": 4210,
      "responsabilité</w>": 4211,
      "invitation</w>": 4212,
      "dame</w>": 4213,
      "coï": 4214,
      "coïn": 4215,
      "coïnci": 4216,
      "épar": 4217,
      "he</w>": 4218,
      "suffisant</w>": 4219,
      "baisser</w>": 4220,
      "disputer</w>": 4221,
      "nation": 4222,
      "ridicule</w>": 4223,
      "feras</w>": 4224,
      "déranger</w>": 4225,
      "ferions</w>": 4226,
      "jouez</w>": 4227,
      "excellent</w>": 4228,
      "joueur</w>": 4229,
      ":</w>": 4230,
      "mode</w>": 4231,
      "cessez</w>": 4232,
      "attendrai</w>": 4233,
      "meurs</w>": 4234,
      "hein</w>": 4235,
      "arrivent</w>": 4236,
      "travailles</w>": 4237,
      "caisse</w>": 4238,
      "partez</w>": 4239,
      "nav": 4240,
      "tenue</w>": 4241,
      "cace</w>": 4242,
      "sc": 4243,
      "rass": 4244,
      "aimerait</w>": 4245,
      "meuble</w>": 4246,
      "requi": 4247,
      "fâché</w>": 4248,
      "\"</w>": 4249,
      "veuse</w>": 4250,
      "saison</w>": 4251,
      "combat</w>": 4252,
      "image</w>": 4253,
      "france</w>": 4254,
      "manifes": 4255,
      "énorme</w>": 4256,
      "partons</w>": 4257,
      "mange": 4258,
      "quanti": 4259,
      "tandis</w>": 4260,
      "exper": 4261,
      "rejoindre</w>": 4262,
      "requ": 4263,
      "corrig": 4264,
      "aint</w>": 4265,
      "soi</w>": 4266,
      "ètes</w>": 4267,
      "from": 4268,
      "fromage</w>": 4269,
      "oli</w>": 4270,
      "songé</w>": 4271,
      "déçue</w>": 4272,
      "chanteur</w>": 4273,
      "quées</w>": 4274,
      "scin": 4275,
      "ordres</w>": 4276,
      "regi": 4277,
      "cherché</w>": 4278,
      "proches</w>": 4279,
      "crème</w>": 4280,
      "teaux</w>": 4281,
      "plais": 4282,
      "tiques</w>": 4283,
      "hal": 4284,
      "talent</w>": 4285,
      "confér": 4286,
      "club</w>": 4287,
      "avou": 4288,
      "crédit</w>": 4289,
      "brouill": 4290,
      "aper": 4291,
      "supporte</w>": 4292,
      "ades</w>": 4293,
      "alla</w>": 4294,
      "gam": 4295,
      "enquête</w>": 4296,
      "dernières</w>": 4297,
      "terr": 4298,
      "ponctu": 4299,
      "justi": 4300,
      "commande</w>": 4301,
      "deuxième</w>": 4302,
      "copain</w>": 4303,
      "lec": 4304,
      "quarti": 4305,
      "bai": 4306,
      "amitié</w>": 4307,
      "improbable</w>": 4308,
      "ajouter</w>": 4309,
      "rédi": 4310,
      "one</w>": 4311,
      "rang": 4312,
      "affec": 4313,
      "lourd</w>": 4314,
      "dress": 4315,
      "quali": 4316,
      "rater</w>": 4317,
      "loyer</w>": 4318,
      "produise</w>": 4319,
      "allumé</w>": 4320,
      "tue</w>": 4321,
      "célibataire</w>": 4322,
      "nés</w>": 4323,
      "mondiale</w>": 4324,
      "décédé</w>": 4325,
      "compét": 4326,
      "lés</w>": 4327,
      "suni": 4328,
      "monsi": 4329,
      "monsieur</w>": 4330,
      "travaillez</w>": 4331,
      "cinqu": 4332,
      "aliments</w>": 4333,
      "ailleurs</w>": 4334,
      "leva</w>": 4335,
      "orange</w>": 4336,
      "pouviez</w>": 4337,
      "portent</w>": 4338,
      "adé</w>": 4339,
      "aussi": 4340,
      "aussitôt</w>": 4341,
      "trouvez</w>": 4342,
      "fian": 4343,
      "période</w>": 4344,
      "tech": 4345,
      "ave</w>": 4346,
      "laires</w>": 4347,
      "château</w>": 4348,
      "arriverait</w>": 4349,
      "jack": 4350,
      "explosion</w>": 4351,
      "licen": 4352,
      "objectif</w>": 4353,
      "dépend": 4354,
      "chaussettes</w>": 4355,
      "sortes</w>": 4356,
      "pt": 4357,
      "réveillée</w>": 4358,
      "poches</w>": 4359,
      "tré": 4360,
      "preuves</w>": 4361,
      "prudents</w>": 4362,
      "trou</w>": 4363,
      "égard</w>": 4364,
      "blag": 4365,
      "raisons</w>": 4366,
      "arriva</w>": 4367,
      "inscri": 4368,
      "parfaite</w>": 4369,
      "bom": 4370,
      "travaillons</w>": 4371,
      "ures</w>": 4372,
      "consid": 4373,
      "câ": 4374,
      "passait</w>": 4375,
      "laissa</w>": 4376,
      "diss": 4377,
      "communi": 4378,
      "travaillent</w>": 4379,
      "nerveuse</w>": 4380,
      "continuez</w>": 4381,
      "forc": 4382,
      "études</w>": 4383,
      "vend</w>": 4384,
      "servi</w>": 4385,
      "coups</w>": 4386,
      "mél": 4387,
      "artiste</w>": 4388,
      "essionn": 4389,
      "connaissons</w>": 4390,
      "admettre</w>": 4391,
      "cherchais</w>": 4392,
      "mait</w>": 4393,
      "inhabitu": 4394,
      "parvenir</w>": 4395,
      "éra</w>": 4396,
      "léger</w>": 4397,
      "blâ": 4398,
      "minuit</w>": 4399,
      "sachiez</w>": 4400,
      "négoci": 4401,
      "réguli": 4402,
      "réserv": 4403,
      "20": 4404,
      "ption</w>": 4405,
      "démo": 4406,
      "froide</w>": 4407,
      "envelop": 4408,
      "memb": 4409,
      "membres</w>": 4410,
      "élève</w>": 4411,
      "longs</w>": 4412,
      "toire</w>": 4413,
      "spécial</w>": 4414,
      "tâche</w>": 4415,
      "baisse</w>": 4416,
      "grâ": 4417,
      "grâce</w>": 4418,
      "étoiles</w>": 4419,
      "optimi": 4420,
      "abandonn": 4421,
      "perds</w>": 4422,
      "chanceuse</w>": 4423,
      "vivons</w>": 4424,
      "fonctionner</w>": 4425,
      "points</w>": 4426,
      "facture</w>": 4427,
      "escaliers</w>": 4428,
      "time</w>": 4429,
      "complet</w>": 4430,
      "ots</w>": 4431,
      "fiée</w>": 4432,
      "futu": 4433,
      "tiroir</w>": 4434,
      "amené</w>": 4435,
      "mété": 4436,
      "capables</w>": 4437,
      "contrarié</w>": 4438,
      "jackson</w>": 4439,
      "craign": 4440,
      "émo": 4441,
      "sentis</w>": 4442,
      "suivant</w>": 4443,
      "stri": 4444,
      "ond": 4445,
      "épaule</w>": 4446,
      "conduite</w>": 4447,
      "entendue</w>": 4448,
      "natur": 4449,
      "coi": 4450,
      "accompagner</w>": 4451,
      "7</w>": 4452,
      "adress": 4453,
      "courut</w>": 4454,
      "né": 4455,
      "arrives</w>": 4456,
      "réfri": 4457,
      "réfrigér": 4458,
      "quitte</w>": 4459,
      "habituée</w>": 4460,
      "hou": 4461,
      "parmi</w>": 4462,
      "allions</w>": 4463,
      "efficace</w>": 4464,
      "trouvée</w>": 4465,
      "somme</w>": 4466,
      "délicieux</w>": 4467,
      "ferons</w>": 4468,
      "sauv": 4469,
      "pourrai</w>": 4470,
      "nu</w>": 4471,
      "chauffeur</w>": 4472,
      "risques</w>": 4473,
      "sen": 4474,
      "gal": 4475,
      "voudrait</w>": 4476,
      "produ": 4477,
      "rejoin": 4478,
      "régler</w>": 4479,
      "récol": 4480,
      "sandwich</w>": 4481,
      "héros</w>": 4482,
      "considéré</w>": 4483,
      "viendras</w>": 4484,
      "gnons</w>": 4485,
      "victi": 4486,
      "quoti": 4487,
      "quotidi": 4488,
      "quinze</w>": 4489,
      "cambri": 4490,
      "clients</w>": 4491,
      "reten": 4492,
      "reconnaissante</w>": 4493,
      "commerci": 4494,
      "garé</w>": 4495,
      "estoma": 4496,
      "estomac</w>": 4497,
      "exe</w>": 4498,
      "chinois</w>": 4499,
      "ative</w>": 4500,
      "critique</w>": 4501,
      "valises</w>": 4502,
      "ignit</w>": 4503,
      "sugges": 4504,
      "chances</w>": 4505,
      "approuv": 4506,
      "aidera</w>": 4507,
      "éveillé</w>": 4508,
      "troisi": 4509,
      "troisième</w>": 4510,
      "inci": 4511,
      "réfléchi</w>": 4512,
      "tte</w>": 4513,
      "aidez</w>": 4514,
      "usage</w>": 4515,
      "augmentation</w>": 4516,
      "poule</w>": 4517,
      "coïncidence</w>": 4518,
      "beauté</w>": 4519,
      "puissiez</w>": 4520,
      "dérangé</w>": 4521,
      "vég": 4522,
      "jouons</w>": 4523,
      "présence</w>": 4524,
      "charger</w>": 4525,
      "courte</w>": 4526,
      "tremblement</w>": 4527,
      "gentill": 4528,
      "gentillesse</w>": 4529,
      "rouges</w>": 4530,
      "futur</w>": 4531,
      "dépêche</w>": 4532,
      "piège</w>": 4533,
      "test</w>": 4534,
      "bor": 4535,
      "disposé</w>": 4536,
      "existe</w>": 4537,
      "parlais</w>": 4538,
      "laient</w>": 4539,
      "simil": 4540,
      "sang": 4541,
      "malin</w>": 4542,
      "tier</w>": 4543,
      "rine</w>": 4544,
      "mirac": 4545,
      "descendre</w>": 4546,
      "server</w>": 4547,
      "1</w>": 4548,
      "lavé</w>": 4549,
      "13</w>": 4550,
      "herbe</w>": 4551,
      "produits</w>": 4552,
      "récupérer</w>": 4553,
      "dépêcher</w>": 4554,
      "jure</w>": 4555,
      "barbe</w>": 4556,
      "excellente</w>": 4557,
      "site</w>": 4558,
      "web</w>": 4559,
      "raient</w>": 4560,
      "ouvrage</w>": 4561,
      "dîné</w>": 4562,
      "guère</w>": 4563,
      "gnez</w>": 4564,
      "ué</w>": 4565,
      "apprécierais</w>": 4566,
      "adorent</w>": 4567,
      "nité</w>": 4568,
      "nord</w>": 4569,
      "autorisés</w>": 4570,
      "internet</w>": 4571,
      "posez</w>": 4572,
      "réfrigérateur</w>": 4573,
      "mètres</w>": 4574,
      "ressens</w>": 4575,
      "blo": 4576,
      "ravie</w>": 4577,
      "cinquante</w>": 4578,
      "explications</w>": 4579,
      "banc</w>": 4580,
      "tables</w>": 4581,
      "dirent</w>": 4582,
      "ière</w>": 4583,
      "compréh": 4584,
      "ert</w>": 4585,
      "cuit</w>": 4586,
      "enseignante</w>": 4587,
      "traitement</w>": 4588,
      "effet</w>": 4589,
      "immeuble</w>": 4590,
      "améliorer</w>": 4591,
      "lin</w>": 4592,
      "capacité</w>": 4593,
      "file</w>": 4594,
      "servir</w>": 4595,
      "invitée</w>": 4596,
      "stiques</w>": 4597,
      "lecture</w>": 4598,
      "quartier</w>": 4599,
      "liquide</w>": 4600,
      "prennent</w>": 4601,
      "électricité</w>": 4602,
      "dérangerait</w>": 4603,
      "décol": 4604,
      "différents</w>": 4605,
      "casse</w>": 4606,
      "ardé</w>": 4607,
      "professionn": 4608,
      "chette</w>": 4609,
      "chargé</w>": 4610,
      "progrès</w>": 4611,
      "laissée</w>": 4612,
      "stupides</w>": 4613,
      "édi": 4614,
      "dégoû": 4615,
      "tein": 4616,
      "prévenu</w>": 4617,
      "gnée</w>": 4618,
      "puni</w>": 4619,
      "otte</w>": 4620,
      "loge</w>": 4621,
      "enregi": 4622,
      "partit</w>": 4623,
      "inée</w>": 4624,
      "um</w>": 4625,
      "réalisé</w>": 4626,
      "asseyez</w>": 4627,
      "présenté</w>": 4628,
      "apprécient</w>": 4629,
      "éducation</w>": 4630,
      "offi": 4631,
      "courrier</w>": 4632,
      "cins</w>": 4633,
      "jection</w>": 4634,
      "bague</w>": 4635,
      "gants</w>": 4636,
      "respect</w>": 4637,
      "demandes</w>": 4638,
      "phar": 4639,
      "cardi": 4640,
      "prudentes</w>": 4641,
      "it": 4642,
      "drap": 4643,
      "occuper": 4644,
      "aliment": 4645,
      "brouillard</w>": 4646,
      "plaint</w>": 4647,
      "20</w>": 4648,
      "eilli": 4649,
      "jouent</w>": 4650,
      "étique</w>": 4651,
      "peau</w>": 4652,
      "tarte</w>": 4653,
      "meilleures</w>": 4654,
      "az": 4655,
      "plantes</w>": 4656,
      "impatiente</w>": 4657,
      "distinguer</w>": 4658,
      "sauté</w>": 4659,
      "soix": 4660,
      "refusa</w>": 4661,
      "métho": 4662,
      "quar": 4663,
      "charge</w>": 4664,
      "attrape</w>": 4665,
      "diag": 4666,
      "partager</w>": 4667,
      "resta</w>": 4668,
      "aill": 4669,
      "perdit</w>": 4670,
      "fatiguées</w>": 4671,
      "répu": 4672,
      "franchement</w>": 4673,
      "dessous</w>": 4674,
      "cement</w>": 4675,
      "assie": 4676,
      "souhaiterais</w>": 4677,
      "èche</w>": 4678,
      "pleure</w>": 4679,
      "paris</w>": 4680,
      "sieste</w>": 4681,
      "dées</w>": 4682,
      "stric": 4683,
      "souper</w>": 4684,
      "insul": 4685,
      "inviter</w>": 4686,
      "faisant</w>": 4687,
      "viendrais</w>": 4688,
      "ride": 4689,
      "déprimé</w>": 4690,
      "évident</w>": 4691,
      "enseigné</w>": 4692,
      "joyeux</w>": 4693,
      "eine</w>": 4694,
      "voisin</w>": 4695,
      "exprimer</w>": 4696,
      "pleuve</w>": 4697,
      "gueur</w>": 4698,
      "phy": 4699,
      "écrivain</w>": 4700,
      "théâtre</w>": 4701,
      "recevoir</w>": 4702,
      "rappelles</w>": 4703,
      "assiette</w>": 4704,
      "vendre": 4705,
      "raconté</w>": 4706,
      "rendue</w>": 4707,
      "mation</w>": 4708,
      "assions</w>": 4709,
      "ottes</w>": 4710,
      "environs</w>": 4711,
      "lles</w>": 4712,
      "montra</w>": 4713,
      "chand": 4714,
      "pét": 4715,
      "espa": 4716,
      "soixante</w>": 4717,
      "hé</w>": 4718,
      "plaisanter</w>": 4719,
      "contrôler</w>": 4720,
      "rendr": 4721,
      "institutrice</w>": 4722,
      "ball": 4723,
      "difficulté</w>": 4724,
      "distribu": 4725,
      "gaz</w>": 4726,
      "attir": 4727,
      "impri": 4728,
      "vivait</w>": 4729,
      "confectionné</w>": 4730,
      "demie</w>": 4731,
      "ar</w>": 4732,
      "nature</w>": 4733,
      "courageux</w>": 4734,
      "disposer</w>": 4735,
      "imp": 4736,
      "poussi": 4737,
      "prévenir</w>": 4738,
      "assieds</w>": 4739,
      "cuisinier</w>": 4740,
      "sonne</w>": 4741,
      "capitale</w>": 4742,
      "importantes</w>": 4743,
      "camp</w>": 4744,
      "pêche</w>": 4745,
      "dèle</w>": 4746,
      "auraient</w>": 4747,
      "deviner</w>": 4748,
      "perdue</w>": 4749,
      "détail</w>": 4750,
      "orge</w>": 4751,
      "usine</w>": 4752,
      "établi": 4753,
      "médecins</w>": 4754,
      "océ": 4755,
      "tations</w>": 4756,
      "physi": 4757,
      "honneur</w>": 4758,
      "anges</w>": 4759,
      "entra</w>": 4760,
      "gner</w>": 4761,
      "prénom</w>": 4762,
      "pill": 4763,
      "taux</w>": 4764,
      "apportez</w>": 4765,
      "agne</w>": 4766,
      "fleuve</w>": 4767,
      "conférence</w>": 4768,
      "céré": 4769,
      "paresseux</w>": 4770,
      "chatte</w>": 4771,
      "vendredi</w>": 4772,
      "acquérir</w>": 4773,
      "serré</w>": 4774,
      "nuages</w>": 4775,
      "hauteur</w>": 4776,
      "cles</w>": 4777,
      "tomba</w>": 4778,
      "préférable</w>": 4779,
      "malentendu</w>": 4780,
      "sapin</w>": 4781,
      "secours</w>": 4782,
      "fassions</w>": 4783,
      "champi": 4784,
      "continua</w>": 4785,
      "chevaux</w>": 4786,
      "prendrais</w>": 4787,
      "renvoy": 4788,
      "romans</w>": 4789,
      "tam": 4790,
      "eries</w>": 4791,
      "danse</w>": 4792,
      "soupç": 4793,
      "ôtres</w>": 4794,
      "bar</w>": 4795,
      "innoc": 4796,
      "engagé</w>": 4797,
      "conseille</w>": 4798,
      "matique</w>": 4799,
      "ennuyer</w>": 4800,
      "foi": 4801,
      "quantité</w>": 4802,
      "uies</w>": 4803,
      "inhabituel</w>": 4804,
      "buvez</w>": 4805,
      "quasi": 4806,
      "quasiment</w>": 4807,
      "signé</w>": 4808,
      "admire</w>": 4809,
      "rappelez</w>": 4810,
      "profond</w>": 4811,
      "élu</w>": 4812,
      "rentrée</w>": 4813,
      "taient</w>": 4814,
      "portée</w>": 4815,
      "instructions</w>": 4816,
      "joli</w>": 4817,
      "bleue</w>": 4818,
      "uir</w>": 4819,
      "longues</w>": 4820,
      "poulet</w>": 4821,
      "intimi": 4822,
      "ancien</w>": 4823,
      "consé": 4824,
      "connaissent</w>": 4825,
      "matière</w>": 4826,
      "sucr": 4827,
      "semblent</w>": 4828,
      "passes</w>": 4829,
      "ambiti": 4830,
      "cent": 4831,
      "maîtri": 4832,
      "épuisé</w>": 4833,
      "addition</w>": 4834,
      "respecter</w>": 4835,
      "saoul</w>": 4836,
      "ressenti</w>": 4837,
      "écra": 4838,
      "regardes</w>": 4839,
      "correcte</w>": 4840,
      "photograp": 4841,
      "ecti": 4842,
      "cuill": 4843,
      "science</w>": 4844,
      "disiez</w>": 4845,
      "tapis</w>": 4846,
      "poussé</w>": 4847,
      "opportu": 4848,
      "hui": 4849,
      "reviendra</w>": 4850,
      "démé": 4851,
      "malgré</w>": 4852,
      "copie</w>": 4853,
      "génie</w>": 4854,
      "merveilleuse</w>": 4855,
      "échappé</w>": 4856,
      "remets</w>": 4857,
      "remonte</w>": 4858,
      "nul</w>": 4859,
      "confon": 4860,
      "mir": 4861,
      "amuse</w>": 4862,
      "prisonniers</w>": 4863,
      "égoï": 4864,
      "possé": 4865,
      "gon": 4866,
      "relation</w>": 4867,
      "conducteur</w>": 4868,
      "cour</w>": 4869,
      "commencez</w>": 4870,
      "interdit</w>": 4871,
      "hypo": 4872,
      "pin": 4873,
      "ours</w>": 4874,
      "plainte</w>": 4875,
      "mant</w>": 4876,
      "endriez</w>": 4877,
      "fascin": 4878,
      "mordu</w>": 4879,
      "teras</w>": 4880,
      "jus</w>": 4881,
      "cue</w>": 4882,
      "parte</w>": 4883,
      "rencontrées</w>": 4884,
      "licenci": 4885,
      "élég": 4886,
      "cur": 4887,
      "pist": 4888,
      "enter</w>": 4889,
      "économie</w>": 4890,
      "telles</w>": 4891,
      "constamment</w>": 4892,
      "vé": 4893,
      "persuader</w>": 4894,
      "lab": 4895,
      "assistance</w>": 4896,
      "forcer</w>": 4897,
      "ski</w>": 4898,
      "sud</w>": 4899,
      "recommandé</w>": 4900,
      "nou": 4901,
      "tels</w>": 4902,
      "frig": 4903,
      "frigo</w>": 4904,
      "seaux</w>": 4905,
      "parvenu</w>": 4906,
      "monie</w>": 4907,
      "glac": 4908,
      "annulé</w>": 4909,
      "naiss": 4910,
      "virer</w>": 4911,
      "onné</w>": 4912,
      "passi": 4913,
      "dable</w>": 4914,
      "joi": 4915,
      "retourné</w>": 4916,
      "habillé</w>": 4917,
      "possibilités</w>": 4918,
      "fici": 4919,
      "manon</w>": 4920,
      "miroir</w>": 4921,
      "espi": 4922,
      "pus</w>": 4923,
      "teux</w>": 4924,
      "assure</w>": 4925,
      "exte</w>": 4926,
      "étang</w>": 4927,
      "limite</w>": 4928,
      "contribu": 4929,
      "fausse</w>": 4930,
      "quent</w>": 4931,
      "juge</w>": 4932,
      "formi": 4933,
      "orité</w>": 4934,
      "%</w>": 4935,
      "accomplir</w>": 4936,
      "fautes</w>": 4937,
      "blessées</w>": 4938,
      "veiller</w>": 4939,
      "volontaire</w>": 4940,
      "exag": 4941,
      "horloge</w>": 4942,
      "impatience</w>": 4943,
      "enregistr": 4944,
      "clé": 4945,
      "agi</w>": 4946,
      "appropri": 4947,
      "gorge</w>": 4948,
      "confortable</w>": 4949,
      "auteur</w>": 4950,
      "magas": 4951,
      "magasins</w>": 4952,
      "essai": 4953,
      "essaies</w>": 4954,
      "destin": 4955,
      "interpr": 4956,
      "reviendrai</w>": 4957,
      "étudiante</w>": 4958,
      "50</w>": 4959,
      "berté</w>": 4960,
      "toile</w>": 4961,
      "rendrai</w>": 4962,
      "contacter</w>": 4963,
      "choisis</w>": 4964,
      "jouait</w>": 4965,
      "ennemis</w>": 4966,
      "tron": 4967,
      "leçon</w>": 4968,
      "gueule</w>": 4969,
      "censée</w>": 4970,
      "rique</w>": 4971,
      "cass": 4972,
      "vente</w>": 4973,
      "dévelop": 4974,
      "terons</w>": 4975,
      "claire</w>": 4976,
      "survécu</w>": 4977,
      "poster</w>": 4978,
      "rende</w>": 4979,
      "déchi": 4980,
      "illégal</w>": 4981,
      "affi": 4982,
      "commenç": 4983,
      "réduire</w>": 4984,
      "espace</w>": 4985,
      "désespér": 4986,
      "vant</w>": 4987,
      "honnêt": 4988,
      "honnêteté</w>": 4989,
      "capitaine</w>": 4990,
      "courri": 4991,
      "tants</w>": 4992,
      "brûlé</w>": 4993,
      "cro</w>": 4994,
      "connue</w>": 4995,
      "fonctionné</w>": 4996,
      "frapper</w>": 4997,
      "chon</w>": 4998,
      "vérifi": 4999,
      "libr": 5000,
      "attendent</w>": 5001,
      "myst": 5002,
      "ennuie</w>": 5003,
      "blé</w>": 5004,
      "terriblement</w>": 5005,
      "fichi": 5006,
      "durer</w>": 5007,
      "connai": 5008,
      "mens</w>": 5009,
      "particulièrement</w>": 5010,
      "fruit</w>": 5011,
      "obs": 5012,
      "absence</w>": 5013,
      "tremp": 5014,
      "dette</w>": 5015,
      "solaire</w>": 5016,
      "abat": 5017,
      "tur": 5018,
      "retrouver</w>": 5019,
      "rel</w>": 5020,
      "marcher": 5021,
      "albu": 5022,
      "rues</w>": 5023,
      "fanta": 5024,
      "adap": 5025,
      "retiré</w>": 5026,
      "rément</w>": 5027,
      "lampe</w>": 5028,
      "sit</w>": 5029,
      "100</w>": 5030,
      "pot</w>": 5031,
      "chasse</w>": 5032,
      "entraîn": 5033,
      "auquel</w>": 5034,
      "coincé</w>": 5035,
      "humains</w>": 5036,
      "mortes</w>": 5037,
      "soudainement</w>": 5038,
      "ji</w>": 5039,
      "sme</w>": 5040,
      "respirer</w>": 5041,
      "couple</w>": 5042,
      "fis</w>": 5043,
      "paquet</w>": 5044,
      "commettre</w>": 5045,
      "vic": 5046,
      "bur": 5047,
      "formulaire</w>": 5048,
      "sier</w>": 5049,
      "diable</w>": 5050,
      "relig": 5051,
      "locu": 5052,
      "9</w>": 5053,
      "remise</w>": 5054,
      "évan": 5055,
      "neiger</w>": 5056,
      "amusée</w>": 5057,
      "encourag": 5058,
      "prépare</w>": 5059,
      "fleur</w>": 5060,
      "essayais</w>": 5061,
      "descendu</w>": 5062,
      "jeta</w>": 5063,
      "injuste</w>": 5064,
      "refuser</w>": 5065,
      "pattes</w>": 5066,
      "approch": 5067,
      "agri": 5068,
      "confir": 5069,
      "frappa</w>": 5070,
      "employés</w>": 5071,
      "sain</w>": 5072,
      "américain</w>": 5073,
      "ambul": 5074,
      "accidents</w>": 5075,
      "canadienne</w>": 5076,
      "clô": 5077,
      "admets</w>": 5078,
      "rure</w>": 5079,
      "blagues</w>": 5080,
      "mette</w>": 5081,
      "album</w>": 5082,
      "vieilles</w>": 5083,
      "consulter</w>": 5084,
      "options</w>": 5085,
      "congés</w>": 5086,
      "irons</w>": 5087,
      "sourit</w>": 5088,
      "étasuni": 5089,
      "pleuvra</w>": 5090,
      "moral</w>": 5091,
      "voter</w>": 5092,
      "préférez</w>": 5093,
      "optimiste</w>": 5094,
      "mont</w>": 5095,
      "passera</w>": 5096,
      "carottes</w>": 5097,
      "changements</w>": 5098,
      "écart</w>": 5099,
      "vérifié</w>": 5100,
      "éléph": 5101,
      "jalouse</w>": 5102,
      "escal": 5103,
      "autorisée</w>": 5104,
      "uin</w>": 5105,
      "cigarette</w>": 5106,
      "pétro": 5107,
      "vach": 5108,
      "voudr": 5109,
      "déclaré</w>": 5110,
      "tromp": 5111,
      "riste</w>": 5112,
      "produira</w>": 5113,
      "conditions</w>": 5114,
      "logie</w>": 5115,
      "fréquence</w>": 5116,
      "chargée</w>": 5117,
      "humou": 5118,
      "humour</w>": 5119,
      "faisiez</w>": 5120,
      "contrac": 5121,
      "œuvre</w>": 5122,
      "disposes</w>": 5123,
      "tromper</w>": 5124,
      "allume</w>": 5125,
      "voyag": 5126,
      "doux</w>": 5127,
      "gre</w>": 5128,
      "descends</w>": 5129,
      "inquiét": 5130,
      "détend": 5131,
      "ge": 5132,
      "plong": 5133,
      "moque</w>": 5134,
      "examens</w>": 5135,
      "trouva</w>": 5136,
      "affam": 5137,
      "cesser</w>": 5138,
      "tas</w>": 5139,
      "prenant</w>": 5140,
      "gies</w>": 5141,
      "blon": 5142,
      "douz": 5143,
      "natu": 5144,
      "naturel</w>": 5145,
      "prévoyez</w>": 5146,
      "interrompre</w>": 5147,
      "achetée</w>": 5148,
      "liberté</w>": 5149,
      "concerne</w>": 5150,
      "exact</w>": 5151,
      "véhi": 5152,
      "dépourvu</w>": 5153,
      "paroles</w>": 5154,
      "pâle</w>": 5155,
      "bienvenu</w>": 5156,
      "suit</w>": 5157,
      "aima": 5158,
      "passage</w>": 5159,
      "verrouillée</w>": 5160,
      "remonter</w>": 5161,
      "prof</w>": 5162,
      "gé": 5163,
      "levez</w>": 5164,
      "passa</w>": 5165,
      "enthou": 5166,
      "enthousi": 5167,
      "lib": 5168,
      "remède</w>": 5169,
      "serpen": 5170,
      "déménagé</w>": 5171,
      "naissance</w>": 5172,
      "saint</w>": 5173,
      "entrez</w>": 5174,
      "corriger</w>": 5175,
      "tes": 5176,
      "raconte</w>": 5177,
      "satisfaite</w>": 5178,
      "shi": 5179,
      "épousé</w>": 5180,
      "baiser</w>": 5181,
      "automne</w>": 5182,
      "âgée</w>": 5183,
      "confron": 5184,
      "diagno": 5185,
      "diagnosti": 5186,
      "choc</w>": 5187,
      "linge</w>": 5188,
      "cherchent</w>": 5189,
      "abr": 5190,
      "document</w>": 5191,
      "partage</w>": 5192,
      "manières</w>": 5193,
      "égoïste</w>": 5194,
      "rôle</w>": 5195,
      "détruit</w>": 5196,
      "duré</w>": 5197,
      "niveau</w>": 5198,
      "êter</w>": 5199,
      "employé</w>": 5200,
      "poussière</w>": 5201,
      "obéir</w>": 5202,
      "météo</w>": 5203,
      "remplac": 5204,
      "décisions</w>": 5205,
      "furieux</w>": 5206,
      "aides</w>": 5207,
      "tableaux</w>": 5208,
      "volonté</w>": 5209,
      "énervé</w>": 5210,
      "qualité</w>": 5211,
      "basse</w>": 5212,
      "loupé</w>": 5213,
      "contents</w>": 5214,
      "écoutes</w>": 5215,
      "embarrass": 5216,
      "ttes</w>": 5217,
      "emprunté</w>": 5218,
      "ral": 5219,
      "étrangères</w>": 5220,
      "réparé</w>": 5221,
      "client</w>": 5222,
      "annuler</w>": 5223,
      "chant": 5224,
      "mante</w>": 5225,
      "évidence</w>": 5226,
      "oppo": 5227,
      "alarme</w>": 5228,
      "océan</w>": 5229,
      "ingéni": 5230,
      "baissé</w>": 5231,
      "embler</w>": 5232,
      "touris": 5233,
      "pn": 5234,
      "parties</w>": 5235,
      "familier</w>": 5236,
      "source</w>": 5237,
      "agissait</w>": 5238,
      "titude</w>": 5239,
      "mot": 5240,
      "cherchait</w>": 5241,
      "louer</w>": 5242,
      "tâ": 5243,
      "endormir</w>": 5244,
      "igne</w>": 5245,
      "pauvres</w>": 5246,
      "révé": 5247,
      "souffr": 5248,
      "pull</w>": 5249,
      "camar": 5250,
      "commencent</w>": 5251,
      "origin": 5252,
      "matern": 5253,
      "salade</w>": 5254,
      "onze</w>": 5255,
      "embout": 5256,
      "embouteill": 5257,
      "éteins</w>": 5258,
      "réchauff": 5259,
      "allemand</w>": 5260,
      "réussite</w>": 5261,
      "survivre</w>": 5262,
      "sympathique</w>": 5263,
      "natif</w>": 5264,
      "pareil</w>": 5265,
      "les": 5266,
      "lignes</w>": 5267,
      "ath": 5268,
      "ouvertes</w>": 5269,
      "encre</w>": 5270,
      "remercie</w>": 5271,
      "cou</w>": 5272,
      "devenus</w>": 5273,
      "réveille</w>": 5274,
      "planète</w>": 5275,
      "moder": 5276,
      "py": 5277,
      "pardon</w>": 5278,
      "poupée</w>": 5279,
      "superbe</w>": 5280,
      "vivants</w>": 5281,
      "marteau</w>": 5282,
      "humi": 5283,
      "soulagé</w>": 5284,
      "montrerai</w>": 5285,
      "volant</w>": 5286,
      "villes</w>": 5287,
      "allergique</w>": 5288,
      "pompi": 5289,
      "2013</w>": 5290,
      "gratuit</w>": 5291,
      "directeur</w>": 5292,
      "dira</w>": 5293,
      "enveloppe</w>": 5294,
      "conséqu": 5295,
      "aîné</w>": 5296,
      "ordinateurs</w>": 5297,
      "rempli": 5298,
      "adolesc": 5299,
      "descen": 5300,
      "inspi": 5301,
      "arrivez</w>": 5302,
      "voient</w>": 5303,
      "bask": 5304,
      "informé</w>": 5305,
      "tol": 5306,
      "diam": 5307,
      "ssage</w>": 5308,
      "pointe</w>": 5309,
      "van": 5310,
      "matéri": 5311,
      "considère</w>": 5312,
      "restés</w>": 5313,
      "augmenté</w>": 5314,
      "arna": 5315,
      "bouge</w>": 5316,
      "passées</w>": 5317,
      "reconnais</w>": 5318,
      "directement</w>": 5319,
      "apparence</w>": 5320,
      "allumer</w>": 5321,
      "participer</w>": 5322,
      "choisissez</w>": 5323,
      "argu": 5324,
      "ock</w>": 5325,
      "miracle</w>": 5326,
      "choir</w>": 5327,
      "roman": 5328,
      "double</w>": 5329,
      "huile</w>": 5330,
      "influ": 5331,
      "méchant</w>": 5332,
      "cac": 5333,
      "bol</w>": 5334,
      "trouvent</w>": 5335,
      "comptes</w>": 5336,
      "documents</w>": 5337,
      "pes": 5338,
      "formidable</w>": 5339,
      "large</w>": 5340,
      "siff": 5341,
      "vê": 5342,
      "incroyablement</w>": 5343,
      "asses</w>": 5344,
      "ustr": 5345,
      "appelée</w>": 5346,
      "exacte</w>": 5347,
      "cousin</w>": 5348,
      "anes</w>": 5349,
      "ane</w>": 5350,
      "déterminé</w>": 5351,
      "tués</w>": 5352,
      "dions</w>": 5353,
      "mos": 5354,
      "outi": 5355,
      "tradi": 5356,
      "moti": 5357,
      "changent</w>": 5358,
      "retrouvé</w>": 5359,
      "demander": 5360,
      "violon</w>": 5361,
      "fiable</w>": 5362,
      "lapin</w>": 5363,
      "assu": 5364,
      "xe</w>": 5365,
      "rever": 5366,
      "écriture</w>": 5367,
      "révél": 5368,
      "décrire</w>": 5369,
      "montagnes</w>": 5370,
      "pit</w>": 5371,
      "patronne</w>": 5372,
      "ressour": 5373,
      "fêtes</w>": 5374,
      "secrets</w>": 5375,
      "mangeons</w>": 5376,
      "française</w>": 5377,
      "diplômé</w>": 5378,
      "enfre": 5379,
      "gué</w>": 5380,
      "ombre</w>": 5381,
      "talentu": 5382,
      "nier</w>": 5383,
      "dérob": 5384,
      "apprécier</w>": 5385,
      "suggestion</w>": 5386,
      "personnelle</w>": 5387,
      "chir": 5388,
      "chirur": 5389,
      "métr": 5390,
      "métro</w>": 5391,
      "casser</w>": 5392,
      "vain": 5393,
      "mirent</w>": 5394,
      "constitu": 5395,
      "parla</w>": 5396,
      "joie</w>": 5397,
      "euil</w>": 5398,
      "féli": 5399,
      "activi": 5400,
      "retenir</w>": 5401,
      "gel": 5402,
      "jetez</w>": 5403,
      "bombe</w>": 5404,
      "annonce</w>": 5405,
      "dait</w>": 5406,
      "pneu</w>": 5407,
      "serions</w>": 5408,
      "pann": 5409,
      "atif</w>": 5410,
      "èce</w>": 5411,
      "acceptable</w>": 5412,
      "sortons</w>": 5413,
      "devin": 5414,
      "tém": 5415,
      "omè": 5416,
      "satisfaits</w>": 5417,
      "fournir</w>": 5418,
      "suggéré</w>": 5419,
      "suivez</w>": 5420,
      "fermés</w>": 5421,
      "jaune</w>": 5422,
      "saura</w>": 5423,
      "sortis</w>": 5424,
      "seau</w>": 5425,
      "serpents</w>": 5426,
      "dessert</w>": 5427,
      "accompli</w>": 5428,
      "endormie</w>": 5429,
      "voté</w>": 5430,
      "brillant</w>": 5431,
      "scène</w>": 5432,
      "cle": 5433,
      "tourné</w>": 5434,
      "effon": 5435,
      "laisses</w>": 5436,
      "baign": 5437,
      "justice</w>": 5438,
      "ini": 5439,
      "escl": 5440,
      "téléphoner</w>": 5441,
      "calcu": 5442,
      "verres</w>": 5443,
      "élevés</w>": 5444,
      "assass": 5445,
      "levée</w>": 5446,
      "nau": 5447,
      "rose</w>": 5448,
      "assisté</w>": 5449,
      "tenter</w>": 5450,
      "ind": 5451,
      "trouverai</w>": 5452,
      "amène</w>": 5453,
      "grossier</w>": 5454,
      "bles": 5455,
      "impô": 5456,
      "impôts</w>": 5457,
      "ennement</w>": 5458,
      "tradui": 5459,
      "actuelle</w>": 5460,
      "lèvres</w>": 5461,
      "naïf</w>": 5462,
      "trico": 5463,
      "rêver</w>": 5464,
      "violence</w>": 5465,
      "renon": 5466,
      "avancer</w>": 5467,
      "examiner</w>": 5468,
      "contraire</w>": 5469,
      "objectifs</w>": 5470,
      "respecte</w>": 5471,
      "amical</w>": 5472,
      "sec": 5473,
      "inventé</w>": 5474,
      "mouv": 5475,
      "dent": 5476,
      "défen": 5477,
      "échelle</w>": 5478,
      "allemagne</w>": 5479,
      "utiles</w>": 5480,
      "trine</w>": 5481,
      "cend": 5482,
      "doulour": 5483,
      "hurler</w>": 5484,
      "trahi</w>": 5485,
      "témoin</w>": 5486,
      "trompe</w>": 5487,
      "til": 5488,
      "surveill": 5489,
      "juger</w>": 5490,
      "aly": 5491,
      "fuji</w>": 5492,
      "venons</w>": 5493,
      "ongles</w>": 5494,
      "coûtera</w>": 5495,
      "ouse</w>": 5496,
      "psy": 5497,
      "emmène</w>": 5498,
      "astro": 5499,
      "mentionné</w>": 5500,
      "concours</w>": 5501,
      "plafond</w>": 5502,
      "firent</w>": 5503,
      "restait</w>": 5504,
      "chandail</w>": 5505,
      "déton": 5506,
      "cate</w>": 5507,
      "épaules</w>": 5508,
      "crié</w>": 5509,
      "entendit</w>": 5510,
      "clef</w>": 5511,
      "chers</w>": 5512,
      "diriez</w>": 5513,
      "disais</w>": 5514,
      "quarante</w>": 5515,
      "places</w>": 5516,
      "actions</w>": 5517,
      "sales</w>": 5518,
      "cardiaque</w>": 5519,
      "affr": 5520,
      "code</w>": 5521,
      "bataille</w>": 5522,
      "vaches</w>": 5523,
      "cas": 5524,
      "agent</w>": 5525,
      "bab": 5526,
      "lancer</w>": 5527,
      "clam": 5528,
      "jupe</w>": 5529,
      "mées</w>": 5530,
      "raci": 5531,
      "fuite</w>": 5532,
      "contrariée</w>": 5533,
      "collè": 5534,
      "nant</w>": 5535,
      "supplémentaire</w>": 5536,
      "envoie</w>": 5537,
      "onner</w>": 5538,
      "utilisez</w>": 5539,
      "soulag": 5540,
      "entière</w>": 5541,
      "venant</w>": 5542,
      "rare</w>": 5543,
      "maria</w>": 5544,
      "jur": 5545,
      "tionnel</w>": 5546,
      "quotidiennement</w>": 5547,
      "pleuvait</w>": 5548,
      "achats</w>": 5549,
      "répondit</w>": 5550,
      "ressources</w>": 5551,
      "gron": 5552,
      "permettez</w>": 5553,
      "ambulance</w>": 5554,
      "équ": 5555,
      "arrêtée</w>": 5556,
      "convaincue</w>": 5557,
      "taires</w>": 5558,
      "retire</w>": 5559,
      "perpl": 5560,
      "vard</w>": 5561,
      "adopté</w>": 5562,
      "impui": 5563,
      "vom": 5564,
      "rité</w>": 5565,
      "corri": 5566,
      "vivez</w>": 5567,
      "revienne</w>": 5568,
      "pourraient</w>": 5569,
      "sûrement</w>": 5570,
      "rigo": 5571,
      "ferma</w>": 5572,
      "signification</w>": 5573,
      "recu": 5574,
      "unes</w>": 5575,
      "effrayée</w>": 5576,
      "pensiez</w>": 5577,
      "donnes</w>": 5578,
      "secou": 5579,
      "aimable</w>": 5580,
      "dépenser</w>": 5581,
      "sèrent</w>": 5582,
      "commencer": 5583,
      "soign": 5584,
      "hon": 5585,
      "oh</w>": 5586,
      "oublions</w>": 5587,
      "politi": 5588,
      "mouchoir</w>": 5589,
      "situe</w>": 5590,
      "repris</w>": 5591,
      "applique</w>": 5592,
      "publié</w>": 5593,
      "jaz": 5594,
      "jazz</w>": 5595,
      "coût</w>": 5596,
      "lourde</w>": 5597,
      "plom": 5598,
      "modi": 5599,
      "blessure</w>": 5600,
      "maternelle</w>": 5601,
      "possession</w>": 5602,
      "grandi": 5603,
      "forces</w>": 5604,
      "réponds</w>": 5605,
      "employer</w>": 5606,
      "sentit</w>": 5607,
      "destin</w>": 5608,
      "étant</w>": 5609,
      "choqué</w>": 5610,
      "ballon</w>": 5611,
      "méthode</w>": 5612,
      "polici": 5613,
      "cra": 5614,
      "voisin": 5615,
      "clu</w>": 5616,
      "étoff": 5617,
      "courriel</w>": 5618,
      "piqué</w>": 5619,
      "douze</w>": 5620,
      "deviens</w>": 5621,
      "loup</w>": 5622,
      "scep": 5623,
      "cla": 5624,
      "math": 5625,
      "abri</w>": 5626,
      "remettez</w>": 5627,
      "légèrement</w>": 5628,
      "scientifique</w>": 5629,
      "étoile</w>": 5630,
      "adultes</w>": 5631,
      "favor": 5632,
      "norma": 5633,
      "acteur</w>": 5634,
      "sacs</w>": 5635,
      "expert</w>": 5636,
      "ferez</w>": 5637,
      "forcée</w>": 5638,
      "effectuer</w>": 5639,
      "objet</w>": 5640,
      "similaire</w>": 5641,
      "brosse</w>": 5642,
      "cambrio": 5643,
      "divorcer</w>": 5644,
      "mini": 5645,
      "couche</w>": 5646,
      "noire</w>": 5647,
      "coûter</w>": 5648,
      "comptez</w>": 5649,
      "représent": 5650,
      "clôture</w>": 5651,
      "rice</w>": 5652,
      "enseignants</w>": 5653,
      "harvard</w>": 5654,
      "reprises</w>": 5655,
      "ym": 5656,
      "millions</w>": 5657,
      "prenne</w>": 5658,
      "rétabli": 5659,
      "adorerais</w>": 5660,
      "téléviseur</w>": 5661,
      "côte</w>": 5662,
      "téri": 5663,
      "profonde</w>": 5664,
      "faut": 5665,
      "cuire</w>": 5666,
      "doutes</w>": 5667,
      "fantastique</w>": 5668,
      "èvement</w>": 5669,
      "eait</w>": 5670,
      "ressembles</w>": 5671,
      "comi": 5672,
      "débrouiller</w>": 5673,
      "marchan": 5674,
      "hos": 5675,
      "hospit": 5676,
      "exception</w>": 5677,
      "protes": 5678,
      "fûmes</w>": 5679,
      "trembl": 5680,
      "lant</w>": 5681,
      "dorment</w>": 5682,
      "supplémentaires</w>": 5683,
      "culture</w>": 5684,
      "concentr": 5685,
      "jouets</w>": 5686,
      "navig": 5687,
      "amusés</w>": 5688,
      "menteuse</w>": 5689,
      "financi": 5690,
      "partiel</w>": 5691,
      "préoccupe</w>": 5692,
      "rattraper</w>": 5693,
      "attitude</w>": 5694,
      "remplir</w>": 5695,
      "ciseaux</w>": 5696,
      "collection</w>": 5697,
      "correspon": 5698,
      "viendrez</w>": 5699,
      "payée</w>": 5700,
      "séjourné</w>": 5701,
      "ssance</w>": 5702,
      "pétri": 5703,
      "frontière</w>": 5704,
      "mensonges</w>": 5705,
      "estre</w>": 5706,
      "gram": 5707,
      "habituer</w>": 5708,
      "maux</w>": 5709,
      "construire</w>": 5710,
      "énig": 5711,
      "pénétrer</w>": 5712,
      "déce": 5713,
      "pétrole</w>": 5714,
      "atte": 5715,
      "étudies</w>": 5716,
      "pardonn": 5717,
      "mémo": 5718,
      "obligés</w>": 5719,
      "étoffe</w>": 5720,
      "miens</w>": 5721,
      "shir": 5722,
      "réfléchis</w>": 5723,
      "adulte</w>": 5724,
      "tionner</w>": 5725,
      "gratui": 5726,
      "maths</w>": 5727,
      "indus": 5728,
      "industri": 5729,
      "retira</w>": 5730,
      "restons</w>": 5731,
      "amélioré</w>": 5732,
      "lem": 5733,
      "blâmer</w>": 5734,
      "compa": 5735,
      "couverture</w>": 5736,
      "trouvons</w>": 5737,
      "acheta</w>": 5738,
      "défi</w>": 5739,
      "oblige</w>": 5740,
      "autr": 5741,
      "airement</w>": 5742,
      "signer</w>": 5743,
      "enverrai</w>": 5744,
      "plein": 5745,
      "réservation</w>": 5746,
      "arrivées</w>": 5747,
      "lées</w>": 5748,
      "ambitieux</w>": 5749,
      "cruel</w>": 5750,
      "lar</w>": 5751,
      "canadiens</w>": 5752,
      "téléphoné</w>": 5753,
      "bi</w>": 5754,
      "attaque</w>": 5755,
      "douzaine</w>": 5756,
      "croyait</w>": 5757,
      "adorable</w>": 5758,
      "regardait</w>": 5759,
      "ouest</w>": 5760,
      "oits</w>": 5761,
      "plaintes</w>": 5762,
      "grimper</w>": 5763,
      "américains</w>": 5764,
      "agres": 5765,
      "ples</w>": 5766,
      "ki": 5767,
      "touristes</w>": 5768,
      "remarqu": 5769,
      "prisonnier</w>": 5770,
      "drogue</w>": 5771,
      "fantômes</w>": 5772,
      "moto</w>": 5773,
      "évén": 5774,
      "pneu": 5775,
      "rencontres</w>": 5776,
      "stupé": 5777,
      "outils</w>": 5778,
      "changera</w>": 5779,
      "tension</w>": 5780,
      "privée</w>": 5781,
      "espagne</w>": 5782,
      "trahi": 5783,
      "entend</w>": 5784,
      "traduit</w>": 5785,
      "visible</w>": 5786,
      "éclair": 5787,
      "hum": 5788,
      "vin": 5789,
      "foudre</w>": 5790,
      "be": 5791,
      "réflex": 5792,
      "cuisinière</w>": 5793,
      "placard</w>": 5794,
      "demeure</w>": 5795,
      "fun": 5796,
      "sensible</w>": 5797,
      "balles</w>": 5798,
      "ker</w>": 5799,
      "essuy": 5800,
      "illés</w>": 5801,
      "vache</w>": 5802,
      "terez</w>": 5803,
      "istre</w>": 5804,
      "rendra</w>": 5805,
      "mémori": 5806,
      "ada</w>": 5807,
      "till": 5808,
      "factures</w>": 5809,
      "actrice</w>": 5810,
      "conten": 5811,
      "paye</w>": 5812,
      "vari": 5813,
      "arranger</w>": 5814,
      "retardé</w>": 5815,
      "aler</w>": 5816,
      "ka</w>": 5817,
      "faisaient</w>": 5818,
      "trouvais</w>": 5819,
      "accepte</w>": 5820,
      "tiendrai</w>": 5821,
      "pleurait</w>": 5822,
      "manques</w>": 5823,
      "sienne</w>": 5824,
      "écrite</w>": 5825,
      "visions</w>": 5826,
      "appéti": 5827,
      "enfuir</w>": 5828,
      "moyenne</w>": 5829,
      "mob": 5830,
      "alisé</w>": 5831,
      "ayant</w>": 5832,
      "attirer</w>": 5833,
      "domi": 5834,
      "domicile</w>": 5835,
      "aisé</w>": 5836,
      "cieuses</w>": 5837,
      "désire</w>": 5838,
      "bananes</w>": 5839,
      "mobile</w>": 5840,
      "nerfs</w>": 5841,
      "bass": 5842,
      "ouff": 5843,
      "volume</w>": 5844,
      "dettes</w>": 5845,
      "dél": 5846,
      "paraiss": 5847,
      "attri": 5848,
      "ox": 5849,
      "étudiez</w>": 5850,
      "stre</w>": 5851,
      "applau": 5852,
      "genou": 5853,
      "genoux</w>": 5854,
      "poign": 5855,
      "côtés</w>": 5856,
      "façons</w>": 5857,
      "consacré</w>": 5858,
      "vir": 5859,
      "mangea</w>": 5860,
      "subi": 5861,
      "comité</w>": 5862,
      "pluies</w>": 5863,
      "sourd</w>": 5864,
      "ry": 5865,
      "ste": 5866,
      "ppe</w>": 5867,
      "classi": 5868,
      "cuillère</w>": 5869,
      "bondé</w>": 5870,
      "kilomè": 5871,
      "conduirai</w>": 5872,
      "sonna</w>": 5873,
      "savaient</w>": 5874,
      "condition</w>": 5875,
      "plaign": 5876,
      "fiques</w>": 5877,
      "rafraî": 5878,
      "iras</w>": 5879,
      "excep": 5880,
      "puni": 5881,
      "alé</w>": 5882,
      "gamin</w>": 5883,
      "élection</w>": 5884,
      "cérémonie</w>": 5885,
      "déménager</w>": 5886,
      "exécu": 5887,
      "revenez</w>": 5888,
      "atique</w>": 5889,
      "ressemblent</w>": 5890,
      "pousse</w>": 5891,
      "oranges</w>": 5892,
      "gravement</w>": 5893,
      "prononcer</w>": 5894,
      "ralenti": 5895,
      "disposais</w>": 5896,
      "commences</w>": 5897,
      "brûle</w>": 5898,
      "airie</w>": 5899,
      "allongé</w>": 5900,
      "causer</w>": 5901,
      "ourdi</w>": 5902,
      "contient</w>": 5903,
      "rendrait</w>": 5904,
      "construction</w>": 5905,
      "crédu": 5906,
      "frustr": 5907,
      "salu": 5908,
      "mourut</w>": 5909,
      "tendu</w>": 5910,
      "accent</w>": 5911,
      "soutien</w>": 5912,
      "atmos": 5913,
      "atmosph": 5914,
      "asseyons</w>": 5915,
      "mince</w>": 5916,
      "fac</w>": 5917,
      "moderne</w>": 5918,
      "bud": 5919,
      "gardes</w>": 5920,
      "extra": 5921,
      "litt": 5922,
      "tickets</w>": 5923,
      "captu": 5924,
      "écar": 5925,
      "étition</w>": 5926,
      "détestent</w>": 5927,
      "venais</w>": 5928,
      "doucement</w>": 5929,
      "appelait</w>": 5930,
      "ramener</w>": 5931,
      "traduction</w>": 5932,
      "dot": 5933,
      "orth": 5934,
      "dépêchez</w>": 5935,
      "voyagé</w>": 5936,
      "milliers</w>": 5937,
      "pent</w>": 5938,
      "boissons</w>": 5939,
      "mettons</w>": 5940,
      "voleurs</w>": 5941,
      "défini": 5942,
      "perplexe</w>": 5943,
      "centaines</w>": 5944,
      "lier</w>": 5945,
      "inet</w>": 5946,
      "bœuf</w>": 5947,
      "papiers</w>": 5948,
      "batterie</w>": 5949,
      "libres</w>": 5950,
      "pistol": 5951,
      "basket</w>": 5952,
      "cd</w>": 5953,
      "caux</w>": 5954,
      "objection</w>": 5955,
      "aché</w>": 5956,
      "devine</w>": 5957,
      "compromis</w>": 5958,
      "envisager</w>": 5959,
      "nation</w>": 5960,
      "appor": 5961,
      "agressi": 5962,
      "identité</w>": 5963,
      "perd</w>": 5964,
      "his</w>": 5965,
      "déten": 5966,
      "électron": 5967,
      "célé": 5968,
      "jean</w>": 5969,
      "classique</w>": 5970,
      "humili": 5971,
      "entraîneur</w>": 5972,
      "raccro": 5973,
      "mars</w>": 5974,
      "surprendre</w>": 5975,
      "débor": 5976,
      "pensons</w>": 5977,
      "enfui</w>": 5978,
      "effort</w>": 5979,
      "vau": 5980,
      "drait</w>": 5981,
      "excité</w>": 5982,
      "risqué</w>": 5983,
      "déjeune</w>": 5984,
      "archi": 5985,
      "insec": 5986,
      "espérait</w>": 5987,
      "renversé</w>": 5988,
      "pelouse</w>": 5989,
      "papill": 5990,
      "augmenter</w>": 5991,
      "déterminer</w>": 5992,
      "phone</w>": 5993,
      "aimerions</w>": 5994,
      "habiller</w>": 5995,
      "prévoir</w>": 5996,
      "sév": 5997,
      "aison</w>": 5998,
      "apprend</w>": 5999,
      "afrique</w>": 6000,
      "vote</w>": 6001,
      "procher</w>": 6002,
      "doté</w>": 6003,
      "sh": 6004,
      "march": 6005,
      "investi": 6006,
      "terrain</w>": 6007,
      "personnellement</w>": 6008,
      "embouteillage</w>": 6009,
      "discutons</w>": 6010,
      "subi</w>": 6011,
      "due</w>": 6012,
      "victoire</w>": 6013,
      "tues</w>": 6014,
      "stress": 6015,
      "asi": 6016,
      "coiff": 6017,
      "embarrassé</w>": 6018,
      "couleurs</w>": 6019,
      "locuteur</w>": 6020,
      "survenir</w>": 6021,
      "travailleurs</w>": 6022,
      "saisi</w>": 6023,
      "tatou": 6024,
      "shirt</w>": 6025,
      "atmosphère</w>": 6026,
      "bav": 6027,
      "censés</w>": 6028,
      "dég": 6029,
      "diagnostiqué</w>": 6030,
      "serve</w>": 6031,
      "oise</w>": 6032,
      "panier</w>": 6033,
      "guéri": 6034,
      "rendent</w>": 6035,
      "zone</w>": 6036,
      "essenti": 6037,
      "mettent</w>": 6038,
      "imbé": 6039,
      "divi": 6040,
      "roug": 6041,
      "pyjam": 6042,
      "budg": 6043,
      "permettr": 6044,
      "musicien</w>": 6045,
      "âme</w>": 6046,
      "zéro</w>": 6047,
      "rouler</w>": 6048,
      "professionnel</w>": 6049,
      "thèse</w>": 6050,
      "souvenez</w>": 6051,
      "ressenti": 6052,
      "ât</w>": 6053,
      "humide</w>": 6054,
      "teint</w>": 6055,
      "desti": 6056,
      "vies</w>": 6057,
      "habits</w>": 6058,
      "noirs</w>": 6059,
      "ton": 6060,
      "supposée</w>": 6061,
      "chaî": 6062,
      "mépri": 6063,
      "mons</w>": 6064,
      "lique</w>": 6065,
      "fugi": 6066,
      "jouais</w>": 6067,
      "arrivait</w>": 6068,
      "arrêtons</w>": 6069,
      "lien</w>": 6070,
      "nons</w>": 6071,
      "éclata</w>": 6072,
      "hésite</w>": 6073,
      "grenier</w>": 6074,
      "mises</w>": 6075,
      "serrure</w>": 6076,
      "boug": 6077,
      "dus</w>": 6078,
      "sincère</w>": 6079,
      "âgées</w>": 6080,
      "vécu": 6081,
      "quelcon": 6082,
      "quelconques</w>": 6083,
      "secondes</w>": 6084,
      "autre": 6085,
      "autrefois</w>": 6086,
      "soucis</w>": 6087,
      "origine</w>": 6088,
      "èr": 6089,
      "morceaux</w>": 6090,
      "propriétaire</w>": 6091,
      "kilomètres</w>": 6092,
      "interro": 6093,
      "lion</w>": 6094,
      "pardonner</w>": 6095,
      "travaillais</w>": 6096,
      "téléphonerai</w>": 6097,
      "intéressés</w>": 6098,
      "calmes</w>": 6099,
      "pin</w>": 6100,
      "opportunité</w>": 6101,
      "romantique</w>": 6102,
      "ambition</w>": 6103,
      "impressionnée</w>": 6104,
      "tec": 6105,
      "ceri": 6106,
      "démissionné</w>": 6107,
      "fantôme</w>": 6108,
      "touchez</w>": 6109,
      "vons</w>": 6110,
      "destination</w>": 6111,
      "trouverais</w>": 6112,
      "condam": 6113,
      "bleus</w>": 6114,
      "salon</w>": 6115,
      "astu": 6116,
      "polie</w>": 6117,
      "devenues</w>": 6118,
      "pétrin</w>": 6119,
      "tâmes</w>": 6120,
      "empêché</w>": 6121,
      "porc</w>": 6122,
      "boutique</w>": 6123,
      "admis</w>": 6124,
      "entendus</w>": 6125,
      "provo": 6126,
      "lap": 6127,
      "tiendra</w>": 6128,
      "ém": 6129,
      "droits</w>": 6130,
      "renvoyé</w>": 6131,
      "issu": 6132,
      "issue</w>": 6133,
      "miel</w>": 6134,
      "oses</w>": 6135,
      "croient</w>": 6136,
      "reprendre</w>": 6137,
      "évanou": 6138,
      "ïne</w>": 6139,
      "généreux</w>": 6140,
      "visa</w>": 6141,
      "promit</w>": 6142,
      "alter": 6143,
      "fonctionnera</w>": 6144,
      "promettre</w>": 6145,
      "cédé</w>": 6146,
      "trouveras</w>": 6147,
      "ole</w>": 6148,
      "niques</w>": 6149,
      "formé</w>": 6150,
      "sible</w>": 6151,
      "automo": 6152,
      "remettr": 6153,
      "option</w>": 6154,
      "collier</w>": 6155,
      "profondeur</w>": 6156,
      "tempor": 6157,
      "compagn": 6158,
      "grève</w>": 6159,
      "couché</w>": 6160,
      "tê": 6161,
      "achèterai</w>": 6162,
      "serrer</w>": 6163,
      "désaccord</w>": 6164,
      "aboyer</w>": 6165,
      "régulièrement</w>": 6166,
      "aida</w>": 6167,
      "appétit</w>": 6168,
      "modèle</w>": 6169,
      "ané": 6170,
      "quitta</w>": 6171,
      "douce</w>": 6172,
      "conséquences</w>": 6173,
      "poil</w>": 6174,
      "secrète</w>": 6175,
      "inévi": 6176,
      "ignez</w>": 6177,
      "dic": 6178,
      "licencié</w>": 6179,
      "parfu": 6180,
      "grosses</w>": 6181,
      "poignée</w>": 6182,
      "oxy": 6183,
      "surprenant</w>": 6184,
      "poursuivi</w>": 6185,
      "dépenses</w>": 6186,
      "gentils</w>": 6187,
      "laissons</w>": 6188,
      "allo": 6189,
      "pistolet</w>": 6190,
      "regretter</w>": 6191,
      "aube</w>": 6192,
      "victime</w>": 6193,
      "dégag": 6194,
      "attaqué</w>": 6195,
      "endroits</w>": 6196,
      "parcourir</w>": 6197,
      "rêvé</w>": 6198,
      "confus</w>": 6199,
      "longueur</w>": 6200,
      "marchera</w>": 6201,
      "offensé</w>": 6202,
      "dispute</w>": 6203,
      "feuille</w>": 6204,
      "commentaire</w>": 6205,
      "soins</w>": 6206,
      "éter": 6207,
      "tint</w>": 6208,
      "nettoie</w>": 6209,
      "répondez</w>": 6210,
      "horaire</w>": 6211,
      "vain</w>": 6212,
      "ignoré</w>": 6213,
      "exige</w>": 6214,
      "chaises</w>": 6215,
      "araign": 6216,
      "araignées</w>": 6217,
      "perdus</w>": 6218,
      "ouï": 6219,
      "alentou": 6220,
      "alentours</w>": 6221,
      "fail": 6222,
      "cing": 6223,
      "sympt": 6224,
      "symptô": 6225,
      "dégâ": 6226,
      "plaire</w>": 6227,
      "saurait</w>": 6228,
      "prêterai</w>": 6229,
      "gêné</w>": 6230,
      "expliqu": 6231,
      "mente</w>": 6232,
      "pér": 6233,
      "chambres</w>": 6234,
      "végét": 6235,
      "italie</w>": 6236,
      "cez</w>": 6237,
      "fortes</w>": 6238,
      "déroulé</w>": 6239,
      "menu</w>": 6240,
      "organisé</w>": 6241,
      "évidemment</w>": 6242,
      "librairie</w>": 6243,
      "policiers</w>": 6244,
      "sers</w>": 6245,
      "vieilli": 6246,
      "incl": 6247,
      "désirez</w>": 6248,
      "pèse</w>": 6249,
      "perman": 6250,
      "langage</w>": 6251,
      "dures</w>": 6252,
      "dormait</w>": 6253,
      "vitre</w>": 6254,
      "pourra</w>": 6255,
      "absur": 6256,
      "king</w>": 6257,
      "gratuitement</w>": 6258,
      "héri": 6259,
      "apprécies</w>": 6260,
      "chauffage</w>": 6261,
      "embar": 6262,
      "aimée</w>": 6263,
      "dité</w>": 6264,
      "âne</w>": 6265,
      "poison</w>": 6266,
      "divorcé</w>": 6267,
      "oignons</w>": 6268,
      "acc": 6269,
      "attente</w>": 6270,
      "répan": 6271,
      "endom": 6272,
      "tracasse</w>": 6273,
      "tournez</w>": 6274,
      "citr": 6275,
      "habillée</w>": 6276,
      "alph": 6277,
      "alphab": 6278,
      "frappe</w>": 6279,
      "besoins</w>": 6280,
      "ographe</w>": 6281,
      "con</w>": 6282,
      "fre": 6283,
      "revient</w>": 6284,
      "emmè": 6285,
      "inquiets</w>": 6286,
      "environn": 6287,
      "rembourser</w>": 6288,
      "servez</w>": 6289,
      "importants</w>": 6290,
      "eng": 6291,
      "satisfaire</w>": 6292,
      "plaisante</w>": 6293,
      "verse</w>": 6294,
      "habiter</w>": 6295,
      "bal</w>": 6296,
      "vends</w>": 6297,
      "caméra</w>": 6298,
      "secrétaire</w>": 6299,
      "ronf": 6300,
      "connec": 6301,
      "rejeté</w>": 6302,
      "contre": 6303,
      "payés</w>": 6304,
      "félici": 6305,
      "physique</w>": 6306,
      "aigu": 6307,
      "goutte</w>": 6308,
      "électronique</w>": 6309,
      "cherchons</w>": 6310,
      "déprimée</w>": 6311,
      "flé</w>": 6312,
      "entendis</w>": 6313,
      "osité</w>": 6314,
      "tradu": 6315,
      "grenou": 6316,
      "soigneusement</w>": 6317,
      "déposer</w>": 6318,
      "dégâts</w>": 6319,
      "noter</w>": 6320,
      "poursui": 6321,
      "tiendr": 6322,
      "rédui": 6323,
      "termes</w>": 6324,
      "enfreint</w>": 6325,
      "déclen": 6326,
      "camarades</w>": 6327,
      "nées</w>": 6328,
      "suicider</w>": 6329,
      "agis</w>": 6330,
      "dissim": 6331,
      "tiennent</w>": 6332,
      "bli</w>": 6333,
      "rumeurs</w>": 6334,
      "souffrir</w>": 6335,
      "rompre</w>": 6336,
      "affir": 6337,
      "dansé</w>": 6338,
      "voyait</w>": 6339,
      "million</w>": 6340,
      "verrouillé</w>": 6341,
      "ina</w>": 6342,
      "ventre</w>": 6343,
      "partirai</w>": 6344,
      "câlin</w>": 6345,
      "surprises</w>": 6346,
      "principale</w>": 6347,
      "menace</w>": 6348,
      "craindre</w>": 6349,
      "incapacité</w>": 6350,
      "entraîné</w>": 6351,
      "souveni": 6352,
      "souvenirs</w>": 6353,
      "diplom": 6354,
      "jumeaux</w>": 6355,
      "sonner</w>": 6356,
      "repose</w>": 6357,
      "heurté</w>": 6358,
      "emplettes</w>": 6359,
      "tueux</w>": 6360,
      "chées</w>": 6361,
      "mesures</w>": 6362,
      "distrait</w>": 6363,
      "finie</w>": 6364,
      "livr": 6365,
      "abor": 6366,
      "entraîne</w>": 6367,
      "innocence</w>": 6368,
      "digne</w>": 6369,
      "hésitez</w>": 6370,
      "alternati": 6371,
      "deviné</w>": 6372,
      "responsables</w>": 6373,
      "assistant</w>": 6374,
      "nécessaires</w>": 6375,
      "chèque</w>": 6376,
      "région</w>": 6377,
      "budget</w>": 6378,
      "luxe</w>": 6379,
      "logi": 6380,
      "ray": 6381,
      "accompagn": 6382,
      "mier</w>": 6383,
      "présents</w>": 6384,
      "kilos</w>": 6385,
      "aspi": 6386,
      "autrement</w>": 6387,
      "lancé</w>": 6388,
      "empire</w>": 6389,
      "fé": 6390,
      "bruyant</w>": 6391,
      "connaissiez</w>": 6392,
      "répét": 6393,
      "journaliste</w>": 6394,
      "évo": 6395,
      "mystère</w>": 6396,
      "dépense</w>": 6397,
      "résister</w>": 6398,
      "pressée</w>": 6399,
      "sucré</w>": 6400,
      "attentif</w>": 6401,
      "protection</w>": 6402,
      "garderai</w>": 6403,
      "étudiantes</w>": 6404,
      "calmer</w>": 6405,
      "descendit</w>": 6406,
      "parfum</w>": 6407,
      "application</w>": 6408,
      "invitées</w>": 6409,
      "èques</w>": 6410,
      "chirurgi": 6411,
      "deviennent</w>": 6412,
      "atter": 6413,
      "confiant</w>": 6414,
      "véhicule</w>": 6415,
      "fourni</w>": 6416,
      "endi": 6417,
      "poitrine</w>": 6418,
      "haï": 6419,
      "étern": 6420,
      "sites</w>": 6421,
      "écrasé</w>": 6422,
      "panneau</w>": 6423,
      "stea": 6424,
      "grippe</w>": 6425,
      "ping</w>": 6426,
      "soulever</w>": 6427,
      "scan": 6428,
      "décevoir</w>": 6429,
      "prévoit</w>": 6430,
      "argument</w>": 6431,
      "texte</w>": 6432,
      "menti": 6433,
      "lite</w>": 6434,
      "coudre</w>": 6435,
      "creu": 6436,
      "savions</w>": 6437,
      "rassem": 6438,
      "sou</w>": 6439,
      "tionnellement</w>": 6440,
      "cook": 6441,
      "abattu</w>": 6442,
      "saurais</w>": 6443,
      "mat</w>": 6444,
      "style</w>": 6445,
      "ana</w>": 6446,
      "fraîche</w>": 6447,
      "bier</w>": 6448,
      "manches</w>": 6449,
      "passons</w>": 6450,
      "grotte</w>": 6451,
      "passion</w>": 6452,
      "accorder</w>": 6453,
      "nuits</w>": 6454,
      "publicité</w>": 6455,
      "urent</w>": 6456,
      "malchanceux</w>": 6457,
      "enthousias": 6458,
      "effondr": 6459,
      "ports</w>": 6460,
      "enva": 6461,
      "termine</w>": 6462,
      "brillante</w>": 6463,
      "responsabilités</w>": 6464,
      "baignoire</w>": 6465,
      "expi": 6466,
      "fermées</w>": 6467,
      "initi": 6468,
      "pier": 6469,
      "appuyer</w>": 6470,
      "cigarettes</w>": 6471,
      "fê": 6472,
      "opé": 6473,
      "embrasse</w>": 6474,
      "épais</w>": 6475,
      "prudence</w>": 6476,
      "séjour</w>": 6477,
      "bougies</w>": 6478,
      "sante</w>": 6479,
      "cit": 6480,
      "courus</w>": 6481,
      "reproche</w>": 6482,
      "auront</w>": 6483,
      "ouvriers</w>": 6484,
      "syn": 6485,
      "mis": 6486,
      "intime</w>": 6487,
      "rag": 6488,
      "considérer</w>": 6489,
      "éclaté</w>": 6490,
      "iso": 6491,
      "sceptique</w>": 6492,
      "couvre</w>": 6493,
      "endur": 6494,
      "agac": 6495,
      "engager</w>": 6496,
      "sincèrement</w>": 6497,
      "rico": 6498,
      "débarrass": 6499,
      "timbre</w>": 6500,
      "rappellerai</w>": 6501,
      "extraordinaire</w>": 6502,
      "normale</w>": 6503,
      "justement</w>": 6504,
      "vrais</w>": 6505,
      "achèterais</w>": 6506,
      "chass": 6507,
      "endommag": 6508,
      "maigre</w>": 6509,
      "prévenue</w>": 6510,
      "guide</w>": 6511,
      "ex</w>": 6512,
      "parvenus</w>": 6513,
      "dépendant</w>": 6514,
      "tatouage</w>": 6515,
      "bel</w>": 6516,
      "bienvenus</w>": 6517,
      "sérieuses</w>": 6518,
      "sèche</w>": 6519,
      "tresse</w>": 6520,
      "héli": 6521,
      "diminu": 6522,
      "typh": 6523,
      "ciation</w>": 6524,
      "obscurité</w>": 6525,
      "vérifie</w>": 6526,
      "retenu</w>": 6527,
      "foi</w>": 6528,
      "judi": 6529,
      "magazines</w>": 6530,
      "appartiennent</w>": 6531,
      "attribu": 6532,
      "différemment</w>": 6533,
      "gène</w>": 6534,
      "paraître</w>": 6535,
      "parten": 6536,
      "chanteuse</w>": 6537,
      "joueurs</w>": 6538,
      "changea</w>": 6539,
      "vainc": 6540,
      "surveille</w>": 6541,
      "fal": 6542,
      "améliore</w>": 6543,
      "pilote</w>": 6544,
      "appuie</w>": 6545,
      "pourras</w>": 6546,
      "manquent</w>": 6547,
      "aigui": 6548,
      "tail": 6549,
      "pardonné</w>": 6550,
      "voulions</w>": 6551,
      "ssa</w>": 6552,
      "chucho": 6553,
      "ryth": 6554,
      "rythme</w>": 6555,
      "soirs</w>": 6556,
      "interprète</w>": 6557,
      "douloureux</w>": 6558,
      "marchandises</w>": 6559,
      "souri</w>": 6560,
      "quittez</w>": 6561,
      "armé</w>": 6562,
      "malement</w>": 6563,
      "témoi": 6564,
      "passent</w>": 6565,
      "récolte</w>": 6566,
      "scientifiques</w>": 6567,
      "réglé</w>": 6568,
      "ancienne</w>": 6569,
      "branche</w>": 6570,
      "sec</w>": 6571,
      "tâches</w>": 6572,
      "tentative</w>": 6573,
      "chiez</w>": 6574,
      "endormis</w>": 6575,
      "envoyez</w>": 6576,
      "désert</w>": 6577,
      "tible</w>": 6578,
      "opposé</w>": 6579,
      "fichier</w>": 6580,
      "impoli</w>": 6581,
      "utilité</w>": 6582,
      "survi": 6583,
      "plastique</w>": 6584,
      "éléphants</w>": 6585,
      "poèmes</w>": 6586,
      "occuperai</w>": 6587,
      "atoire</w>": 6588,
      "réputation</w>": 6589,
      "entendez</w>": 6590,
      "professeurs</w>": 6591,
      "folles</w>": 6592,
      "favori</w>": 6593,
      "permet</w>": 6594,
      "dissimu": 6595,
      "plaisant": 6596,
      "désori": 6597,
      "arrêtes</w>": 6598,
      "prendrait</w>": 6599,
      "meurent</w>": 6600,
      "étap": 6601,
      "coc": 6602,
      "déplacer</w>": 6603,
      "anglet": 6604,
      "angleterre</w>": 6605,
      "millionn": 6606,
      "maître</w>": 6607,
      "trouverez</w>": 6608,
      "viendront</w>": 6609,
      "apparemment</w>": 6610,
      "précieux</w>": 6611,
      "fâchée</w>": 6612,
      "juin</w>": 6613,
      "aidés</w>": 6614,
      "poker</w>": 6615,
      "tendit</w>": 6616,
      "énigme</w>": 6617,
      "crédule</w>": 6618,
      "flam": 6619,
      "ciens</w>": 6620,
      "boue</w>": 6621,
      "onér": 6622,
      "approcher</w>": 6623,
      "étonné</w>": 6624,
      "suppli": 6625,
      "montez</w>": 6626,
      "défense</w>": 6627,
      "procéder</w>": 6628,
      "chic</w>": 6629,
      "citoy": 6630,
      "barr": 6631,
      "appr": 6632,
      "inde</w>": 6633,
      "preniez</w>": 6634,
      "soucier</w>": 6635,
      "abeille</w>": 6636,
      "équipage</w>": 6637,
      "fice</w>": 6638,
      "adoré</w>": 6639,
      "hautement</w>": 6640,
      "types</w>": 6641,
      "commerce</w>": 6642,
      "parlerai</w>": 6643,
      "médecine</w>": 6644,
      "tionnelle</w>": 6645,
      "trompes</w>": 6646,
      "craint</w>": 6647,
      "escalier</w>": 6648,
      "stron": 6649,
      "are</w>": 6650,
      "pyjama</w>": 6651,
      "fourchette</w>": 6652,
      "décro": 6653,
      "ènes</w>": 6654,
      "clari": 6655,
      "parition</w>": 6656,
      "poursuivre</w>": 6657,
      "arriverai</w>": 6658,
      "partes</w>": 6659,
      "élections</w>": 6660,
      "pue</w>": 6661,
      "meurtri": 6662,
      "pompiers</w>": 6663,
      "entée</w>": 6664,
      "far": 6665,
      "serpent</w>": 6666,
      "enterrement</w>": 6667,
      "déser": 6668,
      "tape</w>": 6669,
      "malheureuse</w>": 6670,
      "nuclé": 6671,
      "blancs</w>": 6672,
      "patiente</w>": 6673,
      "disposée</w>": 6674,
      "avertissement</w>": 6675,
      "moquer</w>": 6676,
      "addi": 6677,
      "décourag": 6678,
      "plats</w>": 6679,
      "tuy": 6680,
      "rideaux</w>": 6681,
      "tenta</w>": 6682,
      "suivante</w>": 6683,
      "presse</w>": 6684,
      "pouvaient</w>": 6685,
      "iste</w>": 6686,
      "dernièrement</w>": 6687,
      "tranquilles</w>": 6688,
      "voisine</w>": 6689,
      "candidature</w>": 6690,
      "rendons</w>": 6691,
      "cheminée</w>": 6692,
      "renom": 6693,
      "activité</w>": 6694,
      "idiots</w>": 6695,
      "continuait</w>": 6696,
      "vole</w>": 6697,
      "nié</w>": 6698,
      "sushis</w>": 6699,
      "mexi": 6700,
      "éteignez</w>": 6701,
      "descendez</w>": 6702,
      "plaisanterie</w>": 6703,
      "souhaiter</w>": 6704,
      "valait</w>": 6705,
      "steak</w>": 6706,
      "paci": 6707,
      "faciles</w>": 6708,
      "pollu": 6709,
      "marchait</w>": 6710,
      "élo": 6711,
      "conclusion</w>": 6712,
      "réservé</w>": 6713,
      "trouvi": 6714,
      "recommencer</w>": 6715,
      "agu": 6716,
      "curieuse</w>": 6717,
      "sauce</w>": 6718,
      "genou</w>": 6719,
      "normalement</w>": 6720,
      "moutons</w>": 6721,
      "eraient</w>": 6722,
      "attirante</w>": 6723,
      "loc": 6724,
      "elet</w>": 6725,
      "diri": 6726,
      "criti": 6727,
      "appela</w>": 6728,
      "manquez</w>": 6729,
      "promène</w>": 6730,
      "désesp": 6731,
      "expériment": 6732,
      "proposé</w>": 6733,
      "manuel</w>": 6734,
      "rendiez</w>": 6735,
      "siècle</w>": 6736,
      "remporté</w>": 6737,
      "climat</w>": 6738,
      "niez</w>": 6739,
      "surpoids</w>": 6740,
      "gil": 6741,
      "prennes</w>": 6742,
      "rich": 6743,
      "boite</w>": 6744,
      "délai</w>": 6745,
      "appréciez</w>": 6746,
      "réci": 6747,
      "commençais</w>": 6748,
      "renver": 6749,
      "chantes</w>": 6750,
      "soldat</w>": 6751,
      "ûte</w>": 6752,
      "reproduira</w>": 6753,
      "pensées</w>": 6754,
      "verrouiller</w>": 6755,
      "fonds</w>": 6756,
      "pitié</w>": 6757,
      "détonation</w>": 6758,
      "glacée</w>": 6759,
      "ouvr": 6760,
      "achevé</w>": 6761,
      "saign": 6762,
      "explique</w>": 6763,
      "étendu</w>": 6764,
      "connait</w>": 6765,
      "mordre</w>": 6766,
      "symbo": 6767,
      "murs</w>": 6768,
      "ok</w>": 6769,
      "nôtre</w>": 6770,
      "persuadé</w>": 6771,
      "divorce</w>": 6772,
      "humain</w>": 6773,
      "sentent</w>": 6774,
      "réserve</w>": 6775,
      "finit</w>": 6776,
      "tence</w>": 6777,
      "stade</w>": 6778,
      "crie</w>": 6779,
      "candidat</w>": 6780,
      "voisinage</w>": 6781,
      "ministre</w>": 6782,
      "impressionnant</w>": 6783,
      "vides</w>": 6784,
      "nationale</w>": 6785,
      "conserver</w>": 6786,
      "pharma": 6787,
      "vague</w>": 6788,
      "patients</w>": 6789,
      "passionn": 6790,
      "dèrent</w>": 6791,
      "revenus</w>": 6792,
      "orte": 6793,
      "orteils</w>": 6794,
      "devras</w>": 6795,
      "rin": 6796,
      "ah</w>": 6797,
      "chinoise</w>": 6798,
      "dégo": 6799,
      "essayerai</w>": 6800,
      "appuyé</w>": 6801,
      "embrassa</w>": 6802,
      "cach": 6803,
      "fauché</w>": 6804,
      "pure</w>": 6805,
      "dessiner</w>": 6806,
      "américaine</w>": 6807,
      "oto</w>": 6808,
      "passerai</w>": 6809,
      "avisé</w>": 6810,
      "criminel</w>": 6811,
      "fraises</w>": 6812,
      "fiez</w>": 6813,
      "trains</w>": 6814,
      "retirez</w>": 6815,
      "mérites</w>": 6816,
      "têtu</w>": 6817,
      "advienne</w>": 6818,
      "bés</w>": 6819,
      "aci": 6820,
      "posée</w>": 6821,
      "devenait</w>": 6822,
      "rentres</w>": 6823,
      "orthographe</w>": 6824,
      "calend": 6825,
      "calendrier</w>": 6826,
      "noyé</w>": 6827,
      "viendriez</w>": 6828,
      "hélico": 6829,
      "hélicopt": 6830,
      "regardais</w>": 6831,
      "séjourner</w>": 6832,
      "érez</w>": 6833,
      "excitant</w>": 6834,
      "daire</w>": 6835,
      "techno": 6836,
      "eues</w>": 6837,
      "entrés</w>": 6838,
      "découvri": 6839,
      "lez</w>": 6840,
      "volontaires</w>": 6841,
      "assurez</w>": 6842,
      "flic</w>": 6843,
      "gaspiller</w>": 6844,
      "essaierai</w>": 6845,
      "sag": 6846,
      "rô": 6847,
      "collectionn": 6848,
      "bande</w>": 6849,
      "escent</w>": 6850,
      "concur": 6851,
      "neuve</w>": 6852,
      "volontiers</w>": 6853,
      "éloign": 6854,
      "observ": 6855,
      "atro": 6856,
      "aîtr": 6857,
      "fauteuil</w>": 6858,
      "ouverts</w>": 6859,
      "brièvement</w>": 6860,
      "retourna</w>": 6861,
      "diamant</w>": 6862,
      "incident</w>": 6863,
      "prendrons</w>": 6864,
      "consacrer</w>": 6865,
      "souvient</w>": 6866,
      "anciens</w>": 6867,
      "vées</w>": 6868,
      "domaine</w>": 6869,
      "réserver</w>": 6870,
      "fainé": 6871,
      "estimé</w>": 6872,
      "18": 6873,
      "compétent</w>": 6874,
      "chô": 6875,
      "attendit</w>": 6876,
      "crevé</w>": 6877,
      "bottes</w>": 6878,
      "inconnu</w>": 6879,
      "adr": 6880,
      "poète</w>": 6881,
      "épouv": 6882,
      "faille</w>": 6883,
      "çait</w>": 6884,
      "scand": 6885,
      "mentez</w>": 6886,
      "retournez</w>": 6887,
      "étonnant</w>": 6888,
      "cage</w>": 6889,
      "chiot</w>": 6890,
      "biens</w>": 6891,
      "événement</w>": 6892,
      "regardons</w>": 6893,
      "valable</w>": 6894,
      "cad": 6895,
      "gob": 6896,
      "géniale</w>": 6897,
      "débrouillé</w>": 6898,
      "analy": 6899,
      "détour": 6900,
      "disposent</w>": 6901,
      "tiss": 6902,
      "architec": 6903,
      "désespé": 6904,
      "intelligents</w>": 6905,
      "recherches</w>": 6906,
      "entendues</w>": 6907,
      "emmené</w>": 6908,
      "avoc": 6909,
      "avocats</w>": 6910,
      "oli": 6911,
      "principal</w>": 6912,
      "quart</w>": 6913,
      "centi": 6914,
      "erté</w>": 6915,
      "accoutu": 6916,
      "vrait</w>": 6917,
      "nana</w>": 6918,
      "miennes</w>": 6919,
      "condamné</w>": 6920,
      "végétari": 6921,
      "assou": 6922,
      "reprocher</w>": 6923,
      "aliser</w>": 6924,
      "sinon</w>": 6925,
      "fût</w>": 6926,
      "éclair</w>": 6927,
      "famili": 6928,
      "pos": 6929,
      "poing</w>": 6930,
      "promettez</w>": 6931,
      "raccour": 6932,
      "vive</w>": 6933,
      "arrêtés</w>": 6934,
      "remarques</w>": 6935,
      "vôtres</w>": 6936,
      "partagé</w>": 6937,
      "mérité</w>": 6938,
      "chauve</w>": 6939,
      "camper</w>": 6940,
      "millionnaire</w>": 6941,
      "choquée</w>": 6942,
      "ignorez</w>": 6943,
      "grossière</w>": 6944,
      "blessu": 6945,
      "blessures</w>": 6946,
      "siffler</w>": 6947,
      "abas": 6948,
      "coutume</w>": 6949,
      "banane</w>": 6950,
      "bron": 6951,
      "galerie</w>": 6952,
      "aiderait</w>": 6953,
      "enterré</w>": 6954,
      "chemises</w>": 6955,
      "irait</w>": 6956,
      "décès</w>": 6957,
      "pierres</w>": 6958,
      "ponctuel</w>": 6959,
      "esclav": 6960,
      "cés</w>": 6961,
      "effron": 6962,
      "europé": 6963,
      "expliqua</w>": 6964,
      "séché</w>": 6965,
      "obligées</w>": 6966,
      "phrases</w>": 6967,
      "univers</w>": 6968,
      "ordonné</w>": 6969,
      "nettoyé</w>": 6970,
      "bê": 6971,
      "chaleur": 6972,
      "imi": 6973,
      "moustiques</w>": 6974,
      "coûtent</w>": 6975,
      "préparée</w>": 6976,
      "chants</w>": 6977,
      "gérant</w>": 6978,
      "recru": 6979,
      "soupçonne</w>": 6980,
      "applaudi": 6981,
      "réclam": 6982,
      "rece": 6983,
      "carr": 6984,
      "attendions</w>": 6985,
      "absurde</w>": 6986,
      "solide</w>": 6987,
      "achever</w>": 6988,
      "encein": 6989,
      "dégui": 6990,
      "caba": 6991,
      "cabane</w>": 6992,
      "héro": 6993,
      "époux</w>": 6994,
      "débat</w>": 6995,
      "cités</w>": 6996,
      "astron": 6997,
      "gentlem": 6998,
      "gentleman</w>": 6999,
      "dossi": 7000,
      "détestes</w>": 7001,
      "appels</w>": 7002,
      "devra</w>": 7003,
      "dera</w>": 7004,
      "métier</w>": 7005,
      "consciente</w>": 7006,
      "reli": 7007,
      "ravi": 7008,
      "sien</w>": 7009,
      "bébés</w>": 7010,
      "visiteurs</w>": 7011,
      "surface</w>": 7012,
      "souhaité</w>": 7013,
      "efs</w>": 7014,
      "bac</w>": 7015,
      "maîtresse</w>": 7016,
      "accès</w>": 7017,
      "eils</w>": 7018,
      "mobilier</w>": 7019,
      "falloir</w>": 7020,
      "équili": 7021,
      "requis</w>": 7022,
      "uiss": 7023,
      "refroi": 7024,
      "trent": 7025,
      "trentaine</w>": 7026,
      "percu": 7027,
      "climati": 7028,
      "remplissez</w>": 7029,
      "inévitable</w>": 7030,
      "envoya</w>": 7031,
      "commander</w>": 7032,
      "maîtriser</w>": 7033,
      "opinions</w>": 7034,
      "olym": 7035,
      "trempé</w>": 7036,
      "éteignit</w>": 7037,
      "construi": 7038,
      "électrique</w>": 7039,
      "past": 7040,
      "arde</w>": 7041,
      "mariées</w>": 7042,
      "gris</w>": 7043,
      "perdez</w>": 7044,
      "habitudes</w>": 7045,
      "réfugi": 7046,
      "défaut</w>": 7047,
      "détestait</w>": 7048,
      "prouve</w>": 7049,
      "hais</w>": 7050,
      "eant</w>": 7051,
      "blu": 7052,
      "gagnera</w>": 7053,
      "indis": 7054,
      "rideau</w>": 7055,
      "méritez</w>": 7056,
      "idéal</w>": 7057,
      "chômage</w>": 7058,
      "effecti": 7059,
      "intéresserait</w>": 7060,
      "tache</w>": 7061,
      "enchanté</w>": 7062,
      "épouvan": 7063,
      "mâ": 7064,
      "réduit</w>": 7065,
      "ong</w>": 7066,
      "bâtiments</w>": 7067,
      "postu": 7068,
      "commercial</w>": 7069,
      "symptômes</w>": 7070,
      "participé</w>": 7071,
      "saisir</w>": 7072,
      "nommé</w>": 7073,
      "habitent</w>": 7074,
      "civ": 7075,
      "ridiculi": 7076,
      "malheur</w>": 7077,
      "fréquemment</w>": 7078,
      "comb": 7079,
      "réaliste</w>": 7080,
      "impressionner</w>": 7081,
      "échangé</w>": 7082,
      "v</w>": 7083,
      "ssements</w>": 7084,
      "gl": 7085,
      "avr": 7086,
      "avril</w>": 7087,
      "réel</w>": 7088,
      "psycho": 7089,
      "réaction</w>": 7090,
      "réti": 7091,
      "mignons</w>": 7092,
      "fierté</w>": 7093,
      "augmente</w>": 7094,
      "acte</w>": 7095,
      "production</w>": 7096,
      "presser</w>": 7097,
      "procurer</w>": 7098,
      "dépit</w>": 7099,
      "favori": 7100,
      "propriété</w>": 7101,
      "résist": 7102,
      "pendu</w>": 7103,
      "insectes</w>": 7104,
      "tirez</w>": 7105,
      "puits</w>": 7106,
      "valenti": 7107,
      "conduisez</w>": 7108,
      "brûler</w>": 7109,
      "zon</w>": 7110,
      "absente</w>": 7111,
      "familles</w>": 7112,
      "affecte</w>": 7113,
      "brer</w>": 7114,
      "effectué</w>": 7115,
      "dente</w>": 7116,
      "travaillait</w>": 7117,
      "approprié</w>": 7118,
      "finis</w>": 7119,
      "nerai</w>": 7120,
      "prenait</w>": 7121,
      "essai</w>": 7122,
      "informer</w>": 7123,
      "tentation</w>": 7124,
      "séparés</w>": 7125,
      "reviennes</w>": 7126,
      "rable</w>": 7127,
      "traversa</w>": 7128,
      "méc": 7129,
      "détrui": 7130,
      "diplôme</w>": 7131,
      "posta": 7132,
      "fondu</w>": 7133,
      "prendras</w>": 7134,
      "h30</w>": 7135,
      "songe</w>": 7136,
      "trébu": 7137,
      "publique</w>": 7138,
      "absor": 7139,
      "diver": 7140,
      "éval": 7141,
      "tourn": 7142,
      "bilité</w>": 7143,
      "salut</w>": 7144,
      "exis": 7145,
      "reaux</w>": 7146,
      "espoi": 7147,
      "espoirs</w>": 7148,
      "caches</w>": 7149,
      "aidée</w>": 7150,
      "intéressées</w>": 7151,
      "commencement</w>": 7152,
      "alibi</w>": 7153,
      "phe</w>": 7154,
      "soutiens</w>": 7155,
      "enlever</w>": 7156,
      "tives</w>": 7157,
      "briser</w>": 7158,
      "cible</w>": 7159,
      "probab": 7160,
      "producti": 7161,
      "noi": 7162,
      "co</w>": 7163,
      "empoi": 7164,
      "natation</w>": 7165,
      "restiez</w>": 7166,
      "man</w>": 7167,
      "regardent</w>": 7168,
      "défau": 7169,
      "défauts</w>": 7170,
      "voies</w>": 7171,
      "virent</w>": 7172,
      "enfil": 7173,
      "accro</w>": 7174,
      "araig": 7175,
      "araignée</w>": 7176,
      "puisque</w>": 7177,
      "mesur": 7178,
      "foiré</w>": 7179,
      "tis</w>": 7180,
      "prudemment</w>": 7181,
      "récom": 7182,
      "nus</w>": 7183,
      "frites</w>": 7184,
      "dau": 7185,
      "phi": 7186,
      "effrayés</w>": 7187,
      "victimes</w>": 7188,
      "stat": 7189,
      "confirmer</w>": 7190,
      "portail</w>": 7191,
      "majorité</w>": 7192,
      "compétition</w>": 7193,
      "bouchon</w>": 7194,
      "deviendra</w>": 7195,
      "suisse</w>": 7196,
      "autorité</w>": 7197,
      "ège</w>": 7198,
      "meurtrier</w>": 7199,
      "nia</w>": 7200,
      "expul": 7201,
      "circonst": 7202,
      "dingues</w>": 7203,
      "pile</w>": 7204,
      ";</w>": 7205,
      "charmant</w>": 7206,
      "vill": 7207,
      "prononciation</w>": 7208,
      "affamé</w>": 7209,
      "bre": 7210,
      "adolescents</w>": 7211,
      "fortement</w>": 7212,
      "mément</w>": 7213,
      "étranges</w>": 7214,
      "olympi": 7215,
      "abandonne</w>": 7216,
      "dollar</w>": 7217,
      "bougie</w>": 7218,
      "entraînement</w>": 7219,
      "pensions</w>": 7220,
      "atom": 7221,
      "filé</w>": 7222,
      "cicat": 7223,
      "frappée</w>": 7224,
      "naturelle</w>": 7225,
      "enlève</w>": 7226,
      "vomir</w>": 7227,
      "profiter</w>": 7228,
      "adolescent</w>": 7229,
      "jugement</w>": 7230,
      "économiser</w>": 7231,
      "parliez</w>": 7232,
      "lots</w>": 7233,
      "légal</w>": 7234,
      "sacri": 7235,
      "emain</w>": 7236,
      "baleine</w>": 7237,
      "réaliser</w>": 7238,
      "verrons</w>": 7239,
      "chs</w>": 7240,
      "inspiration</w>": 7241,
      "auto</w>": 7242,
      "raisins</w>": 7243,
      "quin</w>": 7244,
      "aboie</w>": 7245,
      "çant</w>": 7246,
      "cambrioleur</w>": 7247,
      "trouvés</w>": 7248,
      "demandai</w>": 7249,
      "lâchez</w>": 7250,
      "organiser</w>": 7251,
      "phares</w>": 7252,
      "conclusions</w>": 7253,
      "até</w>": 7254,
      "maladr": 7255,
      "ailes</w>": 7256,
      "épouvantable</w>": 7257,
      "lesquelles</w>": 7258,
      "cendres</w>": 7259,
      "étasuniens</w>": 7260,
      "précé": 7261,
      "week": 7262,
      "bourré</w>": 7263,
      "revenue</w>": 7264,
      "farine</w>": 7265,
      "bières</w>": 7266,
      "paysage</w>": 7267,
      "pneus</w>": 7268,
      "abus": 7269,
      "bizarres</w>": 7270,
      "robinet</w>": 7271,
      "lycé": 7272,
      "explor": 7273,
      "alisation</w>": 7274,
      "maladies</w>": 7275,
      "êle</w>": 7276,
      "enlevé</w>": 7277,
      "désa": 7278,
      "humani": 7279,
      "excusé</w>": 7280,
      "amer</w>": 7281,
      "dépasse</w>": 7282,
      "orités</w>": 7283,
      "oublia</w>": 7284,
      "populaires</w>": 7285,
      "objets</w>": 7286,
      "vention</w>": 7287,
      "culti": 7288,
      "coule</w>": 7289,
      "réussira</w>": 7290,
      "lenti": 7291,
      "démocr": 7292,
      "influence</w>": 7293,
      "toir</w>": 7294,
      "imbécile</w>": 7295,
      "pourrons</w>": 7296,
      "écur": 7297,
      "promo": 7298,
      "direct</w>": 7299,
      "fusil</w>": 7300,
      "sations</w>": 7301,
      "utilises</w>": 7302,
      "saute</w>": 7303,
      "paierai</w>": 7304,
      "fondée</w>": 7305,
      "souhaites</w>": 7306,
      "nerveu": 7307,
      "mû": 7308,
      "réflexion</w>": 7309,
      "arrêtait</w>": 7310,
      "supérieur</w>": 7311,
      "avertir</w>": 7312,
      "caca": 7313,
      "traîner</w>": 7314,
      "nal</w>": 7315,
      "inquiétez</w>": 7316,
      "feux</w>": 7317,
      "relati": 7318,
      "serveur</w>": 7319,
      "prince</w>": 7320,
      "sauta</w>": 7321,
      "bone</w>": 7322,
      "accroché</w>": 7323,
      "habille</w>": 7324,
      "migr": 7325,
      "intentions</w>": 7326,
      "essive</w>": 7327,
      "méritent</w>": 7328,
      "aperçu</w>": 7329,
      "donnent</w>": 7330,
      "entez</w>": 7331,
      "pauvr": 7332,
      "pauvreté</w>": 7333,
      "talentueux</w>": 7334,
      "mécani": 7335,
      "pardonnerai</w>": 7336,
      "front</w>": 7337,
      "advenu</w>": 7338,
      "atives</w>": 7339,
      "isme</w>": 7340,
      "piég": 7341,
      "débutant</w>": 7342,
      "effrayant</w>": 7343,
      "qualifié</w>": 7344,
      "vertiges</w>": 7345,
      "désespéré</w>": 7346,
      "ces": 7347,
      "cria</w>": 7348,
      "atiques</w>": 7349,
      "bijou": 7350,
      "gâteaux</w>": 7351,
      "souf": 7352,
      "préfé": 7353,
      "coincée</w>": 7354,
      "bêti": 7355,
      "gosse</w>": 7356,
      "accompagné</w>": 7357,
      "gagner": 7358,
      "sensation</w>": 7359,
      "illet</w>": 7360,
      "cie</w>": 7361,
      "eler</w>": 7362,
      "demandait</w>": 7363,
      "annoncé</w>": 7364,
      "menacé</w>": 7365,
      "violent</w>": 7366,
      "bouteilles</w>": 7367,
      "nôtres</w>": 7368,
      "oite</w>": 7369,
      "souhaitons</w>": 7370,
      "comporter</w>": 7371,
      "fermement</w>": 7372,
      "enceinte</w>": 7373,
      "oncer</w>": 7374,
      "traverse</w>": 7375,
      "essentiel</w>": 7376,
      "expériences</w>": 7377,
      "irais</w>": 7378,
      "sex": 7379,
      "espion</w>": 7380,
      "ologi": 7381,
      "cauchem": 7382,
      "alli": 7383,
      "osa": 7384,
      "osaka</w>": 7385,
      "dant</w>": 7386,
      "dossier</w>": 7387,
      "parlaient</w>": 7388,
      "rang</w>": 7389,
      "coulé</w>": 7390,
      "ivr": 7391,
      "natale</w>": 7392,
      "hypothèse</w>": 7393,
      "micro</w>": 7394,
      "surmonter</w>": 7395,
      "pardonne</w>": 7396,
      "désordre</w>": 7397,
      "jec": 7398,
      "négociations</w>": 7399,
      "précis</w>": 7400,
      "êts</w>": 7401,
      "clefs</w>": 7402,
      "cerf</w>": 7403,
      "garanti": 7404,
      "remarque</w>": 7405,
      "irez</w>": 7406,
      "émotions</w>": 7407,
      "ologie</w>": 7408,
      "évoque</w>": 7409,
      "hélicoptère</w>": 7410,
      "couler</w>": 7411,
      "amusées</w>": 7412,
      "hil": 7413,
      "typhon</w>": 7414,
      "potable</w>": 7415,
      "mand": 7416,
      "moqu": 7417,
      "réside</w>": 7418,
      "embauché</w>": 7419,
      "indivi": 7420,
      "envisag": 7421,
      "copies</w>": 7422,
      "environnement</w>": 7423,
      "tira</w>": 7424,
      "possibles</w>": 7425,
      "bonhomme</w>": 7426,
      "dormi": 7427,
      "conditionné</w>": 7428,
      "rican": 7429,
      "vier</w>": 7430,
      "imper": 7431,
      "bler</w>": 7432,
      "jaunes</w>": 7433,
      "lend": 7434,
      "lendemain</w>": 7435,
      "carac": 7436,
      "chute</w>": 7437,
      "présenta</w>": 7438,
      "nourri</w>": 7439,
      "dentifri": 7440,
      "terrifi": 7441,
      "mord</w>": 7442,
      "détendu</w>": 7443,
      "aimi": 7444,
      "parlerons</w>": 7445,
      "crayons</w>": 7446,
      "verrouille</w>": 7447,
      "étouff": 7448,
      "limites</w>": 7449,
      "attaché</w>": 7450,
      "simples</w>": 7451,
      "pleura</w>": 7452,
      "ke": 7453,
      "kar": 7454,
      "vécut</w>": 7455,
      "oreiller</w>": 7456,
      "effectivement</w>": 7457,
      "avent": 7458,
      "napp": 7459,
      "aidiez</w>": 7460,
      "déçus</w>": 7461,
      "recor": 7462,
      "drapeau</w>": 7463,
      "dames</w>": 7464,
      "déroule</w>": 7465,
      "concernant</w>": 7466,
      "préfèr": 7467,
      "demanderai</w>": 7468,
      "répare</w>": 7469,
      "loy": 7470,
      "parvenue</w>": 7471,
      "bation</w>": 7472,
      "reconnaître</w>": 7473,
      "gâcher</w>": 7474,
      "allumée</w>": 7475,
      "curiosité</w>": 7476,
      "étend": 7477,
      "aveug": 7478,
      "illu": 7479,
      "apprennent</w>": 7480,
      "célèbres</w>": 7481,
      "pitoy": 7482,
      "monta</w>": 7483,
      "positif</w>": 7484,
      "humanité</w>": 7485,
      "allumette</w>": 7486,
      "inond": 7487,
      "annulée</w>": 7488,
      "exist": 7489,
      "pilu": 7490,
      "suicidé</w>": 7491,
      "bret": 7492,
      "expliquerai</w>": 7493,
      "tori": 7494,
      "emplois</w>": 7495,
      "dais</w>": 7496,
      "éternellement</w>": 7497,
      "lentilles</w>": 7498,
      "biscuit</w>": 7499,
      "reconnue</w>": 7500,
      "marchez</w>": 7501,
      "angle</w>": 7502,
      "comparé</w>": 7503,
      "promotion</w>": 7504,
      "embarrassant</w>": 7505,
      "poliment</w>": 7506,
      "légère</w>": 7507,
      "vigil": 7508,
      "demandons</w>": 7509,
      "gre": 7510,
      "détecti": 7511,
      "prétendu</w>": 7512,
      "valentin</w>": 7513,
      "écrivit</w>": 7514,
      "entouré</w>": 7515,
      "comprennes</w>": 7516,
      "nomme</w>": 7517,
      "consommation</w>": 7518,
      "ffu": 7519,
      "grammaire</w>": 7520,
      "réception</w>": 7521,
      "satisfaites</w>": 7522,
      "élevée</w>": 7523,
      "excès</w>": 7524,
      "étape</w>": 7525,
      "renard</w>": 7526,
      "experts</w>": 7527,
      "rembourserai</w>": 7528,
      "jouet</w>": 7529,
      "emporte</w>": 7530,
      "boîtes</w>": 7531,
      "voyages</w>": 7532,
      "impliquée</w>": 7533,
      "fières</w>": 7534,
      "recommanda</w>": 7535,
      "compati": 7536,
      "mener</w>": 7537,
      "ouverture</w>": 7538,
      "16": 7539,
      "cram": 7540,
      "oût</w>": 7541,
      "rock</w>": 7542,
      "hallo": 7543,
      "hallowe": 7544,
      "halloween</w>": 7545,
      "figure</w>": 7546,
      "lut": 7547,
      "cependant</w>": 7548,
      "rejoint</w>": 7549,
      "taper</w>": 7550,
      "adver": 7551,
      "mai</w>": 7552,
      "avocate</w>": 7553,
      "vitam": 7554,
      "délicieuse</w>": 7555,
      "tasses</w>": 7556,
      "gée</w>": 7557,
      "répri": 7558,
      "confrontés</w>": 7559,
      "aînée</w>": 7560,
      "résol": 7561,
      "commets</w>": 7562,
      "existence</w>": 7563,
      "viendrons</w>": 7564,
      "pendre</w>": 7565,
      "aux": 7566,
      "messages</w>": 7567,
      "rentrés</w>": 7568,
      "échouer</w>": 7569,
      "antée</w>": 7570,
      "sidé": 7571,
      "désir": 7572,
      "conven": 7573,
      "dépassé</w>": 7574,
      "neigé</w>": 7575,
      "échar": 7576,
      "écharpe</w>": 7577,
      "relâ": 7578,
      "mul": 7579,
      "tablement</w>": 7580,
      "rus": 7581,
      "introduit</w>": 7582,
      "consiste</w>": 7583,
      "éplu": 7584,
      "rense": 7585,
      "disons</w>": 7586,
      "impatients</w>": 7587,
      "ast": 7588,
      "log": 7589,
      "démission</w>": 7590,
      "tifs</w>": 7591,
      "commu": 7592,
      "convi": 7593,
      "attendant</w>": 7594,
      "fianç": 7595,
      "fiançailles</w>": 7596,
      "durs</w>": 7597,
      "tillon</w>": 7598,
      "alternative</w>": 7599,
      "pratiquer</w>": 7600,
      "del": 7601,
      "contentes</w>": 7602,
      "jetons</w>": 7603,
      "automobile</w>": 7604,
      "ba</w>": 7605,
      "feront</w>": 7606,
      "ranger</w>": 7607,
      "logiciel</w>": 7608,
      "$</w>": 7609,
      "organisation</w>": 7610,
      "ventes</w>": 7611,
      "sar": 7612,
      "persi": 7613,
      "ssions</w>": 7614,
      "instrument</w>": 7615,
      "devrai</w>": 7616,
      "oient</w>": 7617,
      "munitions</w>": 7618,
      "littérature</w>": 7619,
      "épargne</w>": 7620,
      "envoyées</w>": 7621,
      "courts</w>": 7622,
      "aiderais</w>": 7623,
      "dotée</w>": 7624,
      "connaissances</w>": 7625,
      "relations</w>": 7626,
      "opérer</w>": 7627,
      "volution</w>": 7628,
      "intimité</w>": 7629,
      "compose</w>": 7630,
      "considération</w>": 7631,
      "nucléaire</w>": 7632,
      "provi": 7633,
      "ambass": 7634,
      "bagu": 7635,
      "assiettes</w>": 7636,
      "tombées</w>": 7637,
      "toux</w>": 7638,
      "olympiques</w>": 7639,
      "sagesse</w>": 7640,
      "évac": 7641,
      "prendriez</w>": 7642,
      "accorde</w>": 7643,
      "dérobé</w>": 7644,
      "insin": 7645,
      "élégant</w>": 7646,
      "approuvé</w>": 7647,
      "dommag": 7648,
      "dommages</w>": 7649,
      "chirurgien</w>": 7650,
      "reproduire</w>": 7651,
      "fis": 7652,
      "plani": 7653,
      "out": 7654,
      "sai</w>": 7655,
      "lus</w>": 7656,
      "seraient</w>": 7657,
      "battent</w>": 7658,
      "réfugiés</w>": 7659,
      "coul": 7660,
      "écoulé</w>": 7661,
      "ronfle</w>": 7662,
      "dentifrice</w>": 7663,
      "pation</w>": 7664,
      "raquette</w>": 7665,
      "supposés</w>": 7666,
      "reine</w>": 7667,
      "sédui": 7668,
      "den": 7669,
      "tomates</w>": 7670,
      "vil": 7671,
      "actes</w>": 7672,
      "déco": 7673,
      "largué</w>": 7674,
      "plendi": 7675,
      "trembler</w>": 7676,
      "dessin</w>": 7677,
      "teries</w>": 7678,
      "offici": 7679,
      "allure</w>": 7680,
      "record</w>": 7681,
      "générale</w>": 7682,
      "habitait</w>": 7683,
      "pari</w>": 7684,
      "can</w>": 7685,
      "frot": 7686,
      "300</w>": 7687,
      "détestais</w>": 7688,
      "passés</w>": 7689,
      "trafi": 7690,
      "fumeur</w>": 7691,
      "lance</w>": 7692,
      "form": 7693,
      "sages</w>": 7694,
      "gâché</w>": 7695,
      "brave</w>": 7696,
      "personnalité</w>": 7697,
      "éveillée</w>": 7698,
      "prenais</w>": 7699,
      "révéla</w>": 7700,
      "asie</w>": 7701,
      "brosser</w>": 7702,
      "spéciale</w>": 7703,
      "faillite</w>": 7704,
      "perdons</w>": 7705,
      "achetez</w>": 7706,
      "éprouve</w>": 7707,
      "crédi": 7708,
      "évier</w>": 7709,
      "chiffr": 7710,
      "amoureuses</w>": 7711,
      "marque</w>": 7712,
      "chet</w>": 7713,
      "exploser</w>": 7714,
      "admini": 7715,
      "administr": 7716,
      "mouvement</w>": 7717,
      "établi</w>": 7718,
      "atie</w>": 7719,
      "ov": 7720,
      "laid</w>": 7721,
      "répète</w>": 7722,
      "coupa</w>": 7723,
      "indépend": 7724,
      "reporter</w>": 7725,
      "fallu": 7726,
      "fallut</w>": 7727,
      "défendre</w>": 7728,
      "révéler</w>": 7729,
      "nué</w>": 7730,
      "totale</w>": 7731,
      "vendez</w>": 7732,
      "anti</w>": 7733,
      "hambur": 7734,
      "offrit</w>": 7735,
      "changez</w>": 7736,
      "pains</w>": 7737,
      "géré</w>": 7738,
      "renouv": 7739,
      "semestre</w>": 7740,
      "naïve</w>": 7741,
      "compassion</w>": 7742,
      "désolés</w>": 7743,
      "trouvera</w>": 7744,
      "énerver</w>": 7745,
      "vola</w>": 7746,
      "devrons</w>": 7747,
      "désorienté</w>": 7748,
      "gras</w>": 7749,
      "ît</w>": 7750,
      "méchante</w>": 7751,
      "redire</w>": 7752,
      "occasions</w>": 7753,
      "contagi": 7754,
      "tus</w>": 7755,
      "sachant</w>": 7756,
      "lança</w>": 7757,
      "în": 7758,
      "embête</w>": 7759,
      "sensi": 7760,
      "comprendrais</w>": 7761,
      "obéi": 7762,
      "mélang": 7763,
      "intéresser</w>": 7764,
      "chaussure</w>": 7765,
      "amusez</w>": 7766,
      "abasourdi</w>": 7767,
      "lapins</w>": 7768,
      "cuir</w>": 7769,
      "vendent</w>": 7770,
      "terrifié</w>": 7771,
      "dépourvue</w>": 7772,
      "alice</w>": 7773,
      "négligent</w>": 7774,
      "pensa</w>": 7775,
      "loué</w>": 7776,
      "recherchent</w>": 7777,
      "troph": 7778,
      "attendue</w>": 7779,
      "inconscient</w>": 7780,
      "version</w>": 7781,
      "décevant</w>": 7782,
      "blanches</w>": 7783,
      "verrais</w>": 7784,
      "vertige</w>": 7785,
      "remarquer</w>": 7786,
      "boulang": 7787,
      "économique</w>": 7788,
      "bré": 7789,
      "eilli</w>": 7790,
      "éclairci": 7791,
      "érieure</w>": 7792,
      "colle</w>": 7793,
      "rentrant</w>": 7794,
      "partiez</w>": 7795,
      "végéta": 7796,
      "assuré</w>": 7797,
      "écras": 7798,
      "égaux</w>": 7799,
      "avantages</w>": 7800,
      "pharmacie</w>": 7801,
      "path": 7802,
      "stylos</w>": 7803,
      "goûts</w>": 7804,
      "princesse</w>": 7805,
      "han": 7806,
      "surveiller</w>": 7807,
      "masque</w>": 7808,
      "conclu</w>": 7809,
      "balan": 7810,
      "entreprises</w>": 7811,
      "canada</w>": 7812,
      "indiqué</w>": 7813,
      "noix</w>": 7814,
      "allai</w>": 7815,
      "portaient</w>": 7816,
      "recette</w>": 7817,
      "lus": 7818,
      "marches</w>": 7819,
      "forcés</w>": 7820,
      "parking</w>": 7821,
      "del</w>": 7822,
      "traire</w>": 7823,
      "surtout</w>": 7824,
      "capacités</w>": 7825,
      "industrie</w>": 7826,
      "soutenir</w>": 7827,
      "astronom": 7828,
      "immen": 7829,
      "immense</w>": 7830,
      "écoutait</w>": 7831,
      "scolaire</w>": 7832,
      "tai</w>": 7833,
      "espag": 7834,
      "espagno": 7835,
      "raser</w>": 7836,
      "rencont": 7837,
      "rencontriez</w>": 7838,
      "herbes</w>": 7839,
      "survivants</w>": 7840,
      "embêter</w>": 7841,
      "anxi": 7842,
      "cellu": 7843,
      "do</w>": 7844,
      "ess</w>": 7845,
      "entretien</w>": 7846,
      "éloigne</w>": 7847,
      "illées</w>": 7848,
      "songer</w>": 7849,
      "bénévo": 7850,
      "transpi": 7851,
      "eûmes</w>": 7852,
      "rep": 7853,
      "démarré</w>": 7854,
      "apprenez</w>": 7855,
      "asso": 7856,
      "circonstances</w>": 7857,
      "précau": 7858,
      "préoccupé</w>": 7859,
      "compliment</w>": 7860,
      "pensée</w>": 7861,
      "trott": 7862,
      "chaîne</w>": 7863,
      "modes": 7864,
      "colis</w>": 7865,
      "épée</w>": 7866,
      "planter</w>": 7867,
      "tine</w>": 7868,
      "catho": 7869,
      "durée</w>": 7870,
      "tourna</w>": 7871,
      "dangereuse</w>": 7872,
      "estime</w>": 7873,
      "indique</w>": 7874,
      "révélé</w>": 7875,
      "sourc": 7876,
      "arrivèrent</w>": 7877,
      "vap": 7878,
      "quer": 7879,
      "rela": 7880,
      "vision</w>": 7881,
      "suscep": 7882,
      "hall</w>": 7883,
      "devrez</w>": 7884,
      "prévoyons</w>": 7885,
      "japonaises</w>": 7886,
      "photographie</w>": 7887,
      "reproduise</w>": 7888,
      "averti</w>": 7889,
      "rédigé</w>": 7890,
      "impressionnés</w>": 7891,
      "interrompu</w>": 7892,
      "jeun": 7893,
      "jeunesse</w>": 7894,
      "commandes</w>": 7895,
      "disposition</w>": 7896,
      "dangers</w>": 7897,
      "composi": 7898,
      "robo": 7899,
      "critiques</w>": 7900,
      "devions</w>": 7901,
      "envoyée</w>": 7902,
      "alimentation</w>": 7903,
      "motivé</w>": 7904,
      "brac": 7905,
      "bracelet</w>": 7906,
      "soû": 7907,
      "méprise</w>": 7908,
      "pensable</w>": 7909,
      "largement</w>": 7910,
      "rafraîchi": 7911,
      "crainte</w>": 7912,
      "pressés</w>": 7913,
      "laissera</w>": 7914,
      "désir</w>": 7915,
      "grés</w>": 7916,
      "impré": 7917,
      "tréso": 7918,
      "randonnée</w>": 7919,
      "cag": 7920,
      "jeans</w>": 7921,
      "descri": 7922,
      "décorer</w>": 7923,
      "strict</w>": 7924,
      "catastro": 7925,
      "acher</w>": 7926,
      "râ": 7927,
      "pie</w>": 7928,
      "danseur</w>": 7929,
      "bougez</w>": 7930,
      "baz": 7931,
      "bazar</w>": 7932,
      "raf": 7933,
      "cinglé</w>": 7934,
      "plombier</w>": 7935,
      "perdant</w>": 7936,
      "coll": 7937,
      "arrivons</w>": 7938,
      "humble</w>": 7939,
      "croissance</w>": 7940,
      "savon</w>": 7941,
      "accroche</w>": 7942,
      "métal</w>": 7943,
      "tuez</w>": 7944,
      "fermier</w>": 7945,
      "usa</w>": 7946,
      "concurren": 7947,
      "surprend</w>": 7948,
      "nirent</w>": 7949,
      "ceur</w>": 7950,
      "relativement</w>": 7951,
      "confu": 7952,
      "volée</w>": 7953,
      "maient</w>": 7954,
      "franc</w>": 7955,
      "religion</w>": 7956,
      "honnêtes</w>": 7957,
      "disant</w>": 7958,
      "tarder</w>": 7959,
      "arriverons</w>": 7960,
      "volent</w>": 7961,
      "disponibles</w>": 7962,
      "goûté</w>": 7963,
      "réparée</w>": 7964,
      "quat": 7965,
      "lette</w>": 7966,
      "teriez</w>": 7967,
      "universi": 7968,
      "gnes</w>": 7969,
      "mousta": 7970,
      "moustache</w>": 7971,
      "joli": 7972,
      "religi": 7973,
      "disputent</w>": 7974,
      "embrassée</w>": 7975,
      "rats</w>": 7976,
      "gorg": 7977,
      "joignez</w>": 7978,
      "récente</w>": 7979,
      "grimpe</w>": 7980,
      "coton</w>": 7981,
      "manifestement</w>": 7982,
      "premiers</w>": 7983,
      "mutu": 7984,
      "chèvre</w>": 7985,
      "titre</w>": 7986,
      "empr": 7987,
      "emprein": 7988,
      "respectueux</w>": 7989,
      "souffert</w>": 7990,
      "comptable</w>": 7991,
      "plaça</w>": 7992,
      "singes</w>": 7993,
      "stin": 7994,
      "weekend</w>": 7995,
      "attiré</w>": 7996,
      "profité</w>": 7997,
      "brés": 7998,
      "tuyau</w>": 7999
    },
    "id_to_token": {
      "0": "<PAD>",
      "1": "<UNK>",
      "2": "<BOS>",
      "3": "<EOS>",
      "4": "!",
      "5": "\"",
      "6": "$",
      "7": "%",
      "8": "&",
      "9": "'",
      "10": "(",
      "11": ")",
      "12": "+",
      "13": ",",
      "14": "-",
      "15": ".",
      "16": "/",
      "17": "0",
      "18": "1",
      "19": "2",
      "20": "3",
      "21": "4",
      "22": "5",
      "23": "6",
      "24": "7",
      "25": "8",
      "26": "9",
      "27": ":",
      "28": ";",
      "29": "</w>",
      "30": "?",
      "31": "a",
      "32": "b",
      "33": "c",
      "34": "d",
      "35": "e",
      "36": "f",
      "37": "g",
      "38": "h",
      "39": "i",
      "40": "j",
      "41": "k",
      "42": "l",
      "43": "m",
      "44": "n",
      "45": "o",
      "46": "p",
      "47": "q",
      "48": "r",
      "49": "s",
      "50": "t",
      "51": "u",
      "52": "v",
      "53": "w",
      "54": "x",
      "55": "y",
      "56": "z",
      "57": "«",
      "58": "°",
      "59": "»",
      "60": "à",
      "61": "á",
      "62": "â",
      "63": "ç",
      "64": "è",
      "65": "é",
      "66": "ê",
      "67": "ë",
      "68": "í",
      "69": "î",
      "70": "ï",
      "71": "ô",
      "72": "ù",
      "73": "û",
      "74": "ü",
      "75": "ō",
      "76": "œ",
      "77": "​",
      "78": "‘",
      "79": "’",
      "80": "‽",
      "81": "e</w>",
      "82": "s</w>",
      "83": ".</w>",
      "84": "t</w>",
      "85": "ai",
      "86": "ou",
      "87": "en",
      "88": "'</w>",
      "89": "on",
      "90": "r</w>",
      "91": "qu",
      "92": "a</w>",
      "93": "es</w>",
      "94": "re</w>",
      "95": "pa",
      "96": "je</w>",
      "97": "l</w>",
      "98": "es",
      "99": "le</w>",
      "100": "de</w>",
      "101": "u</w>",
      "102": "n</w>",
      "103": "ne</w>",
      "104": "ous</w>",
      "105": "oi",
      "106": "an",
      "107": "om",
      "108": "-</w>",
      "109": "que</w>",
      "110": "er</w>",
      "111": "eu",
      "112": "é</w>",
      "113": "pas</w>",
      "114": "?</w>",
      "115": "est</w>",
      "116": "vous</w>",
      "117": "on</w>",
      "118": "à</w>",
      "119": "ais</w>",
      "120": "er",
      "121": "la</w>",
      "122": "te</w>",
      "123": "i</w>",
      "124": "av",
      "125": "ent</w>",
      "126": "ch",
      "127": "il</w>",
      "128": "ce</w>",
      "129": "ri",
      "130": "z</w>",
      "131": "ez</w>",
      "132": "em",
      "133": "tu</w>",
      "134": "tom",
      "135": "tr",
      "136": "ti",
      "137": "tom</w>",
      "138": "el",
      "139": "d</w>",
      "140": "en</w>",
      "141": "ait</w>",
      "142": "ai</w>",
      "143": "se</w>",
      "144": "pr",
      "145": "au",
      "146": "x</w>",
      "147": "j</w>",
      "148": "me</w>",
      "149": "su",
      "150": "un</w>",
      "151": "ar",
      "152": "di",
      "153": "pou",
      "154": "les</w>",
      "155": "or",
      "156": "eux</w>",
      "157": "c</w>",
      "158": "pl",
      "159": "ét",
      "160": ",</w>",
      "161": "is</w>",
      "162": "tre</w>",
      "163": "nous</w>",
      "164": "oi</w>",
      "165": "ss",
      "166": "une</w>",
      "167": "il",
      "168": "in",
      "169": "ons</w>",
      "170": "par",
      "171": "com",
      "172": "et",
      "173": "al",
      "174": "fai",
      "175": "tes</w>",
      "176": "con",
      "177": "elle</w>",
      "178": "tou",
      "179": "end",
      "180": "vi",
      "181": "dé",
      "182": "qu</w>",
      "183": "am",
      "184": "li",
      "185": "suis</w>",
      "186": "pour</w>",
      "187": "au</w>",
      "188": "our",
      "189": "ant</w>",
      "190": "faire</w>",
      "191": "ans</w>",
      "192": "ça</w>",
      "193": "ont</w>",
      "194": "si",
      "195": "y</w>",
      "196": "oir</w>",
      "197": "ap",
      "198": "us</w>",
      "199": "as</w>",
      "200": "pen",
      "201": "ag",
      "202": "re",
      "203": "de",
      "204": "ci",
      "205": "ement</w>",
      "206": "ère</w>",
      "207": "ée</w>",
      "208": "ois</w>",
      "209": "bi",
      "210": "des</w>",
      "211": "et</w>",
      "212": "m</w>",
      "213": "ment</w>",
      "214": "at",
      "215": "son</w>",
      "216": "ouv",
      "217": "dans</w>",
      "218": "ent",
      "219": "vo",
      "220": "plus</w>",
      "221": "ré",
      "222": "ci</w>",
      "223": "pro",
      "224": "mes</w>",
      "225": "!</w>",
      "226": "tout</w>",
      "227": "ce",
      "228": "eur</w>",
      "229": "ès</w>",
      "230": "du</w>",
      "231": "veux</w>",
      "232": "moi</w>",
      "233": "ang",
      "234": "fait</w>",
      "235": "qui</w>",
      "236": "vr",
      "237": "ler</w>",
      "238": "ui",
      "239": "tu",
      "240": "pour",
      "241": "sais</w>",
      "242": "té</w>",
      "243": "po",
      "244": "être</w>",
      "245": "était</w>",
      "246": "per",
      "247": "co",
      "248": "ma",
      "249": "cou",
      "250": "jour",
      "251": "emp",
      "252": "quoi</w>",
      "253": "ess",
      "254": "si</w>",
      "255": "quel",
      "256": "p</w>",
      "257": "fi",
      "258": "ac",
      "259": "ec</w>",
      "260": "tion</w>",
      "261": "mon</w>",
      "262": "ette</w>",
      "263": "avec</w>",
      "264": "ui</w>",
      "265": "onn",
      "266": "êtes</w>",
      "267": "ble</w>",
      "268": "ses</w>",
      "269": "eur",
      "270": "avez</w>",
      "271": "ter</w>",
      "272": "pri",
      "273": "por",
      "274": "temp",
      "275": "pe",
      "276": "mai",
      "277": "ils</w>",
      "278": "cho",
      "279": "bien</w>",
      "280": "mi",
      "281": "onne</w>",
      "282": "sont</w>",
      "283": "temps</w>",
      "284": "cu",
      "285": "cette</w>",
      "286": "vou",
      "287": "fr",
      "288": "bl",
      "289": "ten",
      "290": "dit</w>",
      "291": "endre</w>",
      "292": "ni",
      "293": "ser",
      "294": "très</w>",
      "295": "ex",
      "296": "cela</w>",
      "297": "peux</w>",
      "298": "ér",
      "299": "ens</w>",
      "300": "ain</w>",
      "301": "pi",
      "302": "été</w>",
      "303": "pense</w>",
      "304": "pré",
      "305": "ton</w>",
      "306": "gr",
      "307": "ven",
      "308": "cr",
      "309": "ass",
      "310": "no",
      "311": "sur</w>",
      "312": "dem",
      "313": "ici</w>",
      "314": "ts</w>",
      "315": "ma</w>",
      "316": "pourquoi</w>",
      "317": "votre</w>",
      "318": "mon",
      "319": "im",
      "320": "avoir</w>",
      "321": "mar",
      "322": "eut</w>",
      "323": "us",
[...]
