{
  "vocab": {
    "token_to_id": {
      "<PAD>": 0,
      "<UNK>": 1,
      "<BOS>": 2,
      "<EOS>": 3,
      "!": 4,
      "\"": 5,
      "$": 6,
      "%": 7,
      "&": 8,
      "'": 9,
      "+": 10,
      ",": 11,
      "-": 12,
      ".": 13,
      "/": 14,
      "0": 15,
      "1": 16,
      "2": 17,
      "3": 18,
      "4": 19,
      "5": 20,
      "6": 21,
      "7": 22,
      "8": 23,
      "9": 24,
      ":": 25,
      ";": 26,
      "</w>": 27,
      "?": 28,
      "a": 29,
      "b": 30,
      "c": 31,
      "d": 32,
      "e": 33,
      "f": 34,
      "g": 35,
      "h": 36,
      "i": 37,
      "j": 38,
      "k": 39,
      "l": 40,
      "m": 41,
      "n": 42,
      "o": 43,
      "p": 44,
      "q": 45,
      "r": 46,
      "s": 47,
      "t": 48,
      "u": 49,
      "v": 50,
      "w": 51,
      "x": 52,
      "y": 53,
      "z": 54,
      "­": 55,
      "°": 56,
      "é": 57,
      "ï": 58,
      "ú": 59,
      "ü": 60,
      "–": 61,
      "—": 62,
      "‘": 63,
      "’": 64,
      "€": 65,
      "e</w>": 66,
      ".</w>": 67,
      "t</w>": 68,
      "th": 69,
      "s</w>": 70,
      "ou": 71,
      "n</w>": 72,
      "d</w>": 73,
      "to": 74,
      "y</w>": 75,
      "'</w>": 76,
      "i</w>": 77,
      "you": 78,
      "er": 79,
      "in": 80,
      "you</w>": 81,
      "to</w>": 82,
      "m</w>": 83,
      "g</w>": 84,
      "the</w>": 85,
      "at</w>": 86,
      "ar": 87,
      "is</w>": 88,
      "ed</w>": 89,
      "do": 90,
      "an": 91,
      "ing</w>": 92,
      "?</w>": 93,
      "or": 94,
      "a</w>": 95,
      "l</w>": 96,
      "er</w>": 97,
      "ve</w>": 98,
      "me</w>": 99,
      "re": 100,
      "ha": 101,
      "no": 102,
      "wh": 103,
      "k</w>": 104,
      "on": 105,
      "ll</w>": 106,
      "tom</w>": 107,
      "w</w>": 108,
      "that</w>": 109,
      "it</w>": 110,
      "en": 111,
      "wa": 112,
      "f</w>": 113,
      "st": 114,
      "he</w>": 115,
      "li": 116,
      "an</w>": 117,
      "ch": 118,
      "in</w>": 119,
      "le": 120,
      "on</w>": 121,
      "ere</w>": 122,
      "di": 123,
      "go": 124,
      "ti": 125,
      "do</w>": 126,
      "en</w>": 127,
      "ri": 128,
      "of</w>": 129,
      "st</w>": 130,
      "for": 131,
      "r</w>": 132,
      "this</w>": 133,
      "al": 134,
      "ro": 135,
      "ke</w>": 136,
      "wi": 137,
      "lo": 138,
      "we</w>": 139,
      "gh": 140,
      "don</w>": 141,
      "ld</w>": 142,
      "re</w>": 143,
      "ho": 144,
      "have</w>": 145,
      "be": 146,
      "ly</w>": 147,
      "se</w>": 148,
      "es</w>": 149,
      "was</w>": 150,
      ",</w>": 151,
      "ne": 152,
      "p</w>": 153,
      "are</w>": 154,
      "so": 155,
      "what</w>": 156,
      "my</w>": 157,
      "la": 158,
      "co": 159,
      "now</w>": 160,
      "can</w>": 161,
      "for</w>": 162,
      "se": 163,
      "ma": 164,
      "wan": 165,
      "le</w>": 166,
      "your</w>": 167,
      "th</w>": 168,
      "be</w>": 169,
      "sh": 170,
      "ver": 171,
      "ght</w>": 172,
      "me": 173,
      "the": 174,
      "ay</w>": 175,
      "out</w>": 176,
      "ch</w>": 177,
      "one</w>": 178,
      "ould</w>": 179,
      "want</w>": 180,
      "su": 181,
      "ab": 182,
      "know</w>": 183,
      "ea": 184,
      "not</w>": 185,
      "si": 186,
      "ce</w>": 187,
      "et</w>": 188,
      "bo": 189,
      "ra": 190,
      "thing</w>": 191,
      "pp": 192,
      "thin": 193,
      "tt": 194,
      "o</w>": 195,
      "like</w>": 196,
      "and</w>": 197,
      "all</w>": 198,
      "she</w>": 199,
      "un": 200,
      "with</w>": 201,
      "te": 202,
      "dn</w>": 203,
      "how</w>": 204,
      "bu": 205,
      "sa": 206,
      "rea": 207,
      "te</w>": 208,
      "el": 209,
      "ac": 210,
      "wor": 211,
      "they</w>": 212,
      "think</w>": 213,
      "ar</w>": 214,
      "hi": 215,
      "ther</w>": 216,
      "ent</w>": 217,
      "ta": 218,
      "did</w>": 219,
      "ver</w>": 220,
      "sp": 221,
      "ted</w>": 222,
      "go</w>": 223,
      "fi": 224,
      "mi": 225,
      "ust</w>": 226,
      "his</w>": 227,
      "very</w>": 228,
      "ca": 229,
      "day</w>": 230,
      "ts</w>": 231,
      "there</w>": 232,
      "mor": 233,
      "ry</w>": 234,
      "sn</w>": 235,
      "de": 236,
      "lea": 237,
      "get</w>": 238,
      "mo": 239,
      "mar": 240,
      "here</w>": 241,
      "time</w>": 242,
      "fe": 243,
      "ss</w>": 244,
      "king</w>": 245,
      "fa": 246,
      "about</w>": 247,
      "didn</w>": 248,
      "sed</w>": 249,
      "dy</w>": 250,
      "ur": 251,
      "od</w>": 252,
      "ok</w>": 253,
      "mp": 254,
      "we": 255,
      "sto": 256,
      "him</w>": 257,
      "ally</w>": 258,
      "any": 259,
      "ag": 260,
      "were</w>": 261,
      "up</w>": 262,
      "going</w>": 263,
      "ci": 264,
      "as</w>": 265,
      "some": 266,
      "ex": 267,
      "happ": 268,
      "ds</w>": 269,
      "gi": 270,
      "no</w>": 271,
      "any</w>": 272,
      "vi": 273,
      "why</w>": 274,
      "will</w>": 275,
      "ru": 276,
      "\"</w>": 277,
      "pro": 278,
      "tion</w>": 279,
      "po": 280,
      "had</w>": 281,
      "as": 282,
      "has</w>": 283,
      "fu": 284,
      "ter</w>": 285,
      "just</w>": 286,
      "if</w>": 287,
      "oun": 288,
      "sti": 289,
      "id</w>": 290,
      "ys</w>": 291,
      "ought</w>": 292,
      "ong</w>": 293,
      "ked</w>": 294,
      "need</w>": 295,
      "mary</w>": 296,
      "hel": 297,
      "qu": 298,
      "con": 299,
      "de</w>": 300,
      "ni": 301,
      "so</w>": 302,
      "come</w>": 303,
      "ear": 304,
      "her</w>": 305,
      "let</w>": 306,
      "ind</w>": 307,
      "op": 308,
      "who</w>": 309,
      "good</w>": 310,
      "or</w>": 311,
      "ting</w>": 312,
      "where</w>": 313,
      "would</w>": 314,
      "ty</w>": 315,
      "mu": 316,
      "ks</w>": 317,
      "ever": 318,
      "more</w>": 319,
      "every": 320,
      "par": 321,
      "of": 322,
      "end</w>": 323,
      "got</w>": 324,
      "us</w>": 325,
      "ang": 326,
      "tal": 327,
      "when</w>": 328,
      "by</w>": 329,
      "help</w>": 330,
      "should</w>": 331,
      "plea": 332,
      "sh</w>": 333,
      "see</w>": 334,
      "fro": 335,
      "tell</w>": 336,
      "mon": 337,
      "cu": 338,
      "pla": 339,
      "really</w>": 340,
      "could</w>": 341,
      "fri": 342,
      "pe": 343,
      "from</w>": 344,
      "il": 345,
      "way</w>": 346,
      "been</w>": 347,
      "wn</w>": 348,
      "tter</w>": 349,
      "take</w>": 350,
      "bi": 351,
      "please</w>": 352,
      "ke": 353,
      "ying</w>": 354,
      "sta": 355,
      "never</w>": 356,
      "ter": 357,
      "ck</w>": 358,
      "pa": 359,
      "jo": 360,
      "thought</w>": 361,
      "pre": 362,
      "fre": 363,
      "work</w>": 364,
      "af": 365,
      "something</w>": 366,
      "sel": 367,
      "der": 368,
      "too</w>": 369,
      "gu": 370,
      "some</w>": 371,
      "gh</w>": 372,
      "mb": 373,
      "much</w>": 374,
      "stu": 375,
      "ge": 376,
      "tu": 377,
      "than</w>": 378,
      "our</w>": 379,
      "new</w>": 380,
      "per": 381,
      "ep</w>": 382,
      "isn</w>": 383,
      "pu": 384,
      "right</w>": 385,
      "ack</w>": 386,
      "loo": 387,
      "gs</w>": 388,
      "make</w>": 389,
      "oo": 390,
      "body</w>": 391,
      "ous</w>": 392,
      "ine</w>": 393,
      "ded</w>": 394,
      "ce": 395,
      "oul": 396,
      "ers</w>": 397,
      "der</w>": 398,
      "pi": 399,
      "ey</w>": 400,
      "est": 401,
      "sure</w>": 402,
      "able</w>": 403,
      "back</w>": 404,
      "ven</w>": 405,
      "ouldn</w>": 406,
      "but</w>": 407,
      "na": 408,
      "anything</w>": 409,
      "ree</w>": 410,
      "car": 411,
      "ir": 412,
      "hou": 413,
      "ir</w>": 414,
      "self</w>": 415,
      "ga": 416,
      "ound</w>": 417,
      "ved</w>": 418,
      "money</w>": 419,
      "last</w>": 420,
      "home</w>": 421,
      "el</w>": 422,
      "tr": 423,
      "da": 424,
      "night</w>": 425,
      "pl": 426,
      "fe</w>": 427,
      "ding</w>": 428,
      "give</w>": 429,
      "doe": 430,
      "doesn</w>": 431,
      "fren": 432,
      "french</w>": 433,
      "say</w>": 434,
      "ba": 435,
      "ough</w>": 436,
      "aga": 437,
      "tra": 438,
      "comp": 439,
      "lot</w>": 440,
      "told</w>": 441,
      "!</w>": 442,
      "row</w>": 443,
      "ning</w>": 444,
      "ful</w>": 445,
      "look</w>": 446,
      "pe</w>": 447,
      "red</w>": 448,
      "peop": 449,
      "people</w>": 450,
      "car</w>": 451,
      "c</w>": 452,
      "lu": 453,
      "ried</w>": 454,
      "ready</w>": 455,
      "long</w>": 456,
      "spea": 457,
      "today</w>": 458,
      "ad": 459,
      "talk</w>": 460,
      "prob": 461,
      "com": 462,
      "many</w>": 463,
      "still</w>": 464,
      "ard</w>": 465,
      "roo": 466,
      "sy</w>": 467,
      "ge</w>": 468,
      "said</w>": 469,
      "ki": 470,
      "am</w>": 471,
      "ear</w>": 472,
      "ct</w>": 473,
      "happen": 474,
      "eat</w>": 475,
      "sho": 476,
      "won</w>": 477,
      "other</w>": 478,
      "al</w>": 479,
      "dre": 480,
      "man</w>": 481,
      "lie": 482,
      "pri": 483,
      "ft</w>": 484,
      "must</w>": 485,
      "tru": 486,
      "b</w>": 487,
      "doing</w>": 488,
      "only</w>": 489,
      "made</w>": 490,
      "kes</w>": 491,
      "son</w>": 492,
      "ne</w>": 493,
      "ble</w>": 494,
      "ttle</w>": 495,
      "tur": 496,
      "ving</w>": 497,
      "ways</w>": 498,
      "room</w>": 499,
      "belie": 500,
      "clo": 501,
      "led</w>": 502,
      "love</w>": 503,
      "ten</w>": 504,
      "again</w>": 505,
      "choo": 506,
      "ves</w>": 507,
      "does</w>": 508,
      "always</w>": 509,
      "dr": 510,
      "whi": 511,
      "better</w>": 512,
      "see": 513,
      "use</w>": 514,
      "ents</w>": 515,
      "house</w>": 516,
      "off</w>": 517,
      "ons</w>": 518,
      "happy</w>": 519,
      "ck": 520,
      "stand</w>": 521,
      "try</w>": 522,
      "ms</w>": 523,
      "fin": 524,
      "ant</w>": 525,
      "leave</w>": 526,
      "under": 527,
      "ever</w>": 528,
      "tea": 529,
      "star": 530,
      "everything</w>": 531,
      "ol": 532,
      "feel</w>": 533,
      "ws</w>": 534,
      "went</w>": 535,
      "app": 536,
      "bro": 537,
      "book</w>": 538,
      "befor": 539,
      "before</w>": 540,
      "sor": 541,
      "ned</w>": 542,
      "well</w>": 543,
      "down</w>": 544,
      "friend</w>": 545,
      "tw": 546,
      "little</w>": 547,
      "ment</w>": 548,
      "stay</w>": 549,
      "believe</w>": 550,
      "proble": 551,
      "schoo": 552,
      "ends</w>": 553,
      "gre": 554,
      "left</w>": 555,
      "done</w>": 556,
      "esti": 557,
      "sin": 558,
      "imp": 559,
      "school</w>": 560,
      "them</w>": 561,
      "au": 562,
      "ss": 563,
      "wanted</w>": 564,
      "job</w>": 565,
      "mber</w>": 566,
      "three</w>": 567,
      "qui": 568,
      "wer</w>": 569,
      "tomor": 570,
      "tomorrow</w>": 571,
      "hear": 572,
      "old</w>": 573,
      "late</w>": 574,
      "put</w>": 575,
      "nothing</w>": 576,
      "ance</w>": 577,
      "ssi": 578,
      "father</w>": 579,
      "dif": 580,
      "rong</w>": 581,
      "sle": 582,
      "happened</w>": 583,
      "ans": 584,
      "speak</w>": 585,
      "over</w>": 586,
      "stop</w>": 587,
      "ssed</w>": 588,
      "may</w>": 589,
      "-</w>": 590,
      "min": 591,
      "your": 592,
      "ll": 593,
      "read</w>": 594,
      "kno": 595,
      "wee": 596,
      "ence</w>": 597,
      "hope</w>": 598,
      "these</w>": 599,
      "enough</w>": 600,
      "questi": 601,
      "inter": 602,
      "du": 603,
      "tch</w>": 604,
      "find</w>": 605,
      "most</w>": 606,
      "every</w>": 607,
      "two</w>": 608,
      "into</w>": 609,
      "wri": 610,
      "buy</w>": 611,
      "yest": 612,
      "yester": 613,
      "yesterday</w>": 614,
      "came</w>": 615,
      "rist": 616,
      "live</w>": 617,
      "wal": 618,
      "mas</w>": 619,
      "ate</w>": 620,
      "ph": 621,
      "sur": 622,
      "ger</w>": 623,
      "hur": 624,
      "ser": 625,
      "alone</w>": 626,
      "age</w>": 627,
      "understand</w>": 628,
      "drin": 629,
      "chang": 630,
      "tly</w>": 631,
      "christ": 632,
      "dea": 633,
      "christmas</w>": 634,
      "sorry</w>": 635,
      "ask</w>": 636,
      "gla": 637,
      "keep</w>": 638,
      "problem</w>": 639,
      "call</w>": 640,
      "friends</w>": 641,
      "things</w>": 642,
      "nex": 643,
      "saw</w>": 644,
      "everyone</w>": 645,
      "shed</w>": 646,
      "ose</w>": 647,
      "wasn</w>": 648,
      "aren</w>": 649,
      "asked</w>": 650,
      "bor": 651,
      "ation</w>": 652,
      "tting</w>": 653,
      "reme": 654,
      "away</w>": 655,
      "hard</w>": 656,
      "han": 657,
      "dog</w>": 658,
      "next</w>": 659,
      "chil": 660,
      "fir": 661,
      "wrong</w>": 662,
      "x</w>": 663,
      "ston</w>": 664,
      "boston</w>": 665,
      "pt</w>": 666,
      "with": 667,
      "les</w>": 668,
      "used</w>": 669,
      "already</w>": 670,
      "ary</w>": 671,
      "anyone</w>": 672,
      "plan": 673,
      "dent</w>": 674,
      "ears</w>": 675,
      "ture</w>": 676,
      "after</w>": 677,
      "busy</w>": 678,
      "lt</w>": 679,
      "ide": 680,
      "mes</w>": 681,
      "lear": 682,
      "hea": 683,
      "idea</w>": 684,
      "door</w>": 685,
      "tes</w>": 686,
      "childre": 687,
      "children</w>": 688,
      "life</w>": 689,
      "first</w>": 690,
      "knew</w>": 691,
      "bed</w>": 692,
      "brea": 693,
      "gir": 694,
      "br": 695,
      "ort</w>": 696,
      "haven</w>": 697,
      "deci": 698,
      "ank</w>": 699,
      "without</w>": 700,
      "yet</w>": 701,
      "teach": 702,
      "mother</w>": 703,
      "tired</w>": 704,
      "looking</w>": 705,
      "dri": 706,
      "low": 707,
      "lon": 708,
      "yed</w>": 709,
      "their</w>": 710,
      "coun": 711,
      "hear</w>": 712,
      "happen</w>": 713,
      "ess</w>": 714,
      "cal": 715,
      "mind</w>": 716,
      "spe": 717,
      "ten": 718,
      "bad</w>": 719,
      "tor</w>": 720,
      "name</w>": 721,
      "eng": 722,
      "fini": 723,
      "raid</w>": 724,
      "afraid</w>": 725,
      "wait</w>": 726,
      "being</w>": 727,
      "med</w>": 728,
      "can": 729,
      "best</w>": 730,
      "lost</w>": 731,
      "supp": 732,
      "heard</w>": 733,
      "gave</w>": 734,
      "couldn</w>": 735,
      "win": 736,
      "side</w>": 737,
      "kind</w>": 738,
      "chi": 739,
      "remember</w>": 740,
      "soon</w>": 741,
      "seen</w>": 742,
      "took</w>": 743,
      "water</w>": 744,
      "tely</w>": 745,
      "poli": 746,
      "morning</w>": 747,
      "years</w>": 748,
      "found</w>": 749,
      "same</w>": 750,
      "fer": 751,
      "drink</w>": 752,
      "care</w>": 753,
      "mista": 754,
      "days</w>": 755,
      "play</w>": 756,
      "ster</w>": 757,
      "often</w>": 758,
      "turn</w>": 759,
      "che": 760,
      "wai": 761,
      "sing</w>": 762,
      "else</w>": 763,
      "nee": 764,
      "ced</w>": 765,
      "wish</w>": 766,
      "fo": 767,
      "tch": 768,
      "care": 769,
      "tri": 770,
      "answer</w>": 771,
      "swi": 772,
      "ja": 773,
      "week</w>": 774,
      "phone</w>": 775,
      "someone</w>": 776,
      "att": 777,
      "cre": 778,
      "cti": 779,
      "my": 780,
      "dis": 781,
      "pic": 782,
      "interest": 783,
      "looks</w>": 784,
      "0</w>": 785,
      "ner</w>": 786,
      "year</w>": 787,
      "cer": 788,
      "cause</w>": 789,
      "cle</w>": 790,
      "mm": 791,
      "parents</w>": 792,
      "place</w>": 793,
      "gr": 794,
      "even</w>": 795,
      "youn": 796,
      "times</w>": 797,
      "table</w>": 798,
      "yourself</w>": 799,
      "won": 800,
      "wea": 801,
      "open</w>": 802,
      "ort": 803,
      "big</w>": 804,
      "stra": 805,
      "ling</w>": 806,
      "fast</w>": 807,
      "knows</w>": 808,
      "few</w>": 809,
      "cle": 810,
      "low</w>": 811,
      "teacher</w>": 812,
      "pped</w>": 813,
      "sit</w>": 814,
      "myself</w>": 815,
      "gra": 816,
      "beg": 817,
      "mer": 818,
      "true</w>": 819,
      "list": 820,
      "wo": 821,
      "ze</w>": 822,
      "bought</w>": 823,
      "both</w>": 824,
      "party</w>": 825,
      "might</w>": 826,
      "cou": 827,
      "cold</w>": 828,
      "ffe": 829,
      "question</w>": 830,
      "getting</w>": 831,
      "he": 832,
      "fami": 833,
      "advi": 834,
      "coming</w>": 835,
      "cted</w>": 836,
      "cor": 837,
      "ps</w>": 838,
      "talking</w>": 839,
      "ken</w>": 840,
      "lish</w>": 841,
      "promi": 842,
      "nice</w>": 843,
      "minu": 844,
      "ice</w>": 845,
      "around</w>": 846,
      "din": 847,
      "hun": 848,
      "everybody</w>": 849,
      "boo": 850,
      "surpri": 851,
      "anymore</w>": 852,
      "less</w>": 853,
      "glad</w>": 854,
      "sen": 855,
      "spi": 856,
      "plan</w>": 857,
      "wouldn</w>": 858,
      "show</w>": 859,
      "change</w>": 860,
      "sleep</w>": 861,
      "hu": 862,
      "bit</w>": 863,
      "while</w>": 864,
      "war": 865,
      "train</w>": 866,
      "uni": 867,
      "sion</w>": 868,
      "nobody</w>": 869,
      "ined</w>": 870,
      "ugh": 871,
      "early</w>": 872,
      "wants</w>": 873,
      "vo": 874,
      "another</w>": 875,
      "expe": 876,
      "those</w>": 877,
      "cra": 878,
      "stud": 879,
      "bus</w>": 880,
      "ven": 881,
      "great</w>": 882,
      "because</w>": 883,
      "almost</w>": 884,
      "diffi": 885,
      "difficu": 886,
      "il</w>": 887,
      "col": 888,
      "nu": 889,
      "each</w>": 890,
      "tried</w>": 891,
      "watch</w>": 892,
      "est</w>": 893,
      "rs</w>": 894,
      "doc": 895,
      "ses</w>": 896,
      "pay</w>": 897,
      "sted</w>": 898,
      "ces</w>": 899,
      "beau": 900,
      "movi": 901,
      "pen": 902,
      "married</w>": 903,
      "cla": 904,
      "pr": 905,
      "sent</w>": 906,
      "truth</w>": 907,
      "jap": 908,
      "je": 909,
      "cho": 910,
      "hurt</w>": 911,
      "toge": 912,
      "together</w>": 913,
      "coffe": 914,
      "person</w>": 915,
      "walk</w>": 916,
      "coffee</w>": 917,
      "mine</w>": 918,
      "food</w>": 919,
      "such</w>": 920,
      "smo": 921,
      "trying</w>": 922,
      "ey": 923,
      "arri": 924,
      "write</w>": 925,
      "man": 926,
      "matter</w>": 927,
      "died</w>": 928,
      "easy</w>": 929,
      "tonight</w>": 930,
      "ls</w>": 931,
      "seems</w>": 932,
      "shouldn</w>": 933,
      "differ": 934,
      "import": 935,
      "working</w>": 936,
      "har": 937,
      "family</w>": 938,
      "beauti": 939,
      "enjo": 940,
      "fun</w>": 941,
      "int</w>": 942,
      "wer": 943,
      "once</w>": 944,
      "cont": 945,
      "mee": 946,
      "cked</w>": 947,
      "brother</w>": 948,
      "beautiful</w>": 949,
      "forget</w>": 950,
      "young</w>": 951,
      "tty</w>": 952,
      "ori": 953,
      "seem</w>": 954,
      "english</w>": 955,
      "doctor</w>": 956,
      "waiting</w>": 957,
      "ei": 958,
      "light</w>": 959,
      "meeting</w>": 960,
      "fer</w>": 961,
      "important</w>": 962,
      "books</w>": 963,
      "hair</w>": 964,
      "which</w>": 965,
      "str": 966,
      "difficult</w>": 967,
      "pretty</w>": 968,
      "usu": 969,
      "story</w>": 970,
      "ju": 971,
      "fel": 972,
      "meet</w>": 973,
      "roa": 974,
      "foo": 975,
      "rain</w>": 976,
      "ssible</w>": 977,
      "dinner</w>": 978,
      "met</w>": 979,
      "letter</w>": 980,
      "own</w>": 981,
      "tten</w>": 982,
      "started</w>": 983,
      "longer</w>": 984,
      "ani": 985,
      "dly</w>": 986,
      "medi": 987,
      "likes</w>": 988,
      "felt</w>": 989,
      "fol": 990,
      "lun": 991,
      "shi": 992,
      "feel": 993,
      "word</w>": 994,
      "gar": 995,
      "ping</w>": 996,
      "world</w>": 997,
      "out": 998,
      "careful</w>": 999,
      "learn</w>": 1000,
      "ve": 1001,
      "cri": 1002,
      "sun": 1003,
      "per</w>": 1004,
      "den": 1005,
      "ught</w>": 1006,
      "cen": 1007,
      "acci": 1008,
      "thank</w>": 1009,
      "start</w>": 1010,
      "hate</w>": 1011,
      "bir": 1012,
      "bla": 1013,
      "tive</w>": 1014,
      "windo": 1015,
      "anybody</w>": 1016,
      "turned</w>": 1017,
      "thir": 1018,
      "offi": 1019,
      "dang": 1020,
      "sister</w>": 1021,
      "since</w>": 1022,
      "set</w>": 1023,
      "tal</w>": 1024,
      "spo": 1025,
      "mean</w>": 1026,
      "wife</w>": 1027,
      "child</w>": 1028,
      "lar": 1029,
      "and": 1030,
      "tain</w>": 1031,
      "fav": 1032,
      "questions</w>": 1033,
      "hand</w>": 1034,
      "looked</w>": 1035,
      "mistake</w>": 1036,
      "police</w>": 1037,
      "station</w>": 1038,
      "far</w>": 1039,
      "oud</w>": 1040,
      "finished</w>": 1041,
      "gone</w>": 1042,
      "study</w>": 1043,
      "disa": 1044,
      "lling</w>": 1045,
      "cy": 1046,
      "close</w>": 1047,
      "cat</w>": 1048,
      "sk": 1049,
      "movie</w>": 1050,
      "quite</w>": 1051,
      "stre": 1052,
      "men</w>": 1053,
      "coo": 1054,
      "surprised</w>": 1055,
      "sick</w>": 1056,
      "mil": 1057,
      "zy</w>": 1058,
      "tions</w>": 1059,
      "unti": 1060,
      "cro": 1061,
      "ins</w>": 1062,
      "sig": 1063,
      "inted</w>": 1064,
      "pid</w>": 1065,
      "trust</w>": 1066,
      "son": 1067,
      "suc": 1068,
      "dress</w>": 1069,
      "drive</w>": 1070,
      "v</w>": 1071,
      "head</w>": 1072,
      "sol": 1073,
      "until</w>": 1074,
      "trou": 1075,
      "accident</w>": 1076,
      "run</w>": 1077,
      "lunch</w>": 1078,
      "int": 1079,
      "ars</w>": 1080,
      "exac": 1081,
      "stupid</w>": 1082,
      "boy</w>": 1083,
      "succe": 1084,
      "girl</w>": 1085,
      "hand": 1086,
      "seri": 1087,
      "osed</w>": 1088,
      "ably</w>": 1089,
      "eating</w>": 1090,
      "zed</w>": 1091,
      "having</w>": 1092,
      "noon</w>": 1093,
      "gen": 1094,
      "ped</w>": 1095,
      "tv</w>": 1096,
      "broke</w>": 1097,
      "reading</w>": 1098,
      "pas": 1099,
      "nor": 1100,
      "va": 1101,
      "fire</w>": 1102,
      "musi": 1103,
      "buil": 1104,
      "makes</w>": 1105,
      "office</w>": 1106,
      "angry</w>": 1107,
      "wonder</w>": 1108,
      "sug": 1109,
      "weather</w>": 1110,
      "sha": 1111,
      "fun": 1112,
      "watch": 1113,
      "cal</w>": 1114,
      "dro": 1115,
      "expla": 1116,
      "up": 1117,
      "swim</w>": 1118,
      "fr": 1119,
      "mall</w>": 1120,
      "ese</w>": 1121,
      "lowed</w>": 1122,
      "yours</w>": 1123,
      "supposed</w>": 1124,
      "rough</w>": 1125,
      "tou": 1126,
      "promise</w>": 1127,
      "crea": 1128,
      "minutes</w>": 1129,
      "usually</w>": 1130,
      "under</w>": 1131,
      "cycle</w>": 1132,
      "says</w>": 1133,
      "him": 1134,
      "spend</w>": 1135,
      "decided</w>": 1136,
      "called</w>": 1137,
      "exactly</w>": 1138,
      "after": 1139,
      "den</w>": 1140,
      "ction</w>": 1141,
      "himself</w>": 1142,
      "ured</w>": 1143,
      "mmer</w>": 1144,
      "may": 1145,
      "playing</w>": 1146,
      "slee": 1147,
      "ago</w>": 1148,
      "fell</w>": 1149,
      "hours</w>": 1150,
      "strang": 1151,
      "drea": 1152,
      "sk</w>": 1153,
      "port</w>": 1154,
      "res</w>": 1155,
      "probably</w>": 1156,
      "window</w>": 1157,
      "ans</w>": 1158,
      "ged</w>": 1159,
      "road</w>": 1160,
      "free</w>": 1161,
      "als</w>": 1162,
      "chance</w>": 1163,
      "home": 1164,
      "ny</w>": 1165,
      "austra": 1166,
      "australi": 1167,
      "town</w>": 1168,
      "ining</w>": 1169,
      "eyes</w>": 1170,
      "scar": 1171,
      "secre": 1172,
      "part</w>": 1173,
      "invi": 1174,
      "ob": 1175,
      "students</w>": 1176,
      "ele": 1177,
      "small</w>": 1178,
      "ous": 1179,
      "australia</w>": 1180,
      "stan": 1181,
      "interested</w>": 1182,
      "hot</w>": 1183,
      "flo": 1184,
      "than": 1185,
      "later</w>": 1186,
      "guess</w>": 1187,
      "music</w>": 1188,
      "trouble</w>": 1189,
      "needs</w>": 1190,
      "consi": 1191,
      "comm": 1192,
      "afternoon</w>": 1193,
      "cky</w>": 1194,
      "worry</w>": 1195,
      "comple": 1196,
      "emp": 1197,
      "safe</w>": 1198,
      "park</w>": 1199,
      "kept</w>": 1200,
      "ging</w>": 1201,
      "listen</w>": 1202,
      "dge</w>": 1203,
      "hor": 1204,
      "ball</w>": 1205,
      "tree</w>": 1206,
      "lly</w>": 1207,
      "outside</w>": 1208,
      "through</w>": 1209,
      "win</w>": 1210,
      "picture</w>": 1211,
      "possible</w>": 1212,
      "it": 1213,
      "news</w>": 1214,
      "caught</w>": 1215,
      "advice</w>": 1216,
      "interesting</w>": 1217,
      "disapp": 1218,
      "bicycle</w>": 1219,
      "tele": 1220,
      "ight</w>": 1221,
      "bri": 1222,
      "cut</w>": 1223,
      "nei": 1224,
      "hurry</w>": 1225,
      "case</w>": 1226,
      "proud</w>": 1227,
      "ran</w>": 1228,
      "arrived</w>": 1229,
      "angu": 1230,
      "forgot</w>": 1231,
      "hung": 1232,
      "langu": 1233,
      "weren</w>": 1234,
      "country</w>": 1235,
      "taking</w>": 1236,
      "concer": 1237,
      "thers</w>": 1238,
      "bring</w>": 1239,
      "hungry</w>": 1240,
      "thinking</w>": 1241,
      "again": 1242,
      "against</w>": 1243,
      "sive</w>": 1244,
      "who": 1245,
      "ligh": 1246,
      "different</w>": 1247,
      "ered</w>": 1248,
      "run": 1249,
      "miss</w>": 1250,
      "fac": 1251,
      "ise</w>": 1252,
      "lose</w>": 1253,
      "break": 1254,
      "rest</w>": 1255,
      "number</w>": 1256,
      "lives</w>": 1257,
      "reci": 1258,
      "needed</w>": 1259,
      "hind</w>": 1260,
      "sal": 1261,
      "vel</w>": 1262,
      "behind</w>": 1263,
      "key</w>": 1264,
      "high</w>": 1265,
      "enjoy</w>": 1266,
      "maybe</w>": 1267,
      "compu": 1268,
      "fish</w>": 1269,
      "wine</w>": 1270,
      "hands</w>": 1271,
      "bur": 1272,
      "game</w>": 1273,
      "city</w>": 1274,
      "company</w>": 1275,
      "saying</w>": 1276,
      "ward</w>": 1277,
      "bab": 1278,
      "acce": 1279,
      "breakfast</w>": 1280,
      "cket</w>": 1281,
      "making</w>": 1282,
      "favori": 1283,
      "agree</w>": 1284,
      "reason</w>": 1285,
      "then</w>": 1286,
      "exper": 1287,
      "changed</w>": 1288,
      "erous</w>": 1289,
      "ship</w>": 1290,
      "perfe": 1291,
      "lie</w>": 1292,
      "shoes</w>": 1293,
      "japan</w>": 1294,
      "hospi": 1295,
      "homework</w>": 1296,
      "moment</w>": 1297,
      "dar": 1298,
      "born</w>": 1299,
      "living</w>": 1300,
      "catch</w>": 1301,
      "over": 1302,
      "favorite</w>": 1303,
      "ste</w>": 1304,
      "choice</w>": 1305,
      "tion": 1306,
      "wing</w>": 1307,
      "bar": 1308,
      "spa": 1309,
      "sses</w>": 1310,
      "ings</w>": 1311,
      "laugh": 1312,
      "fied</w>": 1313,
      "pping</w>": 1314,
      "wed</w>": 1315,
      "ely</w>": 1316,
      "compla": 1317,
      "ner": 1318,
      "busin": 1319,
      "finish</w>": 1320,
      "logi": 1321,
      "ssion</w>": 1322,
      "expen": 1323,
      "dered</w>": 1324,
      "thanks</w>": 1325,
      "lf</w>": 1326,
      "irs</w>": 1327,
      "summer</w>": 1328,
      "wear</w>": 1329,
      "die</w>": 1330,
      "wake</w>": 1331,
      "ssing</w>": 1332,
      "cha": 1333,
      "situ": 1334,
      "test</w>": 1335,
      "face</w>": 1336,
      "kil": 1337,
      "appreci": 1338,
      "am": 1339,
      "lity</w>": 1340,
      "daugh": 1341,
      "vol": 1342,
      "quit</w>": 1343,
      "cloth": 1344,
      "lucky</w>": 1345,
      "unk</w>": 1346,
      "shing</w>": 1347,
      "dead</w>": 1348,
      "become</w>": 1349,
      "ened</w>": 1350,
      "ched</w>": 1351,
      "works</w>": 1352,
      "infor": 1353,
      "char": 1354,
      "full</w>": 1355,
      "clothes</w>": 1356,
      "aring</w>": 1357,
      "somebody</w>": 1358,
      "heal": 1359,
      "yer</w>": 1360,
      "older</w>": 1361,
      "class</w>": 1362,
      "girl": 1363,
      "ately</w>": 1364,
      "fully</w>": 1365,
      "cost</w>": 1366,
      "worried</w>": 1367,
      "meri": 1368,
      "serious</w>": 1369,
      "near</w>": 1370,
      "girlfriend</w>": 1371,
      "explain</w>": 1372,
      "bra": 1373,
      "kids</w>": 1374,
      "whe": 1375,
      "business</w>": 1376,
      "quick": 1377,
      "tre": 1378,
      "hon": 1379,
      "bea": 1380,
      "visit</w>": 1381,
      "grand": 1382,
      "crazy</w>": 1383,
      "its</w>": 1384,
      "break</w>": 1385,
      "ack": 1386,
      "song</w>": 1387,
      "list</w>": 1388,
      "ameri": 1389,
      "beer</w>": 1390,
      "baby</w>": 1391,
      "funny</w>": 1392,
      "decision</w>": 1393,
      "cer</w>": 1394,
      "month</w>": 1395,
      "stayed</w>": 1396,
      "tually</w>": 1397,
      "quickly</w>": 1398,
      "reco": 1399,
      "wearing</w>": 1400,
      "situation</w>": 1401,
      "point</w>": 1402,
      "box</w>": 1403,
      "scared</w>": 1404,
      "ring</w>": 1405,
      "spent</w>": 1406,
      "paid</w>": 1407,
      "river</w>": 1408,
      "discu": 1409,
      "even": 1410,
      "guys</w>": 1411,
      "spon": 1412,
      "sometimes</w>": 1413,
      "secret</w>": 1414,
      "team</w>": 1415,
      "comes</w>": 1416,
      "rich</w>": 1417,
      "dra": 1418,
      "tea</w>": 1419,
      "sense</w>": 1420,
      "rela": 1421,
      "es": 1422,
      "whole</w>": 1423,
      "guy</w>": 1424,
      "sts</w>": 1425,
      "computer</w>": 1426,
      "deal</w>": 1427,
      "feeling</w>": 1428,
      "monday</w>": 1429,
      "expensive</w>": 1430,
      "daughter</w>": 1431,
      "ini": 1432,
      "ste": 1433,
      "hour</w>": 1434,
      "cy</w>": 1435,
      "disappo": 1436,
      "appreciate</w>": 1437,
      "strange</w>": 1438,
      "hospital</w>": 1439,
      "solu": 1440,
      "sou": 1441,
      "ated</w>": 1442,
      "move</w>": 1443,
      "smar": 1444,
      "lar</w>": 1445,
      "hat</w>": 1446,
      "atten": 1447,
      "ween</w>": 1448,
      "asle": 1449,
      "asleep</w>": 1450,
      "sound</w>": 1451,
      "japan": 1452,
      "japanese</w>": 1453,
      "cli": 1454,
      "present</w>": 1455,
      "hote": 1456,
      "vac": 1457,
      "pati": 1458,
      "rying</w>": 1459,
      "shu": 1460,
      "sugge": 1461,
      "smoking</w>": 1462,
      "terri": 1463,
      "sat</w>": 1464,
      "nece": 1465,
      "real</w>": 1466,
      "apo": 1467,
      "dark</w>": 1468,
      "vin": 1469,
      "woman</w>": 1470,
      "plane</w>": 1471,
      "count</w>": 1472,
      "tenn": 1473,
      "ties</w>": 1474,
      "eaten</w>": 1475,
      "snow</w>": 1476,
      "milk</w>": 1477,
      "store</w>": 1478,
      "experi": 1479,
      "secon": 1480,
      "five</w>": 1481,
      "clean</w>": 1482,
      "tennis</w>": 1483,
      "lying</w>": 1484,
      "loves</w>": 1485,
      "cent</w>": 1486,
      "stopped</w>": 1487,
      "death</w>": 1488,
      "arm</w>": 1489,
      "war</w>": 1490,
      "large</w>": 1491,
      "dangerous</w>": 1492,
      "wha": 1493,
      "killed</w>": 1494,
      "respon": 1495,
      "hotel</w>": 1496,
      "dding</w>": 1497,
      "began</w>": 1498,
      "clu": 1499,
      "advised</w>": 1500,
      "hold</w>": 1501,
      "watching</w>": 1502,
      "necess": 1503,
      "student</w>": 1504,
      "sci": 1505,
      "along</w>": 1506,
      "street</w>": 1507,
      "cei": 1508,
      "fron": 1509,
      "blo": 1510,
      "ounds</w>": 1511,
      "oc": 1512,
      "short</w>": 1513,
      "problems</w>": 1514,
      "thirty</w>": 1515,
      "known</w>": 1516,
      "colle": 1517,
      "aw": 1518,
      "missed</w>": 1519,
      "smi": 1520,
      "trip</w>": 1521,
      "fic</w>": 1522,
      "noti": 1523,
      "bet": 1524,
      "between</w>": 1525,
      "resta": 1526,
      "restaur": 1527,
      "minute</w>": 1528,
      "accu": 1529,
      "dou": 1530,
      "mag": 1531,
      "sy": 1532,
      "ger": 1533,
      "became</w>": 1534,
      "gy</w>": 1535,
      "clock</w>": 1536,
      "tic": 1537,
      "wonder": 1538,
      "expect</w>": 1539,
      "tun": 1540,
      "ject</w>": 1541,
      "opini": 1542,
      "line</w>": 1543,
      "bl": 1544,
      "pain</w>": 1545,
      "liked</w>": 1546,
      "front</w>": 1547,
      "heart</w>": 1548,
      "men": 1549,
      "kill</w>": 1550,
      "language</w>": 1551,
      "sme": 1552,
      "ren": 1553,
      "invited</w>": 1554,
      "corre": 1555,
      "ors</w>": 1556,
      "happens</w>": 1557,
      "cup</w>": 1558,
      "mistakes</w>": 1559,
      "pie": 1560,
      "ously</w>": 1561,
      "speaking</w>": 1562,
      "ler</w>": 1563,
      "talked</w>": 1564,
      "irt</w>": 1565,
      "studying</w>": 1566,
      "boss</w>": 1567,
      "im": 1568,
      "necessary</w>": 1569,
      "gotten</w>": 1570,
      "00</w>": 1571,
      "ening</w>": 1572,
      "words</w>": 1573,
      "rote</w>": 1574,
      "building</w>": 1575,
      "doll": 1576,
      "finally</w>": 1577,
      "ff</w>": 1578,
      "week": 1579,
      "order</w>": 1580,
      "hit</w>": 1581,
      "qua": 1582,
      "convin": 1583,
      "trans": 1584,
      "rather</w>": 1585,
      "allowed</w>": 1586,
      "cake</w>": 1587,
      "worked</w>": 1588,
      "restaurant</w>": 1589,
      "closed</w>": 1590,
      "dogs</w>": 1591,
      "wrote</w>": 1592,
      "whether</w>": 1593,
      "perfect</w>": 1594,
      "neigh": 1595,
      "ness</w>": 1596,
      "worth</w>": 1597,
      "selves</w>": 1598,
      "paper</w>": 1599,
      "informa": 1600,
      "vel": 1601,
      "mming</w>": 1602,
      "lived</w>": 1603,
      "coat</w>": 1604,
      "telling</w>": 1605,
      "half</w>": 1606,
      "information</w>": 1607,
      "deser": 1608,
      "touch</w>": 1609,
      "30</w>": 1610,
      "inst": 1611,
      "broken</w>": 1612,
      "wel": 1613,
      "nerv": 1614,
      "check</w>": 1615,
      "enti": 1616,
      "refu": 1617,
      "cur": 1618,
      "impre": 1619,
      "cial</w>": 1620,
      "takes</w>": 1621,
      "band</w>": 1622,
      "second</w>": 1623,
      "helped</w>": 1624,
      "sever": 1625,
      "drunk</w>": 1626,
      "act</w>": 1627,
      "weight</w>": 1628,
      "her": 1629,
      "quiet</w>": 1630,
      "lent</w>": 1631,
      "completely</w>": 1632,
      "writing</w>": 1633,
      "goes</w>": 1634,
      "lled</w>": 1635,
      "prefer</w>": 1636,
      "mp</w>": 1637,
      "excu": 1638,
      "running</w>": 1639,
      "clear</w>": 1640,
      "pho": 1641,
      "air": 1642,
      "report</w>": 1643,
      "blu": 1644,
      "actually</w>": 1645,
      "zz": 1646,
      "others</w>": 1647,
      "ari": 1648,
      "leaving</w>": 1649,
      "shot</w>": 1650,
      "brought</w>": 1651,
      "birth": 1652,
      "mple</w>": 1653,
      "agre": 1654,
      "easi": 1655,
      "happening</w>": 1656,
      "least</w>": 1657,
      "like": 1658,
      "air</w>": 1659,
      "ns</w>": 1660,
      "law": 1661,
      "shut</w>": 1662,
      "nervous</w>": 1663,
      "tis": 1664,
      "ker</w>": 1665,
      "stood</w>": 1666,
      "evening</w>": 1667,
      "sub": 1668,
      "len</w>": 1669,
      "land</w>": 1670,
      "exa": 1671,
      "iled</w>": 1672,
      "mes": 1673,
      "cks</w>": 1674,
      "tic</w>": 1675,
      "gets</w>": 1676,
      "cook</w>": 1677,
      "sign</w>": 1678,
      "swimming</w>": 1679,
      "handle</w>": 1680,
      "apologi": 1681,
      "ming</w>": 1682,
      "mous</w>": 1683,
      "racti": 1684,
      "ction": 1685,
      "opinion</w>": 1686,
      "umb": 1687,
      "tted</w>": 1688,
      "expected</w>": 1689,
      "reali": 1690,
      "fix</w>": 1691,
      "speaks</w>": 1692,
      "mad</w>": 1693,
      "seat</w>": 1694,
      "doub": 1695,
      "beach</w>": 1696,
      "birthday</w>": 1697,
      "lied</w>": 1698,
      "lowers</w>": 1699,
      ":</w>": 1700,
      "garden</w>": 1701,
      "likely</w>": 1702,
      "ult</w>": 1703,
      "disappointed</w>": 1704,
      "smoke</w>": 1705,
      "rules</w>": 1706,
      "flowers</w>": 1707,
      "imag": 1708,
      "dance</w>": 1709,
      "spect</w>": 1710,
      "six</w>": 1711,
      "certain</w>": 1712,
      "white</w>": 1713,
      "fine</w>": 1714,
      "contin": 1715,
      "prepar": 1716,
      "whate": 1717,
      "whatever</w>": 1718,
      "stic</w>": 1719,
      "ket</w>": 1720,
      "loved</w>": 1721,
      "prote": 1722,
      "forward</w>": 1723,
      "strong</w>": 1724,
      "future</w>": 1725,
      "dist": 1726,
      "sage</w>": 1727,
      "glass</w>": 1728,
      "noise</w>": 1729,
      "gni": 1730,
      "recei": 1731,
      "shirt</w>": 1732,
      "dream</w>": 1733,
      "temp": 1734,
      "weekend</w>": 1735,
      "satis": 1736,
      "tures</w>": 1737,
      "esca": 1738,
      "resu": 1739,
      "shopping</w>": 1740,
      "fig": 1741,
      "either</w>": 1742,
      "cel": 1743,
      "several</w>": 1744,
      "walked</w>": 1745,
      "ters</w>": 1746,
      "sting</w>": 1747,
      "somewhere</w>": 1748,
      "pres": 1749,
      "opp": 1750,
      "bli": 1751,
      "cting</w>": 1752,
      "liar</w>": 1753,
      "stairs</w>": 1754,
      "vered</w>": 1755,
      "diction": 1756,
      "cannot</w>": 1757,
      "fal": 1758,
      "floor</w>": 1759,
      "sounds</w>": 1760,
      "tall</w>": 1761,
      "ery</w>": 1762,
      "thinks</w>": 1763,
      "is": 1764,
      "continu": 1765,
      "gro": 1766,
      "py</w>": 1767,
      "sleeping</w>": 1768,
      "regre": 1769,
      "figured</w>": 1770,
      "dollars</w>": 1771,
      "cated</w>": 1772,
      "begin": 1773,
      "eg": 1774,
      "fortun": 1775,
      "enty</w>": 1776,
      "sad</w>": 1777,
      "whose</w>": 1778,
      "price</w>": 1779,
      "thi": 1780,
      "waste</w>": 1781,
      "upset</w>": 1782,
      "ig": 1783,
      "dictionary</w>": 1784,
      "hasn</w>": 1785,
      "standing</w>": 1786,
      "bag</w>": 1787,
      "gun</w>": 1788,
      "desk</w>": 1789,
      "near": 1790,
      "glasses</w>": 1791,
      "keys</w>": 1792,
      "offer</w>": 1793,
      "umbre": 1794,
      "ounded</w>": 1795,
      "visi": 1796,
      "health</w>": 1797,
      "lawyer</w>": 1798,
      "kets</w>": 1799,
      "flu": 1800,
      "written</w>": 1801,
      "ages</w>": 1802,
      "libr": 1803,
      "ano</w>": 1804,
      "new": 1805,
      "correct</w>": 1806,
      "spee": 1807,
      "publi": 1808,
      "danger</w>": 1809,
      "moun": 1810,
      "pain": 1811,
      "follow</w>": 1812,
      "ene": 1813,
      "medic": 1814,
      "recogni": 1815,
      "famous</w>": 1816,
      "seeing</w>": 1817,
      "vy</w>": 1818,
      "attention</w>": 1819,
      "taken</w>": 1820,
      "rema": 1821,
      "tment</w>": 1822,
      "piano</w>": 1823,
      "piece</w>": 1824,
      "san": 1825,
      "lla</w>": 1826,
      "dur": 1827,
      "owe</w>": 1828,
      "lies</w>": 1829,
      "fight</w>": 1830,
      "2</w>": 1831,
      "bank</w>": 1832,
      "kiss</w>": 1833,
      "drinking</w>": 1834,
      "pur": 1835,
      "forei": 1836,
      "foreig": 1837,
      "umbrella</w>": 1838,
      "date</w>": 1839,
      "means</w>": 1840,
      "difference</w>": 1841,
      "tax": 1842,
      "accept</w>": 1843,
      "mail</w>": 1844,
      "given</w>": 1845,
      "mb</w>": 1846,
      "responsi": 1847,
      "asking</w>": 1848,
      "cts</w>": 1849,
      "popu": 1850,
      "spoke</w>": 1851,
      "mal</w>": 1852,
      "sist": 1853,
      "send</w>": 1854,
      "chea": 1855,
      "mit</w>": 1856,
      "library</w>": 1857,
      "hus": 1858,
      "solve</w>": 1859,
      "during</w>": 1860,
      "opened</w>": 1861,
      "immedi": 1862,
      "promised</w>": 1863,
      "ended</w>": 1864,
      "crying</w>": 1865,
      "sud": 1866,
      "comfor": 1867,
      "ef</w>": 1868,
      "traf": 1869,
      "message</w>": 1870,
      "camer": 1871,
      "inside</w>": 1872,
      "choose</w>": 1873,
      "traffic</w>": 1874,
      "thy</w>": 1875,
      "contro": 1876,
      "pass</w>": 1877,
      "tie</w>": 1878,
      "teach</w>": 1879,
      "medicine</w>": 1880,
      "luck</w>": 1881,
      "listening</w>": 1882,
      "kni": 1883,
      "fault</w>": 1884,
      "our": 1885,
      "impo": 1886,
      "dressed</w>": 1887,
      "dle</w>": 1888,
      "learned</w>": 1889,
      "ber</w>": 1890,
      "save</w>": 1891,
      "fair</w>": 1892,
      "vacation</w>": 1893,
      "ries</w>": 1894,
      "poor</w>": 1895,
      "fla": 1896,
      "horse</w>": 1897,
      "husband</w>": 1898,
      "ticket</w>": 1899,
      "ignor": 1900,
      "kid</w>": 1901,
      "excuse</w>": 1902,
      "ext": 1903,
      "girls</w>": 1904,
      "deli": 1905,
      "ton</w>": 1906,
      "newspa": 1907,
      "women</w>": 1908,
      "address</w>": 1909,
      "cious</w>": 1910,
      "lls</w>": 1911,
      "inj": 1912,
      "ple</w>": 1913,
      "ty": 1914,
      "um</w>": 1915,
      "guit": 1916,
      "stor": 1917,
      "rope</w>": 1918,
      "borrow</w>": 1919,
      "argu": 1920,
      "ering</w>": 1921,
      "lau": 1922,
      "worse</w>": 1923,
      "blame</w>": 1924,
      "sli": 1925,
      "smart</w>": 1926,
      "cour": 1927,
      "alive</w>": 1928,
      "plans</w>": 1929,
      "ef": 1930,
      "emb": 1931,
      "planning</w>": 1932,
      "black</w>": 1933,
      "waited</w>": 1934,
      "survi": 1935,
      "apple</w>": 1936,
      "injured</w>": 1937,
      "stri": 1938,
      "cation</w>": 1939,
      "concert</w>": 1940,
      "meat</w>": 1941,
      "acro": 1942,
      "empty</w>": 1943,
      "patient</w>": 1944,
      "slept</w>": 1945,
      "top</w>": 1946,
      "join</w>": 1947,
      "immediately</w>": 1948,
      "ahead</w>": 1949,
      "yes</w>": 1950,
      "manag": 1951,
      "adi": 1952,
      "satisfied</w>": 1953,
      "vision</w>": 1954,
      "neighbor": 1955,
      "telephone</w>": 1956,
      "frien": 1957,
      "hardly</w>": 1958,
      "tters</w>": 1959,
      "camera</w>": 1960,
      "fur": 1961,
      "ot</w>": 1962,
      "swe": 1963,
      "pea": 1964,
      "admi": 1965,
      "od": 1966,
      "twi": 1967,
      "fired</w>": 1968,
      "across</w>": 1969,
      "joke</w>": 1970,
      "trea": 1971,
      "radi": 1972,
      "get": 1973,
      "ders</w>": 1974,
      "uncle</w>": 1975,
      "cing</w>": 1976,
      "sky</w>": 1977,
      "pen</w>": 1978,
      "willing</w>": 1979,
      "arti": 1980,
      "driving</w>": 1981,
      "lts</w>": 1982,
      "apologize</w>": 1983,
      "moved</w>": 1984,
      "fru": 1985,
      "carefully</w>": 1986,
      "showed</w>": 1987,
      "pictures</w>": 1988,
      "speech</w>": 1989,
      "lake</w>": 1990,
      "blue</w>": 1991,
      "teen</w>": 1992,
      "staying</w>": 1993,
      "lou": 1994,
      "ants</w>": 1995,
      "law</w>": 1996,
      "prepared</w>": 1997,
      "chair</w>": 1998,
      "suppose</w>": 1999,
      "driver</w>": 2000,
      "stro": 2001,
      "success</w>": 2002,
      "ford</w>": 2003,
      "smell</w>": 2004,
      "regret</w>": 2005,
      "boy": 2006,
      "mach": 2007,
      "sell</w>": 2008,
      "none</w>": 2009,
      "four</w>": 2010,
      "mou": 2011,
      "dence</w>": 2012,
      "gift</w>": 2013,
      "lier</w>": 2014,
      "xed</w>": 2015,
      "seemed</w>": 2016,
      "beginning</w>": 2017,
      "ca</w>": 2018,
      "ils</w>": 2019,
      "consider</w>": 2020,
      "canadi": 2021,
      "experience</w>": 2022,
      "played</w>": 2023,
      "wash</w>": 2024,
      "impossible</w>": 2025,
      "adv": 2026,
      "arrive</w>": 2027,
      "discuss</w>": 2028,
      "weir": 2029,
      "sea": 2030,
      "travel": 2031,
      "earlier</w>": 2032,
      "ski": 2033,
      "cats</w>": 2034,
      "raining</w>": 2035,
      "lock</w>": 2036,
      "cap": 2037,
      "travel</w>": 2038,
      "guitar</w>": 2039,
      "storm</w>": 2040,
      "boys</w>": 2041,
      "intro": 2042,
      "fit</w>": 2043,
      "memor": 2044,
      "couple</w>": 2045,
      "warm</w>": 2046,
      "cry</w>": 2047,
      "afford</w>": 2048,
      "invol": 2049,
      "dan": 2050,
      "terrible</w>": 2051,
      "boyfriend</w>": 2052,
      "parti": 2053,
      "passed</w>": 2054,
      "movies</w>": 2055,
      "college</w>": 2056,
      "comfortable</w>": 2057,
      "bru": 2058,
      "welcome</w>": 2059,
      "radio</w>": 2060,
      "grow</w>": 2061,
      "ths</w>": 2062,
      "sitting</w>": 2063,
      "partment</w>": 2064,
      "shes</w>": 2065,
      "television</w>": 2066,
      "stuff</w>": 2067,
      "avo": 2068,
      "pick</w>": 2069,
      "decide</w>": 2070,
      "fat</w>": 2071,
      "holi": 2072,
      "color</w>": 2073,
      "wonderful</w>": 2074,
      "laugh</w>": 2075,
      "crow": 2076,
      "ride</w>": 2077,
      "gle</w>": 2078,
      "anim": 2079,
      "bill</w>": 2080,
      "market</w>": 2081,
      "ently</w>": 2082,
      "figu": 2083,
      "person": 2084,
      "zing</w>": 2085,
      "sunday</w>": 2086,
      "embar": 2087,
      "veget": 2088,
      "absolu": 2089,
      "kissed</w>": 2090,
      "fall</w>": 2091,
      "produ": 2092,
      "lend</w>": 2093,
      "walking</w>": 2094,
      "throw</w>": 2095,
      "control</w>": 2096,
      "past</w>": 2097,
      "ber": 2098,
      "wall</w>": 2099,
      "harder</w>": 2100,
      "ments</w>": 2101,
      "pair</w>": 2102,
      "honest</w>": 2103,
      "cru": 2104,
      "surprise</w>": 2105,
      "sight</w>": 2106,
      "dom</w>": 2107,
      "begin</w>": 2108,
      "mid": 2109,
      "animals</w>": 2110,
      "abroad</w>": 2111,
      "sear": 2112,
      "des</w>": 2113,
      "por": 2114,
      "rested</w>": 2115,
      "ky": 2116,
      "exci": 2117,
      "blood</w>": 2118,
      "tors</w>": 2119,
      "also</w>": 2120,
      "ser</w>": 2121,
      "embarra": 2122,
      "machine</w>": 2123,
      "weird</w>": 2124,
      "foreign</w>": 2125,
      "laughing</w>": 2126,
      "agreed</w>": 2127,
      "gent</w>": 2128,
      "mur": 2129,
      "lights</w>": 2130,
      "val": 2131,
      "bike</w>": 2132,
      "tional</w>": 2133,
      "common</w>": 2134,
      "bility</w>": 2135,
      "though</w>": 2136,
      "tation</w>": 2137,
      "mped</w>": 2138,
      "sugar</w>": 2139,
      "soon": 2140,
      "sooner</w>": 2141,
      "coura": 2142,
      "sport</w>": 2143,
      "doubt</w>": 2144,
      "19": 2145,
      "prison</w>": 2146,
      "xi": 2147,
      "kee": 2148,
      "tally</w>": 2149,
      "high": 2150,
      "compli": 2151,
      "kin": 2152,
      "jack": 2153,
      "return</w>": 2154,
      "shop</w>": 2155,
      "deta": 2156,
      "winter</w>": 2157,
      "involved</w>": 2158,
      "pted</w>": 2159,
      "knife</w>": 2160,
      "curi": 2161,
      "ctive</w>": 2162,
      "airport</w>": 2163,
      "practi": 2164,
      "ond</w>": 2165,
      "wn": 2166,
      "covered</w>": 2167,
      "built</w>": 2168,
      "confi": 2169,
      "heavy</w>": 2170,
      "easily</w>": 2171,
      "obvi": 2172,
      "anywhere</w>": 2173,
      "lla": 2174,
      "base": 2175,
      "figure</w>": 2176,
      "bet</w>": 2177,
      "painting</w>": 2178,
      "locked</w>": 2179,
      "novel</w>": 2180,
      "propo": 2181,
      "boat</w>": 2182,
      "twice</w>": 2183,
      "eggs</w>": 2184,
      "gest</w>": 2185,
      "followed</w>": 2186,
      "enjoyed</w>": 2187,
      "younger</w>": 2188,
      "mission</w>": 2189,
      "introdu": 2190,
      "earth</w>": 2191,
      "native</w>": 2192,
      "mom</w>": 2193,
      "lin": 2194,
      "convinced</w>": 2195,
      "but": 2196,
      "succeed</w>": 2197,
      "fishing</w>": 2198,
      "stolen</w>": 2199,
      "exce": 2200,
      "kitch": 2201,
      "risk</w>": 2202,
      "bother</w>": 2203,
      "singing</w>": 2204,
      "vie": 2205,
      "ache</w>": 2206,
      "idea": 2207,
      "weeks</w>": 2208,
      "at": 2209,
      "aning</w>": 2210,
      "mountain</w>": 2211,
      "cute</w>": 2212,
      "kitchen</w>": 2213,
      "dire": 2214,
      "drank</w>": 2215,
      "confu": 2216,
      "answer": 2217,
      "condi": 2218,
      "admit</w>": 2219,
      "giving</w>": 2220,
      "shar": 2221,
      "calm</w>": 2222,
      "hood</w>": 2223,
      "shower</w>": 2224,
      "impro": 2225,
      "plo": 2226,
      "ideas</w>": 2227,
      "bottle</w>": 2228,
      "oper": 2229,
      "eye</w>": 2230,
      "public</w>": 2231,
      "asha": 2232,
      "ashamed</w>": 2233,
      "suit": 2234,
      "clear": 2235,
      "denti": 2236,
      "meant</w>": 2237,
      "taxi</w>": 2238,
      "held</w>": 2239,
      "suf": 2240,
      "impressed</w>": 2241,
      "cream</w>": 2242,
      "charge</w>": 2243,
      "favor</w>": 2244,
      "enter": 2245,
      "sun</w>": 2246,
      "trees</w>": 2247,
      "3</w>": 2248,
      "plenty</w>": 2249,
      "taught</w>": 2250,
      "lowing</w>": 2251,
      "down": 2252,
      "tened</w>": 2253,
      "use": 2254,
      "ran": 2255,
      "card</w>": 2256,
      "apples</w>": 2257,
      "leaves</w>": 2258,
      "yel": 2259,
      "special</w>": 2260,
      "anta": 2261,
      "rely</w>": 2262,
      "ctly</w>": 2263,
      "inno": 2264,
      "bread</w>": 2265,
      "mer</w>": 2266,
      "stru": 2267,
      "drop</w>": 2268,
      "inten": 2269,
      "faster</w>": 2270,
      "gover": 2271,
      "usual</w>": 2272,
      "tball</w>": 2273,
      "sno": 2274,
      "scri": 2275,
      "rid</w>": 2276,
      "big": 2277,
      "abo": 2278,
      "ables</w>": 2279,
      "absolutely</w>": 2280,
      "gly</w>": 2281,
      "recen": 2282,
      "recently</w>": 2283,
      "ban": 2284,
      "laughed</w>": 2285,
      "rent</w>": 2286,
      "leg</w>": 2287,
      "dest</w>": 2288,
      "canadian</w>": 2289,
      "sudden": 2290,
      "suddenly</w>": 2291,
      "lli": 2292,
      "refused</w>": 2293,
      "carry</w>": 2294,
      "suggest</w>": 2295,
      "inci": 2296,
      "cooking</w>": 2297,
      "calling</w>": 2298,
      "grandfather</w>": 2299,
      "aware</w>": 2300,
      "sal</w>": 2301,
      "hadn</w>": 2302,
      "newspaper</w>": 2303,
      "eu": 2304,
      "ending</w>": 2305,
      "5</w>": 2306,
      "sche": 2307,
      "simple</w>": 2308,
      "taller</w>": 2309,
      "squ": 2310,
      "america</w>": 2311,
      "possi": 2312,
      "ired</w>": 2313,
      "ff": 2314,
      "learning</w>": 2315,
      "lonely</w>": 2316,
      "toes</w>": 2317,
      "muse": 2318,
      "fool</w>": 2319,
      "ating</w>": 2320,
      "bird</w>": 2321,
      "jeal": 2322,
      "beat</w>": 2323,
      "months</w>": 2324,
      "failed</w>": 2325,
      "saved</w>": 2326,
      "joh": 2327,
      "john</w>": 2328,
      "govern": 2329,
      "recognize</w>": 2330,
      "chin": 2331,
      "pressed</w>": 2332,
      "shor": 2333,
      "toky": 2334,
      "tokyo</w>": 2335,
      "obe": 2336,
      "penci": 2337,
      "ow": 2338,
      "guil": 2339,
      "ler": 2340,
      "buying</w>": 2341,
      "appro": 2342,
      "tory</w>": 2343,
      "hide</w>": 2344,
      "org": 2345,
      "super": 2346,
      "dad</w>": 2347,
      "share</w>": 2348,
      "ama": 2349,
      "ches</w>": 2350,
      "missing</w>": 2351,
      "kidding</w>": 2352,
      "woke</w>": 2353,
      "seriously</w>": 2354,
      "soc": 2355,
      "opport": 2356,
      "apartment</w>": 2357,
      "voice</w>": 2358,
      "warned</w>": 2359,
      "ab</w>": 2360,
      "starting</w>": 2361,
      "chur": 2362,
      "helping</w>": 2363,
      "allow</w>": 2364,
      "div": 2365,
      "wind</w>": 2366,
      "gg": 2367,
      "dep": 2368,
      "deserve</w>": 2369,
      "puni": 2370,
      "stick</w>": 2371,
      "worst</w>": 2372,
      "stuck</w>": 2373,
      "bal": 2374,
      "soccer</w>": 2375,
      "enemy</w>": 2376,
      "dred</w>": 2377,
      "ges</w>": 2378,
      "ill</w>": 2379,
      "acting</w>": 2380,
      "duty</w>": 2381,
      "popular</w>": 2382,
      "villa": 2383,
      "wedding</w>": 2384,
      "mor</w>": 2385,
      "normal</w>": 2386,
      "exam</w>": 2387,
      "cul": 2388,
      "jealous</w>": 2389,
      "ground</w>": 2390,
      "opportuni": 2391,
      "slow": 2392,
      "sil": 2393,
      "protect</w>": 2394,
      "bridge</w>": 2395,
      "solution</w>": 2396,
      "evi": 2397,
      "watched</w>": 2398,
      "ply</w>": 2399,
      "explan": 2400,
      "posi": 2401,
      "hundred</w>": 2402,
      "tence</w>": 2403,
      "acked</w>": 2404,
      "mal": 2405,
      "arrested</w>": 2406,
      "foot</w>": 2407,
      "mouth</w>": 2408,
      "univer": 2409,
      "schedu": 2410,
      "cool</w>": 2411,
      "ching</w>": 2412,
      "eth</w>": 2413,
      "kers</w>": 2414,
      "stole</w>": 2415,
      "church</w>": 2416,
      "appo": 2417,
      "bly</w>": 2418,
      "cooki": 2419,
      "extreme": 2420,
      "extremely</w>": 2421,
      "pes</w>": 2422,
      "tici": 2423,
      "slowly</w>": 2424,
      "soldi": 2425,
      "sentence</w>": 2426,
      "prices</w>": 2427,
      "sleepy</w>": 2428,
      "head": 2429,
      "lation</w>": 2430,
      "woo": 2431,
      "lots</w>": 2432,
      "painted</w>": 2433,
      "ble": 2434,
      "expecting</w>": 2435,
      "friendly</w>": 2436,
      "ens</w>": 2437,
      "american</w>": 2438,
      "mate</w>": 2439,
      "lan": 2440,
      "beha": 2441,
      "sity</w>": 2442,
      "pleased</w>": 2443,
      "inv": 2444,
      "pass": 2445,
      "neither</w>": 2446,
      "caused</w>": 2447,
      "logy</w>": 2448,
      "translate</w>": 2449,
      "assu": 2450,
      "octo": 2451,
      "respect</w>": 2452,
      "awake</w>": 2453,
      "dir": 2454,
      "marry</w>": 2455,
      "responsible</w>": 2456,
      "realize</w>": 2457,
      "view</w>": 2458,
      "feels</w>": 2459,
      "pizz": 2460,
      "dru": 2461,
      "teeth</w>": 2462,
      "attend</w>": 2463,
      "button</w>": 2464,
      "bas": 2465,
      "studied</w>": 2466,
      "fly</w>": 2467,
      "ead</w>": 2468,
      "plays</w>": 2469,
      "stea": 2470,
      "feelings</w>": 2471,
      "bored</w>": 2472,
      "october</w>": 2473,
      "herself</w>": 2474,
      "project</w>": 2475,
      "received</w>": 2476,
      "oned</w>": 2477,
      "gal</w>": 2478,
      "step</w>": 2479,
      "doors</w>": 2480,
      "government</w>": 2481,
      "choco": 2482,
      "ol</w>": 2483,
      "absent</w>": 2484,
      "thous": 2485,
      "boring</w>": 2486,
      "guilty</w>": 2487,
      "fruit</w>": 2488,
      "fear</w>": 2489,
      "gged</w>": 2490,
      "feet</w>": 2491,
      "mbers</w>": 2492,
      "till</w>": 2493,
      "bul": 2494,
      "photo": 2495,
      "fif": 2496,
      "gun": 2497,
      "shel": 2498,
      "course</w>": 2499,
      "notice</w>": 2500,
      "anno": 2501,
      "presi": 2502,
      "continue</w>": 2503,
      "explanation</w>": 2504,
      "baseball</w>": 2505,
      "board</w>": 2506,
      "organi": 2507,
      "museum</w>": 2508,
      "seven</w>": 2509,
      "instead</w>": 2510,
      "sold</w>": 2511,
      "ordered</w>": 2512,
      "divor": 2513,
      "cars</w>": 2514,
      "fact</w>": 2515,
      "vegetables</w>": 2516,
      "hau": 2517,
      "accused</w>": 2518,
      "wallet</w>": 2519,
      "gener": 2520,
      "breath</w>": 2521,
      "bed": 2522,
      "cards</w>": 2523,
      "spring</w>": 2524,
      "10</w>": 2525,
      "tain": 2526,
      "meal</w>": 2527,
      "paint</w>": 2528,
      "sort</w>": 2529,
      "history</w>": 2530,
      "loud</w>": 2531,
      "hates</w>": 2532,
      "sty</w>": 2533,
      "dirty</w>": 2534,
      "vote</w>": 2535,
      "fresh</w>": 2536,
      "dry</w>": 2537,
      "forgotten</w>": 2538,
      "smile</w>": 2539,
      "noticed</w>": 2540,
      "wise</w>": 2541,
      "off": 2542,
      "idi": 2543,
      "neighbors</w>": 2544,
      "vely</w>": 2545,
      "gradu": 2546,
      "swea": 2547,
      "hang</w>": 2548,
      "custo": 2549,
      "bath</w>": 2550,
      "elec": 2551,
      "ta</w>": 2552,
      "innocent</w>": 2553,
      "preten": 2554,
      "perha": 2555,
      "perhaps</w>": 2556,
      "green</w>": 2557,
      "escape</w>": 2558,
      "dropped</w>": 2559,
      "sna": 2560,
      "sla": 2561,
      "support</w>": 2562,
      "feed</w>": 2563,
      "village</w>": 2564,
      "president</w>": 2565,
      "reli": 2566,
      "god</w>": 2567,
      "volun": 2568,
      "cking</w>": 2569,
      "pizza</w>": 2570,
      "salt</w>": 2571,
      "memory</w>": 2572,
      "ror</w>": 2573,
      "suitcase</w>": 2574,
      "tor": 2575,
      "scre": 2576,
      "slow</w>": 2577,
      "considered</w>": 2578,
      "intment</w>": 2579,
      "tics</w>": 2580,
      "nearly</w>": 2581,
      "tex": 2582,
      "deep</w>": 2583,
      "requ": 2584,
      "tickets</w>": 2585,
      "rule</w>": 2586,
      "poe": 2587,
      "power</w>": 2588,
      "truck</w>": 2589,
      "particu": 2590,
      "cs</w>": 2591,
      "ones</w>": 2592,
      "languages</w>": 2593,
      "schedule</w>": 2594,
      "persu": 2595,
      "persua": 2596,
      "birds</w>": 2597,
      "hoping</w>": 2598,
      "ye</w>": 2599,
      "orts</w>": 2600,
      "iling</w>": 2601,
      "grew</w>": 2602,
      "rude</w>": 2603,
      "exer": 2604,
      "pencil</w>": 2605,
      "soup</w>": 2606,
      "ints</w>": 2607,
      "pers</w>": 2608,
      "ral</w>": 2609,
      "single</w>": 2610,
      "proposal</w>": 2611,
      "subject</w>": 2612,
      "forgive</w>": 2613,
      "art</w>": 2614,
      "stron": 2615,
      "fortunately</w>": 2616,
      "frigh": 2617,
      "pose</w>": 2618,
      "gree": 2619,
      "forced</w>": 2620,
      "totally</w>": 2621,
      "ination</w>": 2622,
      "timi": 2623,
      "bath": 2624,
      "crime</w>": 2625,
      "moon</w>": 2626,
      "lated</w>": 2627,
      "chocolate</w>": 2628,
      "class": 2629,
      "sof": 2630,
      "tical</w>": 2631,
      "ai": 2632,
      "wondering</w>": 2633,
      "hiding</w>": 2634,
      "examin": 2635,
      "milli": 2636,
      "hid</w>": 2637,
      "shy</w>": 2638,
      "back": 2639,
      "nuts</w>": 2640,
      "picked</w>": 2641,
      "dama": 2642,
      "sen</w>": 2643,
      "volunte": 2644,
      "post": 2645,
      "loy": 2646,
      "misun": 2647,
      "misunder": 2648,
      "blind</w>": 2649,
      "silent</w>": 2650,
      "confused</w>": 2651,
      "opportunity</w>": 2652,
      "raise</w>": 2653,
      "listened</w>": 2654,
      "fle": 2655,
      "windows</w>": 2656,
      "spoken</w>": 2657,
      "drinks</w>": 2658,
      "ado": 2659,
      "rob": 2660,
      "police": 2661,
      "ctions</w>": 2662,
      "answered</w>": 2663,
      "form</w>": 2664,
      "figh": 2665,
      "tries</w>": 2666,
      "type</w>": 2667,
      "gas</w>": 2668,
      "mood</w>": 2669,
      "press</w>": 2670,
      "compe": 2671,
      "ies</w>": 2672,
      "suit</w>": 2673,
      "exerci": 2674,
      "tains</w>": 2675,
      "ations</w>": 2676,
      "gers</w>": 2677,
      "gold</w>": 2678,
      "nur": 2679,
      "legal</w>": 2680,
      "bor</w>": 2681,
      "scen": 2682,
      "vate</w>": 2683,
      "valu": 2684,
      "wers</w>": 2685,
      "loa": 2686,
      "following</w>": 2687,
      "convince</w>": 2688,
      "chick": 2689,
      "effor": 2690,
      "bag": 2691,
      "explo": 2692,
      "tough</w>": 2693,
      "concerned</w>": 2694,
      "sweet</w>": 2695,
      "avoid</w>": 2696,
      "taste</w>": 2697,
      "pret": 2698,
      "brothers</w>": 2699,
      "heat</w>": 2700,
      "sions</w>": 2701,
      "consci": 2702,
      "eats</w>": 2703,
      "spending</w>": 2704,
      "sea</w>": 2705,
      "oth": 2706,
      "flight</w>": 2707,
      "healthy</w>": 2708,
      "results</w>": 2709,
      "sons</w>": 2710,
      "returned</w>": 2711,
      "speci": 2712,
      "private</w>": 2713,
      "gui": 2714,
      "united</w>": 2715,
      "washing</w>": 2716,
      "contra": 2717,
      "licen": 2718,
      "belon": 2719,
      "tast": 2720,
      "tastes</w>": 2721,
      "believed</w>": 2722,
      "era": 2723,
      "grandmother</w>": 2724,
      "seldom</w>": 2725,
      "reser": 2726,
      "visited</w>": 2727,
      "map</w>": 2728,
      "sui": 2729,
      "climb": 2730,
      "ali": 2731,
      "good": 2732,
      "personal</w>": 2733,
      "cau": 2734,
      "belong</w>": 2735,
      "license</w>": 2736,
      "nose</w>": 2737,
      "trusted</w>": 2738,
      "fy</w>": 2739,
      "purpose</w>": 2740,
      "hy": 2741,
      "singer</w>": 2742,
      "mitted</w>": 2743,
      "credi": 2744,
      "exhau": 2745,
      "prove</w>": 2746,
      "tears</w>": 2747,
      "cient</w>": 2748,
      "fed</w>": 2749,
      "eared</w>": 2750,
      "soldiers</w>": 2751,
      "football</w>": 2752,
      "club</w>": 2753,
      "fill</w>": 2754,
      "smarter</w>": 2755,
      "gaz": 2756,
      "tight</w>": 2757,
      "she": 2758,
      "are": 2759,
      "understood</w>": 2760,
      "appointment</w>": 2761,
      "prison": 2762,
      "cried</w>": 2763,
      "bigger</w>": 2764,
      "descri": 2765,
      "certain": 2766,
      "reach</w>": 2767,
      "permission</w>": 2768,
      "excited</w>": 2769,
      "keeps</w>": 2770,
      "handed</w>": 2771,
      "interest</w>": 2772,
      "orang": 2773,
      "lay</w>": 2774,
      "passport</w>": 2775,
      "seas": 2776,
      "earth": 2777,
      "interru": 2778,
      "magaz": 2779,
      "stone</w>": 2780,
      "ourselves</w>": 2781,
      "hired</w>": 2782,
      "assist": 2783,
      "mistaken</w>": 2784,
      "sue</w>": 2785,
      "huge</w>": 2786,
      "due</w>": 2787,
      "manager</w>": 2788,
      "idiot</w>": 2789,
      "embarrassed</w>": 2790,
      "audi": 2791,
      "ambi": 2792,
      "lazy</w>": 2793,
      "peace</w>": 2794,
      "complaining</w>": 2795,
      "losing</w>": 2796,
      "weap": 2797,
      "tious</w>": 2798,
      "difficul": 2799,
      "explained</w>": 2800,
      "electri": 2801,
      "ners</w>": 2802,
      "pool</w>": 2803,
      "thre": 2804,
      "thro": 2805,
      "escaped</w>": 2806,
      "upstairs</w>": 2807,
      "safe": 2808,
      "certainly</w>": 2809,
      "recomm": 2810,
      "middle</w>": 2811,
      "cash</w>": 2812,
      "rains</w>": 2813,
      "eight</w>": 2814,
      "help": 2815,
      "jump</w>": 2816,
      "oo</w>": 2817,
      "island</w>": 2818,
      "def": 2819,
      "ghts</w>": 2820,
      "intend</w>": 2821,
      "zen</w>": 2822,
      "ure</w>": 2823,
      "relie": 2824,
      "rai": 2825,
      "entered</w>": 2826,
      "names</w>": 2827,
      "cross</w>": 2828,
      "rin": 2829,
      "ener": 2830,
      "deter": 2831,
      "shoul": 2832,
      "moving</w>": 2833,
      "wet</w>": 2834,
      "roof</w>": 2835,
      "changes</w>": 2836,
      "familiar</w>": 2837,
      "suspect</w>": 2838,
      "fl": 2839,
      "hey</w>": 2840,
      "ett": 2841,
      "yourselves</w>": 2842,
      "filled</w>": 2843,
      "forever</w>": 2844,
      "punished</w>": 2845,
      "auth": 2846,
      "dies</w>": 2847,
      "increa": 2848,
      "straight</w>": 2849,
      "earthqua": 2850,
      "bby</w>": 2851,
      "cele": 2852,
      "eco": 2853,
      "sand": 2854,
      "tched</w>": 2855,
      "shocked</w>": 2856,
      "europe</w>": 2857,
      "signed</w>": 2858,
      "000</w>": 2859,
      "headache</w>": 2860,
      "drow": 2861,
      "apply</w>": 2862,
      "legs</w>": 2863,
      "cookies</w>": 2864,
      "sour": 2865,
      "iny</w>": 2866,
      "crowd</w>": 2867,
      "presents</w>": 2868,
      "yen</w>": 2869,
      "vented</w>": 2870,
      "aned</w>": 2871,
      "iness</w>": 2872,
      "bear</w>": 2873,
      "curious</w>": 2874,
      "h</w>": 2875,
      "sweater</w>": 2876,
      "nine</w>": 2877,
      "goodb": 2878,
      "dishes</w>": 2879,
      "horri": 2880,
      "ills</w>": 2881,
      "holiday</w>": 2882,
      "talks</w>": 2883,
      "calls</w>": 2884,
      "complain</w>": 2885,
      "hurts</w>": 2886,
      "chess</w>": 2887,
      "behavi": 2888,
      "rate</w>": 2889,
      "chie": 2890,
      "grou": 2891,
      "add</w>": 2892,
      "letters</w>": 2893,
      "dreams</w>": 2894,
      "paying</w>": 2895,
      "article</w>": 2896,
      "result</w>": 2897,
      "enter</w>": 2898,
      "cir": 2899,
      "suspi": 2900,
      "exhausted</w>": 2901,
      "behavior</w>": 2902,
      "maj": 2903,
      "tural</w>": 2904,
      "depressed</w>": 2905,
      "push</w>": 2906,
      "contact</w>": 2907,
      "pun": 2908,
      "oil</w>": 2909,
      "songs</w>": 2910,
      "clearly</w>": 2911,
      "area</w>": 2912,
      "jacket</w>": 2913,
      "solved</w>": 2914,
      "ority</w>": 2915,
      "fighting</w>": 2916,
      "energy</w>": 2917,
      "furni": 2918,
      "search</w>": 2919,
      "university</w>": 2920,
      "games</w>": 2921,
      "thief</w>": 2922,
      "lo</w>": 2923,
      "unhappy</w>": 2924,
      "player</w>": 2925,
      "account</w>": 2926,
      "rice</w>": 2927,
      "ava": 2928,
      "fered</w>": 2929,
      "realized</w>": 2930,
      "goodbye</w>": 2931,
      "skiing</w>": 2932,
      "someday</w>": 2933,
      "celebra": 2934,
      "free": 2935,
      "mess</w>": 2936,
      "continued</w>": 2937,
      "details</w>": 2938,
      "both": 2939,
      "aban": 2940,
      "abi": 2941,
      "policeman</w>": 2942,
      "polite</w>": 2943,
      "ory</w>": 2944,
      "20": 2945,
      "photo</w>": 2946,
      "hearing</w>": 2947,
      "murder</w>": 2948,
      "bs</w>": 2949,
      "distur": 2950,
      "states</w>": 2951,
      "achie": 2952,
      "indi": 2953,
      "nic</w>": 2954,
      "sports</w>": 2955,
      "complicated</w>": 2956,
      "gic</w>": 2957,
      "docu": 2958,
      "conne": 2959,
      "brave</w>": 2960,
      "lady</w>": 2961,
      "thousand</w>": 2962,
      "nai": 2963,
      "viol": 2964,
      "grea": 2965,
      "manage</w>": 2966,
      "inte": 2967,
      "wood</w>": 2968,
      "countries</w>": 2969,
      "excel": 2970,
      "wards</w>": 2971,
      "stands</w>": 2972,
      "ssive</w>": 2973,
      "traveling</w>": 2974,
      "easier</w>": 2975,
      "growing</w>": 2976,
      "workers</w>": 2977,
      "ement</w>": 2978,
      "econo": 2979,
      "destro": 2980,
      "reached</w>": 2981,
      "amazing</w>": 2982,
      "ank": 2983,
      "fair": 2984,
      "possibility</w>": 2985,
      "imagine</w>": 2986,
      "far": 2987,
      "ul": 2988,
      "gging</w>": 2989,
      "bell</w>": 2990,
      "burned</w>": 2991,
      "washed</w>": 2992,
      "velo": 2993,
      "incredi": 2994,
      "vide": 2995,
      "remained</w>": 2996,
      "obje": 2997,
      "relax</w>": 2998,
      "among</w>": 2999,
      "repa": 3000,
      "hesi": 3001,
      "distance</w>": 3002,
      "size</w>": 3003,
      "stem</w>": 3004,
      "gency</w>": 3005,
      "chicken</w>": 3006,
      "perfectly</w>": 3007,
      "gue</w>": 3008,
      "mps</w>": 3009,
      "delicious</w>": 3010,
      "threa": 3011,
      "except</w>": 3012,
      "third</w>": 3013,
      "rang</w>": 3014,
      "emer": 3015,
      "complete</w>": 3016,
      "cheap</w>": 3017,
      "garage</w>": 3018,
      "diet</w>": 3019,
      "teaching</w>": 3020,
      "everywhere</w>": 3021,
      "tual</w>": 3022,
      "recor": 3023,
      "practice</w>": 3024,
      "sandwi": 3025,
      "non": 3026,
      "fairly</w>": 3027,
      "rained</w>": 3028,
      "hol": 3029,
      "instru": 3030,
      "further</w>": 3031,
      "screa": 3032,
      "deni": 3033,
      "above</w>": 3034,
      "theory</w>": 3035,
      "pull</w>": 3036,
      "deman": 3037,
      "match</w>": 3038,
      "ckets</w>": 3039,
      "urgent</w>": 3040,
      "fixed</w>": 3041,
      "ented</w>": 3042,
      "excellent</w>": 3043,
      "site</w>": 3044,
      "couch</w>": 3045,
      "avai": 3046,
      "availa": 3047,
      "available</w>": 3048,
      "sis</w>": 3049,
      "attracti": 3050,
      "attractive</w>": 3051,
      "lower</w>": 3052,
      "bedroom</w>": 3053,
      "apart</w>": 3054,
      "pretended</w>": 3055,
      "exercise</w>": 3056,
      "brush</w>": 3057,
      "anyway</w>": 3058,
      "rumor</w>": 3059,
      "obey</w>": 3060,
      "deb": 3061,
      "ator</w>": 3062,
      "cancer</w>": 3063,
      "teachers</w>": 3064,
      "satur": 3065,
      "pota": 3066,
      "golf</w>": 3067,
      "advanta": 3068,
      "remain</w>": 3069,
      "reason": 3070,
      "ption</w>": 3071,
      "fail": 3072,
      "6</w>": 3073,
      "predi": 3074,
      "ink</w>": 3075,
      "tter": 3076,
      "belongs</w>": 3077,
      "aling</w>": 3078,
      "stle</w>": 3079,
      "file</w>": 3080,
      "une": 3081,
      "furniture</w>": 3082,
      "symp": 3083,
      "resi": 3084,
      "ances</w>": 3085,
      "natural</w>": 3086,
      "when": 3087,
      "whenever</w>": 3088,
      "centra": 3089,
      "joking</w>": 3090,
      "dec": 3091,
      "investi": 3092,
      "investiga": 3093,
      "jail</w>": 3094,
      "supermarket</w>": 3095,
      "fire": 3096,
      "treat</w>": 3097,
      "rooms</w>": 3098,
      "pocket</w>": 3099,
      "within</w>": 3100,
      "profe": 3101,
      "scu": 3102,
      "writer</w>": 3103,
      "lighted</w>": 3104,
      "naive</w>": 3105,
      "wears</w>": 3106,
      "exi": 3107,
      "nurse</w>": 3108,
      "dee": 3109,
      "smiling</w>": 3110,
      "coa": 3111,
      "believes</w>": 3112,
      "introduce</w>": 3113,
      "ssful</w>": 3114,
      "sely</w>": 3115,
      "ences</w>": 3116,
      "stun": 3117,
      "cigar": 3118,
      "attack</w>": 3119,
      "hill</w>": 3120,
      "pal": 3121,
      "system</w>": 3122,
      "vent</w>": 3123,
      "hire</w>": 3124,
      "matters</w>": 3125,
      "crossed</w>": 3126,
      "ignore</w>": 3127,
      "tured</w>": 3128,
      "consider": 3129,
      "simil": 3130,
      "similar</w>": 3131,
      "wore</w>": 3132,
      "refuse</w>": 3133,
      "parked</w>": 3134,
      "delighted</w>": 3135,
      "ared</w>": 3136,
      "space</w>": 3137,
      "arms</w>": 3138,
      "shall</w>": 3139,
      "intelli": 3140,
      "confident</w>": 3141,
      "bite</w>": 3142,
      "dancing</w>": 3143,
      "happiness</w>": 3144,
      "zoo</w>": 3145,
      "les": 3146,
      "unfortunately</w>": 3147,
      "approa": 3148,
      "post</w>": 3149,
      "spare</w>": 3150,
      "gives</w>": 3151,
      "particular</w>": 3152,
      "lit</w>": 3153,
      "managed</w>": 3154,
      "alco": 3155,
      "kne": 3156,
      "position</w>": 3157,
      "grate": 3158,
      "grateful</w>": 3159,
      "twenty</w>": 3160,
      "obviously</w>": 3161,
      "eleva": 3162,
      "ct": 3163,
      "tro": 3164,
      "badly</w>": 3165,
      "clever</w>": 3166,
      "gho": 3167,
      "survive</w>": 3168,
      "meaning</w>": 3169,
      "sisters</w>": 3170,
      "failure</w>": 3171,
      "chinese</w>": 3172,
      "pleasure</w>": 3173,
      "draw</w>": 3174,
      "jud": 3175,
      "accor": 3176,
      "page</w>": 3177,
      "pressure</w>": 3178,
      "hated</w>": 3179,
      "facts</w>": 3180,
      "email</w>": 3181,
      "ill": 3182,
      "winning</w>": 3183,
      "ity</w>": 3184,
      "neighbor</w>": 3185,
      "awe": 3186,
      "awesome</w>": 3187,
      "video</w>": 3188,
      "proper": 3189,
      "lift</w>": 3190,
      "sale</w>": 3191,
      "proce": 3192,
      "ati": 3193,
      "wei": 3194,
      "consu": 3195,
      "ma</w>": 3196,
      "answers</w>": 3197,
      "edu": 3198,
      "yor": 3199,
      "york</w>": 3200,
      "cops</w>": 3201,
      "obvious</w>": 3202,
      "dentist</w>": 3203,
      "guar": 3204,
      "sation</w>": 3205,
      "mers</w>": 3206,
      "disea": 3207,
      "disease</w>": 3208,
      "engine</w>": 3209,
      "doned</w>": 3210,
      "judge</w>": 3211,
      "warn</w>": 3212,
      "shoot</w>": 3213,
      "ests</w>": 3214,
      "guard</w>": 3215,
      "provi": 3216,
      "remin": 3217,
      "plu": 3218,
      "imagination</w>": 3219,
      "harm</w>": 3220,
      "thirsty</w>": 3221,
      "dit</w>": 3222,
      "costs</w>": 3223,
      "useful</w>": 3224,
      "cigarett": 3225,
      "sin</w>": 3226,
      "pants</w>": 3227,
      "unlikely</w>": 3228,
      "promises</w>": 3229,
      "dating</w>": 3230,
      "ines</w>": 3231,
      "threw</w>": 3232,
      "sofa</w>": 3233,
      "know": 3234,
      "knowle": 3235,
      "climb</w>": 3236,
      "sensi": 3237,
      "jour": 3238,
      "closer</w>": 3239,
      "graph": 3240,
      "ets</w>": 3241,
      "salary</w>": 3242,
      "dia": 3243,
      "unless</w>": 3244,
      "elevator</w>": 3245,
      "accepted</w>": 3246,
      "london</w>": 3247,
      "emergency</w>": 3248,
      "fil": 3249,
      "effe": 3250,
      "credit</w>": 3251,
      "sper": 3252,
      "picnic</w>": 3253,
      "engag": 3254,
      "example</w>": 3255,
      "ugly</w>": 3256,
      "wher": 3257,
      "toi": 3258,
      "frightened</w>": 3259,
      "goti": 3260,
      "patience</w>": 3261,
      "horrible</w>": 3262,
      "conclu": 3263,
      "denied</w>": 3264,
      "woods</w>": 3265,
      "oldest</w>": 3266,
      "proof</w>": 3267,
      "carried</w>": 3268,
      "bathroom</w>": 3269,
      "accusto": 3270,
      "u</w>": 3271,
      "reasonable</w>": 3272,
      "speaker</w>": 3273,
      "earthquake</w>": 3274,
      "mic</w>": 3275,
      "prin": 3276,
      "vation</w>": 3277,
      "scienti": 3278,
      "passeng": 3279,
      "passengers</w>": 3280,
      "crimin": 3281,
      "conver": 3282,
      "served</w>": 3283,
      "stoma": 3284,
      "fashi": 3285,
      "insu": 3286,
      "tary</w>": 3287,
      "fallen</w>": 3288,
      "staring</w>": 3289,
      "factory</w>": 3290,
      "vice</w>": 3291,
      "rar": 3292,
      "naked</w>": 3293,
      "concentra": 3294,
      "ysi": 3295,
      "advantage</w>": 3296,
      "accustomed</w>": 3297,
      "thirteen</w>": 3298,
      "mini": 3299,
      "attemp": 3300,
      "mention</w>": 3301,
      "using</w>": 3302,
      "mobi": 3303,
      "season</w>": 3304,
      "eded</w>": 3305,
      "addi": 3306,
      "marri": 3307,
      "them": 3308,
      "themselves</w>": 3309,
      "tempera": 3310,
      "gress</w>": 3311,
      "8</w>": 3312,
      "capi": 3313,
      "falling</w>": 3314,
      "aller": 3315,
      "sc": 3316,
      "roses</w>": 3317,
      "pockets</w>": 3318,
      "advance</w>": 3319,
      "acted</w>": 3320,
      "borro": 3321,
      "fever</w>": 3322,
      "runs</w>": 3323,
      "rarely</w>": 3324,
      "tire</w>": 3325,
      "touched</w>": 3326,
      "suici": 3327,
      "loss</w>": 3328,
      "ben": 3329,
      "web": 3330,
      "pie</w>": 3331,
      "ney</w>": 3332,
      "fail</w>": 3333,
      "race</w>": 3334,
      "insur": 3335,
      "classroom</w>": 3336,
      "treated</w>": 3337,
      "abandoned</w>": 3338,
      "dying</w>": 3339,
      "poem</w>": 3340,
      "remar": 3341,
      "lovely</w>": 3342,
      "pron": 3343,
      "courage</w>": 3344,
      "regu": 3345,
      "cooked</w>": 3346,
      "teri": 3347,
      "regi": 3348,
      "raised</w>": 3349,
      "saturday</w>": 3350,
      "according</w>": 3351,
      "bot": 3352,
      "smells</w>": 3353,
      "honest": 3354,
      "barely</w>": 3355,
      "jumped</w>": 3356,
      "betra": 3357,
      "ris": 3358,
      "fli": 3359,
      "neighborhood</w>": 3360,
      "stronger</w>": 3361,
      "alter": 3362,
      "weak</w>": 3363,
      "camp": 3364,
      "contract</w>": 3365,
      "remind</w>": 3366,
      "stranger</w>": 3367,
      "shelf</w>": 3368,
      "condition</w>": 3369,
      "ton": 3370,
      "damage</w>": 3371,
      "diary</w>": 3372,
      "fore": 3373,
      "volu": 3374,
      "dden</w>": 3375,
      "ttery</w>": 3376,
      "progra": 3377,
      "fence</w>": 3378,
      "audience</w>": 3379,
      "goal</w>": 3380,
      "sharp</w>": 3381,
      "hung</w>": 3382,
      "suggested</w>": 3383,
      "simp": 3384,
      "group</w>": 3385,
      "impati": 3386,
      "reply</w>": 3387,
      "prize</w>": 3388,
      "betrayed</w>": 3389,
      "organized</w>": 3390,
      "mobile</w>": 3391,
      "grab</w>": 3392,
      "armed</w>": 3393,
      "smal": 3394,
      "nonsense</w>": 3395,
      "poi": 3396,
      "temperature</w>": 3397,
      "toilet</w>": 3398,
      "rescu": 3399,
      "chall": 3400,
      "negoti": 3401,
      "postp": 3402,
      "cover</w>": 3403,
      "disgu": 3404,
      "copy</w>": 3405,
      "quick</w>": 3406,
      "mble</w>": 3407,
      "discussion</w>": 3408,
      "rab": 3409,
      "talented</w>": 3410,
      "jokes</w>": 3411,
      "math</w>": 3412,
      "shape</w>": 3413,
      "geni": 3414,
      "chest</w>": 3415,
      "sang</w>": 3416,
      "science</w>": 3417,
      "smiled</w>": 3418,
      "clou": 3419,
      "habit</w>": 3420,
      "stock</w>": 3421,
      "recognized</w>": 3422,
      "pretend</w>": 3423,
      "communi": 3424,
      "magazine</w>": 3425,
      "decor": 3426,
      "cans</w>": 3427,
      "less": 3428,
      "phi": 3429,
      "gent": 3430,
      "cruel</w>": 3431,
      "cian</w>": 3432,
      "bothering</w>": 3433,
      "coinci": 3434,
      "butter</w>": 3435,
      "vant</w>": 3436,
      "nowhere</w>": 3437,
      "kinds</w>": 3438,
      "grass</w>": 3439,
      "employ": 3440,
      "fai": 3441,
      "hole</w>": 3442,
      "lately</w>": 3443,
      "suggesti": 3444,
      "sty": 3445,
      "alarm</w>": 3446,
      "spends</w>": 3447,
      "forest</w>": 3448,
      "illegal</w>": 3449,
      "ert</w>": 3450,
      "conven": 3451,
      "depends</w>": 3452,
      "receive</w>": 3453,
      "highly</w>": 3454,
      "santa</w>": 3455,
      "issue</w>": 3456,
      "responsibility</w>": 3457,
      "unusual</w>": 3458,
      "retired</w>": 3459,
      "state</w>": 3460,
      "safety</w>": 3461,
      "mode": 3462,
      "4</w>": 3463,
      "tied</w>": 3464,
      "mel": 3465,
      "eventually</w>": 3466,
      "difficulty</w>": 3467,
      "suspicious</w>": 3468,
      "val</w>": 3469,
      "thea": 3470,
      "population</w>": 3471,
      "crowded</w>": 3472,
      "foolish</w>": 3473,
      "checked</w>": 3474,
      "punc": 3475,
      "planned</w>": 3476,
      "dness</w>": 3477,
      "france</w>": 3478,
      "hesita": 3479,
      "flower</w>": 3480,
      "nar": 3481,
      "downstairs</w>": 3482,
      "harv": 3483,
      "invitation</w>": 3484,
      "spread</w>": 3485,
      "sudden</w>": 3486,
      "insurance</w>": 3487,
      "1</w>": 3488,
      "hug</w>": 3489,
      "gain</w>": 3490,
      "vase</w>": 3491,
      "human</w>": 3492,
      "happi": 3493,
      "shoulder</w>": 3494,
      "banan": 3495,
      "xes</w>": 3496,
      "chosen</w>": 3497,
      "cleaning</w>": 3498,
      "corner</w>": 3499,
      "yellow</w>": 3500,
      "helpful</w>": 3501,
      "doctors</w>": 3502,
      "wasting</w>": 3503,
      "examination</w>": 3504,
      "pushed</w>": 3505,
      "suicide</w>": 3506,
      "towe": 3507,
      "towel</w>": 3508,
      "aun": 3509,
      "ad</w>": 3510,
      "pulled</w>": 3511,
      "hobby</w>": 3512,
      "meals</w>": 3513,
      "oli": 3514,
      "depen": 3515,
      "prisoners</w>": 3516,
      "ster": 3517,
      "occur": 3518,
      "tongue</w>": 3519,
      "assume</w>": 3520,
      "amoun": 3521,
      "swear</w>": 3522,
      "introduced</w>": 3523,
      "tells</w>": 3524,
      "hal": 3525,
      "ee</w>": 3526,
      "yers</w>": 3527,
      "bright</w>": 3528,
      "7</w>": 3529,
      "houses</w>": 3530,
      "cousin</w>": 3531,
      "vels</w>": 3532,
      "succeeded</w>": 3533,
      "lid</w>": 3534,
      "oven</w>": 3535,
      "wol": 3536,
      "marriage</w>": 3537,
      "unable</w>": 3538,
      "pond</w>": 3539,
      "rock</w>": 3540,
      "book": 3541,
      "divorced</w>": 3542,
      "sco": 3543,
      "knocked</w>": 3544,
      "describe</w>": 3545,
      "tooth": 3546,
      "defini": 3547,
      "firm</w>": 3548,
      "tches</w>": 3549,
      "cheese</w>": 3550,
      "relieved</w>": 3551,
      "noi": 3552,
      "drove</w>": 3553,
      "teen": 3554,
      "intelligent</w>": 3555,
      "million</w>": 3556,
      "army</w>": 3557,
      "sant</w>": 3558,
      "cel</w>": 3559,
      "ability</w>": 3560,
      "operation</w>": 3561,
      "speed</w>": 3562,
      "drives</w>": 3563,
      "guests</w>": 3564,
      "dare</w>": 3565,
      "repaired</w>": 3566,
      "climbed</w>": 3567,
      "despi": 3568,
      "fering</w>": 3569,
      "black": 3570,
      "impatient</w>": 3571,
      "pet</w>": 3572,
      "finger</w>": 3573,
      "stories</w>": 3574,
      "water": 3575,
      "avoi": 3576,
      "ours</w>": 3577,
      "friend": 3578,
      "castle</w>": 3579,
      "conversation</w>": 3580,
      "child": 3581,
      "explosion</w>": 3582,
      "cast</w>": 3583,
      "rememb": 3584,
      "cate</w>": 3585,
      "model</w>": 3586,
      "capital</w>": 3587,
      "drowned</w>": 3588,
      "accomp": 3589,
      "fra": 3590,
      "pac": 3591,
      "illness</w>": 3592,
      "pleasant</w>": 3593,
      "dings</w>": 3594,
      "voted</w>": 3595,
      "bum</w>": 3596,
      "hope": 3597,
      "potatoes</w>": 3598,
      "flying</w>": 3599,
      "bottom</w>": 3600,
      "entirely</w>": 3601,
      "hello</w>": 3602,
      "successful</w>": 3603,
      "sm</w>": 3604,
      "meters</w>": 3605,
      "cancel": 3606,
      "orange</w>": 3607,
      "refri": 3608,
      "refriger": 3609,
      "lap": 3610,
      "conveni": 3611,
      "gree</w>": 3612,
      "ficient</w>": 3613,
      "flat</w>": 3614,
      "bar</w>": 3615,
      "americans</w>": 3616,
      "sandwich</w>": 3617,
      "wherever</w>": 3618,
      "star</w>": 3619,
      "ignored</w>": 3620,
      "repe": 3621,
      "terms</w>": 3622,
      "selling</w>": 3623,
      "reliable</w>": 3624,
      "awful</w>": 3625,
      "concern</w>": 3626,
      "recommend</w>": 3627,
      "13</w>": 3628,
      "ridi": 3629,
      "ridicul": 3630,
      "orders</w>": 3631,
      "borrowed</w>": 3632,
      "pieces</w>": 3633,
      "silence</w>": 3634,
      "ine": 3635,
      "airplane</w>": 3636,
      "oce": 3637,
      "smaller</w>": 3638,
      "understands</w>": 3639,
      "eding</w>": 3640,
      "complained</w>": 3641,
      "tent</w>": 3642,
      "persuade</w>": 3643,
      "pan": 3644,
      "invite</w>": 3645,
      "sundays</w>": 3646,
      "hair": 3647,
      "ods</w>": 3648,
      "desper": 3649,
      "misunderstanding</w>": 3650,
      "horses</w>": 3651,
      "nifi": 3652,
      "drawer</w>": 3653,
      "artist</w>": 3654,
      "anger</w>": 3655,
      "ght": 3656,
      "progress</w>": 3657,
      "depend</w>": 3658,
      "humi": 3659,
      "discussed</w>": 3660,
      "soci": 3661,
      "nap</w>": 3662,
      "fingers</w>": 3663,
      "quar": 3664,
      "requi": 3665,
      "fortunate</w>": 3666,
      "equ": 3667,
      "chu": 3668,
      "experien": 3669,
      "cus</w>": 3670,
      "pale</w>": 3671,
      "cleaned</w>": 3672,
      "fast": 3673,
      "net</w>": 3674,
      "bow": 3675,
      "physi": 3676,
      "enjoying</w>": 3677,
      "optimi": 3678,
      "vers</w>": 3679,
      "coincidence</w>": 3680,
      "psy": 3681,
      "main</w>": 3682,
      "respe": 3683,
      "election</w>": 3684,
      "refrigerator</w>": 3685,
      "separ": 3686,
      "aunt</w>": 3687,
      "scra": 3688,
      "meth": 3689,
      "pani": 3690,
      "worrying</w>": 3691,
      "cheaper</w>": 3692,
      "assistance</w>": 3693,
      "nor</w>": 3694,
      "mayor</w>": 3695,
      "destroyed</w>": 3696,
      "gained</w>": 3697,
      "bags</w>": 3698,
      "heavi": 3699,
      "childhood</w>": 3700,
      "tribu": 3701,
      "cally</w>": 3702,
      "midnight</w>": 3703,
      "occurred</w>": 3704,
      "cture</w>": 3705,
      "determin": 3706,
      "ridiculous</w>": 3707,
      "argue</w>": 3708,
      "serve</w>": 3709,
      "evidence</w>": 3710,
      "pack</w>": 3711,
      "confe": 3712,
      "gunshot</w>": 3713,
      "ambitious</w>": 3714,
      "theater</w>": 3715,
      "critici": 3716,
      "foods</w>": 3717,
      "zzy</w>": 3718,
      "careless</w>": 3719,
      "newspapers</w>": 3720,
      "auto": 3721,
      "affe": 3722,
      "fted</w>": 3723,
      "scare</w>": 3724,
      "friendship</w>": 3725,
      "distra": 3726,
      "layed</w>": 3727,
      "gentle": 3728,
      "odd</w>": 3729,
      "blan": 3730,
      "ices</w>": 3731,
      "belt</w>": 3732,
      "anged</w>": 3733,
      "counting</w>": 3734,
      "gate</w>": 3735,
      "irre": 3736,
      "prep": 3737,
      "prepare</w>": 3738,
      "stomach</w>": 3739,
      "cure</w>": 3740,
      "stamps</w>": 3741,
      "vement</w>": 3742,
      "attacked</w>": 3743,
      "laid</w>": 3744,
      "power": 3745,
      "relaxed</w>": 3746,
      "burn</w>": 3747,
      "dizzy</w>": 3748,
      "stars</w>": 3749,
      "jam</w>": 3750,
      "capable</w>": 3751,
      "plants</w>": 3752,
      "opening</w>": 3753,
      "mbling</w>": 3754,
      "dles</w>": 3755,
      "surr": 3756,
      "nearest</w>": 3757,
      "laun": 3758,
      "diag": 3759,
      "puzz": 3760,
      "seated</w>": 3761,
      "chee": 3762,
      "contribu": 3763,
      "appears</w>": 3764,
      "xious</w>": 3765,
      "hurried</w>": 3766,
      "robbed</w>": 3767,
      "%</w>": 3768,
      "ok": 3769,
      "dents</w>": 3770,
      "larly</w>": 3771,
      "chances</w>": 3772,
      "spot</w>": 3773,
      "ic</w>": 3774,
      "snow": 3775,
      "studies</w>": 3776,
      "wounded</w>": 3777,
      "na</w>": 3778,
      "repeat</w>": 3779,
      "rush</w>": 3780,
      "lities</w>": 3781,
      "offended</w>": 3782,
      "gath": 3783,
      "repair</w>": 3784,
      "fortune</w>": 3785,
      "wit": 3786,
      "ctor</w>": 3787,
      "effort</w>": 3788,
      "weal": 3789,
      "canceled</w>": 3790,
      "noun": 3791,
      "thin</w>": 3792,
      "force</w>": 3793,
      "orig": 3794,
      "parties</w>": 3795,
      "prevented</w>": 3796,
      "pity</w>": 3797,
      "members</w>": 3798,
      "punctual</w>": 3799,
      "dem": 3800,
      "novels</w>": 3801,
      "generous</w>": 3802,
      "sa</w>": 3803,
      "mir": 3804,
      "tech": 3805,
      "member</w>": 3806,
      "china</w>": 3807,
      "lasted</w>": 3808,
      "dish</w>": 3809,
      "leader</w>": 3810,
      "divorce</w>": 3811,
      "socks</w>": 3812,
      "barking</w>": 3813,
      "relation": 3814,
      "dreaming</w>": 3815,
      "teenag": 3816,
      "ruined</w>": 3817,
      "cancel</w>": 3818,
      "apology</w>": 3819,
      "fifty</w>": 3820,
      "logical</w>": 3821,
      "options</w>": 3822,
      "ji</w>": 3823,
      "announ": 3824,
      "pou": 3825,
      "skin</w>": 3826,
      "beauty</w>": 3827,
      "seats</w>": 3828,
      "mea": 3829,
      "lesson</w>": 3830,
      "offered</w>": 3831,
      "dest": 3832,
      "education</w>": 3833,
      "record</w>": 3834,
      "lead</w>": 3835,
      "mirror</w>": 3836,
      "mathe": 3837,
      "mathema": 3838,
      "indu": 3839,
      "hero</w>": 3840,
      "bud": 3841,
      "frank": 3842,
      "$</w>": 3843,
      "knowledge</w>": 3844,
      "shame</w>": 3845,
      "relea": 3846,
      "mountains</w>": 3847,
      "mira": 3848,
      "9</w>": 3849,
      "envi": 3850,
      "emo": 3851,
      "mmed</w>": 3852,
      "tives</w>": 3853,
      "pack": 3854,
      "deeply</w>": 3855,
      "shorter</w>": 3856,
      "experienced</w>": 3857,
      "resign</w>": 3858,
      "bui": 3859,
      "build</w>": 3860,
      "committed</w>": 3861,
      "friday</w>": 3862,
      "mates</w>": 3863,
      "round</w>": 3864,
      "fits</w>": 3865,
      "cab</w>": 3866,
      "percent</w>": 3867,
      "concentrate</w>": 3868,
      "arr": 3869,
      "survived</w>": 3870,
      "nation</w>": 3871,
      "acqua": 3872,
      "handsome</w>": 3873,
      "depar": 3874,
      "mis": 3875,
      "animal</w>": 3876,
      "headed</w>": 3877,
      "cases</w>": 3878,
      "conscious</w>": 3879,
      "elected</w>": 3880,
      "useless</w>": 3881,
      "burst</w>": 3882,
      "paris</w>": 3883,
      "arguing</w>": 3884,
      "irts</w>": 3885,
      "supper</w>": 3886,
      "exciting</w>": 3887,
      "fridge</w>": 3888,
      "incredible</w>": 3889,
      "geous</w>": 3890,
      "deny</w>": 3891,
      "alcoho": 3892,
      "alcohol</w>": 3893,
      "aled</w>": 3894,
      "interrupt</w>": 3895,
      "sides</w>": 3896,
      "lined</w>": 3897,
      "appli": 3898,
      "bitten</w>": 3899,
      "german</w>": 3900,
      "accep": 3901,
      "vable</w>": 3902,
      "fog</w>": 3903,
      "named</w>": 3904,
      "bench</w>": 3905,
      "breathe</w>": 3906,
      "kilo": 3907,
      "argument</w>": 3908,
      "religi": 3909,
      "dy": 3910,
      "service</w>": 3911,
      "quali": 3912,
      "cta": 3913,
      "square</w>": 3914,
      "lines</w>": 3915,
      "kindness</w>": 3916,
      "silly</w>": 3917,
      "finding</w>": 3918,
      "sometime</w>": 3919,
      "loaded</w>": 3920,
      "rose</w>": 3921,
      "attended</w>": 3922,
      "unex": 3923,
      "mathematics</w>": 3924,
      "stin": 3925,
      "mondays</w>": 3926,
      "admire</w>": 3927,
      "nature</w>": 3928,
      "helps</w>": 3929,
      "eye": 3930,
      "ssion": 3931,
      "jackson</w>": 3932,
      "eld</w>": 3933,
      "strike</w>": 3934,
      "national</w>": 3935,
      "confidence</w>": 3936,
      "iron</w>": 3937,
      "amount</w>": 3938,
      "eral</w>": 3939,
      "juice</w>": 3940,
      "ttered</w>": 3941,
      "tioned</w>": 3942,
      "advise</w>": 3943,
      "warning</w>": 3944,
      "jobs</w>": 3945,
      "couraged</w>": 3946,
      "suggestion</w>": 3947,
      "toler": 3948,
      "ocean</w>": 3949,
      "brown</w>": 3950,
      "focus</w>": 3951,
      "ng": 3952,
      "deaf</w>": 3953,
      "insi": 3954,
      "desperate</w>": 3955,
      "customers</w>": 3956,
      "gloves</w>": 3957,
      "cares</w>": 3958,
      "weapon</w>": 3959,
      "genius</w>": 3960,
      "changing</w>": 3961,
      "persuaded</w>": 3962,
      "begun</w>": 3963,
      "bun": 3964,
      "formed</w>": 3965,
      "captain</w>": 3966,
      "higher</w>": 3967,
      "dumb</w>": 3968,
      "turning</w>": 3969,
      "ults</w>": 3970,
      "skin": 3971,
      "moder": 3972,
      "efforts</w>": 3973,
      "sore</w>": 3974,
      "tude</w>": 3975,
      "holding</w>": 3976,
      "begins</w>": 3977,
      "debt</w>": 3978,
      "insan": 3979,
      "request</w>": 3980,
      "verage</w>": 3981,
      "decisions</w>": 3982,
      "kicked</w>": 3983,
      "detail</w>": 3984,
      "medical</w>": 3985,
      "note</w>": 3986,
      "appropri": 3987,
      "graduated</w>": 3988,
      "final</w>": 3989,
      "50</w>": 3990,
      "farm</w>": 3991,
      "complaints</w>": 3992,
      "hibi": 3993,
      "cheated</w>": 3994,
      "annoying</w>": 3995,
      "mitt": 3996,
      "mies</w>": 3997,
      "fond</w>": 3998,
      "streng": 3999,
      "dish": 4000,
      "north</w>": 4001,
      "south</w>": 4002,
      "thetic</w>": 4003,
      "becoming</w>": 4004,
      "appeared</w>": 4005,
      "knowing</w>": 4006,
      "note": 4007,
      "planted</w>": 4008,
      "inse": 4009,
      "thick</w>": 4010,
      "unlucky</w>": 4011,
      "entire</w>": 4012,
      "stunned</w>": 4013,
      "aside</w>": 4014,
      "income</w>": 4015,
      "stub": 4016,
      "promo": 4017,
      "center</w>": 4018,
      "tress</w>": 4019,
      "ky</w>": 4020,
      "delayed</w>": 4021,
      "sett": 4022,
      "cker</w>": 4023,
      "zation</w>": 4024,
      "ske": 4025,
      "places</w>": 4026,
      "appe": 4027,
      "allergic</w>": 4028,
      "alike</w>": 4029,
      "reservation</w>": 4030,
      "strict</w>": 4031,
      "relationship</w>": 4032,
      "putting</w>": 4033,
      "photograph": 4034,
      "express</w>": 4035,
      "fanta": 4036,
      "disturbed</w>": 4037,
      "properly</w>": 4038,
      "teaches</w>": 4039,
      "purse</w>": 4040,
      "tali": 4041,
      "definitely</w>": 4042,
      "ron": 4043,
      "boxes</w>": 4044,
      "trance</w>": 4045,
      "clouds</w>": 4046,
      "pronoun": 4047,
      "mt</w>": 4048,
      "improve</w>": 4049,
      "direction</w>": 4050,
      "rots</w>": 4051,
      "poured</w>": 4052,
      "hang": 4053,
      "compared</w>": 4054,
      "loan</w>": 4055,
      "arian</w>": 4056,
      "weapons</w>": 4057,
      "simply</w>": 4058,
      "honesty</w>": 4059,
      "blin": 4060,
      "demand</w>": 4061,
      "abbed</w>": 4062,
      "dozen</w>": 4063,
      "ath": 4064,
      "celebrate</w>": 4065,
      "miser": 4066,
      "edi": 4067,
      "cab": 4068,
      "electricity</w>": 4069,
      "chose</w>": 4070,
      "tra</w>": 4071,
      "writes</w>": 4072,
      "stry</w>": 4073,
      "option</w>": 4074,
      "password</w>": 4075,
      "text</w>": 4076,
      "gentleman</w>": 4077,
      "tan": 4078,
      "uncomfortable</w>": 4079,
      "liter": 4080,
      "estimate</w>": 4081,
      "yard</w>": 4082,
      "politics</w>": 4083,
      "anxious</w>": 4084,
      "trick</w>": 4085,
      "appear": 4086,
      "occu": 4087,
      "ringing</w>": 4088,
      "atta": 4089,
      "noisy</w>": 4090,
      "scor": 4091,
      "spel": 4092,
      "dess": 4093,
      "doubts</w>": 4094,
      "traveled</w>": 4095,
      "determined</w>": 4096,
      "fasc": 4097,
      "fascin": 4098,
      "okay</w>": 4099,
      "lows</w>": 4100,
      "envelo": 4101,
      "accidents</w>": 4102,
      "ees</w>": 4103,
      "recovered</w>": 4104,
      "related</w>": 4105,
      "package</w>": 4106,
      "adopted</w>": 4107,
      "web</w>": 4108,
      "limi": 4109,
      "enemies</w>": 4110,
      "internet</w>": 4111,
      "loudly</w>": 4112,
      "style</w>": 4113,
      "danced</w>": 4114,
      "ggled</w>": 4115,
      "paint": 4116,
      "paintings</w>": 4117,
      "wished</w>": 4118,
      "tax</w>": 4119,
      "whoever</w>": 4120,
      "admitted</w>": 4121,
      "website</w>": 4122,
      "eleph": 4123,
      "spell</w>": 4124,
      "threatened</w>": 4125,
      "screaming</w>": 4126,
      "major</w>": 4127,
      "impression</w>": 4128,
      "manu": 4129,
      "disappeared</w>": 4130,
      "sensitive</w>": 4131,
      "100</w>": 4132,
      "understanding</w>": 4133,
      "yelling</w>": 4134,
      "ski</w>": 4135,
      "keeping</w>": 4136,
      "rainy</w>": 4137,
      "fts</w>": 4138,
      "tar": 4139,
      "hesitate</w>": 4140,
      "agreement</w>": 4141,
      "prevent</w>": 4142,
      "modern</w>": 4143,
      "frankly</w>": 4144,
      "identi": 4145,
      "profession": 4146,
      "victi": 4147,
      "skinny</w>": 4148,
      "thor": 4149,
      "dust</w>": 4150,
      "instructions</w>": 4151,
      "competi": 4152,
      "turns</w>": 4153,
      "swa": 4154,
      "demanded</w>": 4155,
      "funeral</w>": 4156,
      "secrets</w>": 4157,
      "wre": 4158,
      "lted</w>": 4159,
      "reminds</w>": 4160,
      "ther": 4161,
      "egg</w>": 4162,
      "miles</w>": 4163,
      "papers</w>": 4164,
      "amu": 4165,
      "album</w>": 4166,
      "drugs</w>": 4167,
      "fifteen</w>": 4168,
      "hall</w>": 4169,
      "closet</w>": 4170,
      "louder</w>": 4171,
      "meter</w>": 4172,
      "nearby</w>": 4173,
      "stantly</w>": 4174,
      "film</w>": 4175,
      "flies</w>": 4176,
      "stared</w>": 4177,
      "oh</w>": 4178,
      "positive</w>": 4179,
      "hopes</w>": 4180,
      "classes</w>": 4181,
      "dessert</w>": 4182,
      "investigation</w>": 4183,
      "repor": 4184,
      "sors</w>": 4185,
      "scene</w>": 4186,
      "wondered</w>": 4187,
      "entrance</w>": 4188,
      "disagree</w>": 4189,
      "appropriate</w>": 4190,
      "engaged</w>": 4191,
      "zi": 4192,
      "dona": 4193,
      "clai": 4194,
      "blew</w>": 4195,
      "alle": 4196,
      "redu": 4197,
      "zes</w>": 4198,
      "diagno": 4199,
      "gue": 4200,
      "extra</w>": 4201,
      "stealing</w>": 4202,
      "humor</w>": 4203,
      "titude</w>": 4204,
      "criminal</w>": 4205,
      "dead": 4206,
      "doll</w>": 4207,
      "intention</w>": 4208,
      "lugg": 4209,
      "luggage</w>": 4210,
      "ease</w>": 4211,
      "insane</w>": 4212,
      "resour": 4213,
      "end": 4214,
      "2013</w>": 4215,
      "sympa": 4216,
      "program</w>": 4217,
      "false</w>": 4218,
      "greatest</w>": 4219,
      "beard</w>": 4220,
      "beg</w>": 4221,
      "bits</w>": 4222,
      "brief": 4223,
      "fantastic</w>": 4224,
      "bleeding</w>": 4225,
      "deserves</w>": 4226,
      "materi": 4227,
      "ference</w>": 4228,
      "plate</w>": 4229,
      "apologized</w>": 4230,
      "crash</w>": 4231,
      "regar": 4232,
      "generally</w>": 4233,
      "gathered</w>": 4234,
      "dete": 4235,
      "goods</w>": 4236,
      "data</w>": 4237,
      "sand</w>": 4238,
      "trap</w>": 4239,
      "roman": 4240,
      "informed</w>": 4241,
      "value</w>": 4242,
      "stand": 4243,
      "carrots</w>": 4244,
      "trained</w>": 4245,
      "sters</w>": 4246,
      "non</w>": 4247,
      "surrounded</w>": 4248,
      "inju": 4249,
      "thou": 4250,
      "squi": 4251,
      "qualified</w>": 4252,
      "weigh</w>": 4253,
      "walks</w>": 4254,
      "mn</w>": 4255,
      "fake</w>": 4256,
      "gn": 4257,
      "parking</w>": 4258,
      "sers</w>": 4259,
      "deba": 4260,
      "lightly</w>": 4261,
      "divi": 4262,
      "answering</w>": 4263,
      "oth</w>": 4264,
      "stamp</w>": 4265,
      "zer": 4266,
      "remembered</w>": 4267,
      "sni": 4268,
      "mon</w>": 4269,
      "tower</w>": 4270,
      "arily</w>": 4271,
      "biggest</w>": 4272,
      "envelope</w>": 4273,
      "employees</w>": 4274,
      "split</w>": 4275,
      "presen": 4276,
      "cop</w>": 4277,
      "volume</w>": 4278,
      "breaking</w>": 4279,
      "wra": 4280,
      "section</w>": 4281,
      "part": 4282,
      "ards</w>": 4283,
      "baske": 4284,
      "basketball</w>": 4285,
      "suppor": 4286,
      "economy</w>": 4287,
      "lest</w>": 4288,
      "fought</w>": 4289,
      "battle</w>": 4290,
      "terrified</w>": 4291,
      "interpre": 4292,
      "path</w>": 4293,
      "reasons</w>": 4294,
      "drug</w>": 4295,
      "motor": 4296,
      "securi": 4297,
      "security</w>": 4298,
      "tip</w>": 4299,
      "obli": 4300,
      "burning</w>": 4301,
      "inclu": 4302,
      "human": 4303,
      "politici": 4304,
      "hanging</w>": 4305,
      "zz</w>": 4306,
      "sounded</w>": 4307,
      "origin": 4308,
      "salad</w>": 4309,
      "signifi": 4310,
      "toward</w>": 4311,
      "une</w>": 4312,
      "visiting</w>": 4313,
      "packed</w>": 4314,
      "sells</w>": 4315,
      "alternative</w>": 4316,
      "shots</w>": 4317,
      "largest</w>": 4318,
      "bey": 4319,
      "beyond</w>": 4320,
      "luc": 4321,
      "baked</w>": 4322,
      "violi": 4323,
      "violin</w>": 4324,
      "snor": 4325,
      "anti": 4326,
      "cles</w>": 4327,
      "sca": 4328,
      "challen": 4329,
      "challenge</w>": 4330,
      "greeted</w>": 4331,
      "buried</w>": 4332,
      "trunk</w>": 4333,
      "journa": 4334,
      "average</w>": 4335,
      "fan</w>": 4336,
      "gran": 4337,
      "happier</w>": 4338,
      "cell</w>": 4339,
      "violence</w>": 4340,
      "vering</w>": 4341,
      "computers</w>": 4342,
      "master</w>": 4343,
      "jer": 4344,
      "saving</w>": 4345,
      "troub": 4346,
      "bi</w>": 4347,
      "streets</w>": 4348,
      "’</w>": 4349,
      "kable</w>": 4350,
      "rub": 4351,
      "handy</w>": 4352,
      "remove</w>": 4353,
      "wash": 4354,
      "translated</w>": 4355,
      "rece": 4356,
      "ative</w>": 4357,
      "local</w>": 4358,
      "hammer</w>": 4359,
      "pha": 4360,
      "occa": 4361,
      "suffering</w>": 4362,
      "owns</w>": 4363,
      "snakes</w>": 4364,
      "desi": 4365,
      "ghost</w>": 4366,
      "light": 4367,
      "published</w>": 4368,
      "conse": 4369,
      "ssors</w>": 4370,
      "eigh": 4371,
      "struck</w>": 4372,
      "optimistic</w>": 4373,
      "mpi": 4374,
      "soa": 4375,
      "pper</w>": 4376,
      "xing</w>": 4377,
      "adver": 4378,
      "founded</w>": 4379,
      "eleven</w>": 4380,
      "fers</w>": 4381,
      "shoe</w>": 4382,
      "fate</w>": 4383,
      "direct</w>": 4384,
      "behave</w>": 4385,
      "shake</w>": 4386,
      "gifts</w>": 4387,
      "tta</w>": 4388,
      "stubborn</w>": 4389,
      "partici": 4390,
      "crashed</w>": 4391,
      "assistant</w>": 4392,
      "basket</w>": 4393,
      "unexpe": 4394,
      "dor": 4395,
      "holidays</w>": 4396,
      "upon</w>": 4397,
      "selfish</w>": 4398,
      "berries</w>": 4399,
      "pot</w>": 4400,
      "professional</w>": 4401,
      "farmer</w>": 4402,
      "surviv": 4403,
      "goals</w>": 4404,
      "scol": 4405,
      "scolded</w>": 4406,
      "ships</w>": 4407,
      "cooper": 4408,
      "influ": 4409,
      "ambul": 4410,
      "ambulance</w>": 4411,
      "stances</w>": 4412,
      "rise</w>": 4413,
      "exist</w>": 4414,
      "dai": 4415,
      "gratu": 4416,
      "content</w>": 4417,
      "compro": 4418,
      "compromi": 4419,
      "sunglasses</w>": 4420,
      "unemp": 4421,
      "chief</w>": 4422,
      "increase</w>": 4423,
      "lion</w>": 4424,
      "20</w>": 4425,
      "vain</w>": 4426,
      "fuji</w>": 4427,
      "citi": 4428,
      "beef</w>": 4429,
      "downtown</w>": 4430,
      "embarrassing</w>": 4431,
      "mony</w>": 4432,
      "constru": 4433,
      "spite</w>": 4434,
      "removed</w>": 4435,
      "ols</w>": 4436,
      "mosqui": 4437,
      "cigarettes</w>": 4438,
      "kissing</w>": 4439,
      "risks</w>": 4440,
      "quie": 4441,
      "gotta</w>": 4442,
      "searched</w>": 4443,
      "cleared</w>": 4444,
      "snowing</w>": 4445,
      "diagnosed</w>": 4446,
      "oppo": 4447,
      "sition</w>": 4448,
      "discovered</w>": 4449,
      "online</w>": 4450,
      "improved</w>": 4451,
      "unfair</w>": 4452,
      "ordin": 4453,
      "required</w>": 4454,
      "shave</w>": 4455,
      "actor</w>": 4456,
      "expert</w>": 4457,
      "compo": 4458,
      "rou": 4459,
      "ceful</w>": 4460,
      "levant</w>": 4461,
      "male</w>": 4462,
      "frequ": 4463,
      "preparing</w>": 4464,
      "throat</w>": 4465,
      "ess": 4466,
      "double</w>": 4467,
      "screen</w>": 4468,
      "itself</w>": 4469,
      "truly</w>": 4470,
      "coward</w>": 4471,
      "subway</w>": 4472,
      "exchange</w>": 4473,
      "coach</w>": 4474,
      "edge</w>": 4475,
      "congratu": 4476,
      "committ": 4477,
      "committee</w>": 4478,
      "comment</w>": 4479,
      "germany</w>": 4480,
      "craw": 4481,
      "shook</w>": 4482,
      "conference</w>": 4483,
      "ancient</w>": 4484,
      "loyed</w>": 4485,
      "strength</w>": 4486,
      "steal</w>": 4487,
      "ppy</w>": 4488,
      "develo": 4489,
      "ingui": 4490,
      "wasted</w>": 4491,
      "miracle</w>": 4492,
      "logist</w>": 4493,
      "roll</w>": 4494,
      "jazz</w>": 4495,
      "afri": 4496,
      "closely</w>": 4497,
      "bowl</w>": 4498,
      "valuable</w>": 4499,
      "exact</w>": 4500,
      "lack</w>": 4501,
      "birth</w>": 4502,
      "court</w>": 4503,
      "bage</w>": 4504,
      "general</w>": 4505,
      "starts</w>": 4506,
      "earns</w>": 4507,
      "picking</w>": 4508,
      "photos</w>": 4509,
      "justi": 4510,
      "frustra": 4511,
      "disgusting</w>": 4512,
      "stage</w>": 4513,
      "tled</w>": 4514,
      "error</w>": 4515,
      "que</w>": 4516,
      "skirt</w>": 4517,
      "silver</w>": 4518,
      "bills</w>": 4519,
      "shock</w>": 4520,
      "tradi": 4521,
      "experiment</w>": 4522,
      "vari": 4523,
      "matic</w>": 4524,
      "narrow</w>": 4525,
      "departure</w>": 4526,
      "warmer</w>": 4527,
      "planet</w>": 4528,
      "action</w>": 4529,
      "house": 4530,
      "imagined</w>": 4531,
      "sn": 4532,
      "co</w>": 4533,
      "lecture</w>": 4534,
      "nea": 4535,
      "myst": 4536,
      "mystery</w>": 4537,
      "quality</w>": 4538,
      "products</w>": 4539,
      "bloo": 4540,
      "agger": 4541,
      "harvard</w>": 4542,
      "rabbit</w>": 4543,
      "dedi": 4544,
      "claus</w>": 4545,
      "blon": 4546,
      "invented</w>": 4547,
      "research</w>": 4548,
      "officer</w>": 4549,
      "west</w>": 4550,
      "bomb</w>": 4551,
      "eal</w>": 4552,
      "tourist": 4553,
      "tourists</w>": 4554,
      "classi": 4555,
      "acceptable</w>": 4556,
      "bing</w>": 4557,
      "candy</w>": 4558,
      "civi": 4559,
      "appar": 4560,
      "sau": 4561,
      "eve</w>": 4562,
      "asi": 4563,
      "notebook</w>": 4564,
      "finan": 4565,
      "romantic</w>": 4566,
      "gy": 4567,
      "spain</w>": 4568,
      "gery</w>": 4569,
      "tail</w>": 4570,
      "scissors</w>": 4571,
      "cere": 4572,
      "ality</w>": 4573,
      "repu": 4574,
      "wild</w>": 4575,
      "neck</w>": 4576,
      "contest</w>": 4577,
      "oranges</w>": 4578,
      "tense</w>": 4579,
      "documents</w>": 4580,
      "ize</w>": 4581,
      "brigh": 4582,
      "ghed</w>": 4583,
      "scream</w>": 4584,
      "arrest</w>": 4585,
      "mud</w>": 4586,
      "stered</w>": 4587,
      "measu": 4588,
      "autu": 4589,
      "autumn</w>": 4590,
      "applied</w>": 4591,
      "miserable</w>": 4592,
      "spy</w>": 4593,
      "sophi": 4594,
      "rare</w>": 4595,
      "mouse</w>": 4596,
      "larger</w>": 4597,
      "cities</w>": 4598,
      "bio": 4599,
      "fashion</w>": 4600,
      "resist</w>": 4601,
      "soft</w>": 4602,
      "bananas</w>": 4603,
      "gri": 4604,
      "misunderstood</w>": 4605,
      "faith</w>": 4606,
      "pies</w>": 4607,
      "author</w>": 4608,
      "surprising</w>": 4609,
      "condition": 4610,
      "assumed</w>": 4611,
      "fluently</w>": 4612,
      "rious</w>": 4613,
      "six": 4614,
      "mance</w>": 4615,
      "vic": 4616,
      "dder</w>": 4617,
      "diamon": 4618,
      "climbing</w>": 4619,
      "slipped</w>": 4620,
      "dal</w>": 4621,
      "haircut</w>": 4622,
      "vated</w>": 4623,
      "cheer</w>": 4624,
      "disappoint</w>": 4625,
      "distracted</w>": 4626,
      "powerful</w>": 4627,
      "wheel</w>": 4628,
      "consequ": 4629,
      "rep": 4630,
      "senten": 4631,
      "loser</w>": 4632,
      "ceiling</w>": 4633,
      "wound</w>": 4634,
      "bran": 4635,
      "suspe": 4636,
      "numbers</w>": 4637,
      "cave</w>": 4638,
      "adverti": 4639,
      "remains</w>": 4640,
      "personally</w>": 4641,
      "medication</w>": 4642,
      "jected</w>": 4643,
      "count": 4644,
      "inting</w>": 4645,
      "euro": 4646,
      "cows</w>": 4647,
      "crisis</w>": 4648,
      "adult</w>": 4649,
      "suits</w>": 4650,
      "gnant</w>": 4651,
      "sheep</w>": 4652,
      "laundry</w>": 4653,
      "lucki": 4654,
      "astro": 4655,
      "terribly</w>": 4656,
      "document</w>": 4657,
      "possibly</w>": 4658,
      "sticated</w>": 4659,
      "musician</w>": 4660,
      "poison</w>": 4661,
      "grown</w>": 4662,
      "trains</w>": 4663,
      "object</w>": 4664,
      "field</w>": 4665,
      "damaged</w>": 4666,
      "taxes</w>": 4667,
      "complex</w>": 4668,
      "granted</w>": 4669,
      "circu": 4670,
      "veri": 4671,
      "decei": 4672,
      "total</w>": 4673,
      "pick": 4674,
      "rings</w>": 4675,
      "reads</w>": 4676,
      "pic</w>": 4677,
      "phoned</w>": 4678,
      "circle</w>": 4679,
      "merry</w>": 4680,
      "buildings</w>": 4681,
      "dawn</w>": 4682,
      "mental</w>": 4683,
      "participa": 4684,
      "dreamed</w>": 4685,
      "whisp": 4686,
      "aggre": 4687,
      "scenery</w>": 4688,
      "sday</w>": 4689,
      "pil": 4690,
      "kid": 4691,
      "bargain</w>": 4692,
      "boots</w>": 4693,
      "source</w>": 4694,
      "prisoner</w>": 4695,
      "spoon</w>": 4696,
      "importance</w>": 4697,
      "heart": 4698,
      "twins</w>": 4699,
      "slo": 4700,
      "nails</w>": 4701,
      "bucket</w>": 4702,
      "slipp": 4703,
      "ham": 4704,
      "vegetarian</w>": 4705,
      "intended</w>": 4706,
      "jerk</w>": 4707,
      "frea": 4708,
      "focu": 4709,
      "border</w>": 4710,
      "shou": 4711,
      "swee": 4712,
      "ribu": 4713,
      "els</w>": 4714,
      "drew</w>": 4715,
      "permitted</w>": 4716,
      "tran": 4717,
      "code</w>": 4718,
      "peel</w>": 4719,
      "calcu": 4720,
      "tat": 4721,
      "err": 4722,
      "leak</w>": 4723,
      "cher</w>": 4724,
      "moti": 4725,
      "unexpected</w>": 4726,
      "social</w>": 4727,
      "lets</w>": 4728,
      "dable</w>": 4729,
      "osa": 4730,
      "sophisticated</w>": 4731,
      "captured</w>": 4732,
      "settled</w>": 4733,
      "department</w>": 4734,
      "stoni": 4735,
      "tempor": 4736,
      "deadline</w>": 4737,
      "heavily</w>": 4738,
      "unconscious</w>": 4739,
      "appearance</w>": 4740,
      "released</w>": 4741,
      "ddy</w>": 4742,
      "volunteer</w>": 4743,
      "youngest</w>": 4744,
      "grees</w>": 4745,
      "mbo": 4746,
      "lari": 4747,
      "height</w>": 4748,
      "dependent</w>": 4749,
      "examined</w>": 4750,
      "topic</w>": 4751,
      "plant</w>": 4752,
      "equal</w>": 4753,
      "canadians</w>": 4754,
      "burg": 4755,
      "bre": 4756,
      "handled</w>": 4757,
      "task</w>": 4758,
      "suitcases</w>": 4759,
      "compromise</w>": 4760,
      "shi</w>": 4761,
      "bene": 4762,
      "folded</w>": 4763,
      "choices</w>": 4764,
      "coins</w>": 4765,
      "supplies</w>": 4766,
      "alty</w>": 4767,
      "culture</w>": 4768,
      "motorcycle</w>": 4769,
      "vid</w>": 4770,
      "life": 4771,
      "toys</w>": 4772,
      "breathing</w>": 4773,
      "mat</w>": 4774,
      "toy</w>": 4775,
      "tivi": 4776,
      "bound</w>": 4777,
      "earn</w>": 4778,
      "ker": 4779,
      "gym</w>": 4780,
      "tub</w>": 4781,
      "cookie</w>": 4782,
      "bitter</w>": 4783,
      "thu": 4784,
      "accurate</w>": 4785,
      "cher": 4786,
      "surgery</w>": 4787,
      "climate</w>": 4788,
      "suffer</w>": 4789,
      "ceremony</w>": 4790,
      "lightning</w>": 4791,
      "ety</w>": 4792,
      "signific": 4793,
      "tically</w>": 4794,
      "garbage</w>": 4795,
      "convenient</w>": 4796,
      "grades</w>": 4797,
      "howe": 4798,
      "however</w>": 4799,
      "recent</w>": 4800,
      "hi</w>": 4801,
      "bunch</w>": 4802,
      "cigarette</w>": 4803,
      "shirts</w>": 4804,
      "sleeps</w>": 4805,
      "incredibly</w>": 4806,
      "impressive</w>": 4807,
      "rail": 4808,
      "oning</w>": 4809,
      "accompani": 4810,
      "defea": 4811,
      "respond</w>": 4812,
      "cheer": 4813,
      "colors</w>": 4814,
      "admired</w>": 4815,
      "crack</w>": 4816,
      "acquainted</w>": 4817,
      "worthy</w>": 4818,
      "hero": 4819,
      "luckily</w>": 4820,
      "cree": 4821,
      "evil</w>": 4822,
      "nowa": 4823,
      "nowadays</w>": 4824,
      "ka</w>": 4825,
      "budget</w>": 4826,
      "ordinary</w>": 4827,
      "astoni": 4828,
      "below</w>": 4829,
      "blow</w>": 4830,
      "micro": 4831,
      "skep": 4832,
      "pride</w>": 4833,
      "translation</w>": 4834,
      "sweat</w>": 4835,
      "stepped</w>": 4836,
      "bac": 4837,
      "beside</w>": 4838,
      "tated</w>": 4839,
      "plain</w>": 4840,
      "butter": 4841,
      "cop": 4842,
      "lawn</w>": 4843,
      "ada": 4844,
      "exagger": 4845,
      "tigh": 4846,
      "provided</w>": 4847,
      "gage</w>": 4848,
      "ddle</w>": 4849,
      "twel": 4850,
      "lations</w>": 4851,
      "bilities</w>": 4852,
      "tallest</w>": 4853,
      "commit</w>": 4854,
      "sushi</w>": 4855,
      "mbled</w>": 4856,
      "slice</w>": 4857,
      "humili": 4858,
      "mentally</w>": 4859,
      "ghosts</w>": 4860,
      "cus": 4861,
      "mally</w>": 4862,
      "len": 4863,
      "require</w>": 4864,
      "text": 4865,
      "centu": 4866,
      "jeans</w>": 4867,
      "teenager</w>": 4868,
      "ital": 4869,
      "flew</w>": 4870,
      "laughter</w>": 4871,
      "collap": 4872,
      "brin": 4873,
      "bringing</w>": 4874,
      "postponed</w>": 4875,
      "method</w>": 4876,
      "diplo": 4877,
      "nerve</w>": 4878,
      "achieved</w>": 4879,
      "hoped</w>": 4880,
      "accompanied</w>": 4881,
      "soul</w>": 4882,
      "defeated</w>": 4883,
      "accent</w>": 4884,
      "strea": 4885,
      "settle</w>": 4886,
      "mly</w>": 4887,
      "supply</w>": 4888,
      "remo": 4889,
      "industry</w>": 4890,
      "knock</w>": 4891,
      "annoyed</w>": 4892,
      "basement</w>": 4893,
      "twin</w>": 4894,
      "paja": 4895,
      "pajamas</w>": 4896,
      "apri": 4897,
      "raw</w>": 4898,
      "straw": 4899,
      "sees</w>": 4900,
      "charges</w>": 4901,
      "awfully</w>": 4902,
      "stopping</w>": 4903,
      "ckla": 4904,
      "spir": 4905,
      "screamed</w>": 4906,
      "repla": 4907,
      "ite": 4908,
      "hidden</w>": 4909,
      "thousan": 4910,
      "thousands</w>": 4911,
      "battery</w>": 4912,
      "particularly</w>": 4913,
      "starving</w>": 4914,
      "nega": 4915,
      "negative</w>": 4916,
      "active</w>": 4917,
      "hundre": 4918,
      "blamed</w>": 4919,
      "regular</w>": 4920,
      "toms</w>": 4921,
      "anu": 4922,
      "guaran": 4923,
      "twelve</w>": 4924,
      "seven": 4925,
      "princi": 4926,
      "perfor": 4927,
      "graduate</w>": 4928,
      "hopeless</w>": 4929,
      "frozen</w>": 4930,
      "tend</w>": 4931,
      "constantly</w>": 4932,
      "pol": 4933,
      "fluent</w>": 4934,
      "eager</w>": 4935,
      "dated</w>": 4936,
      "custom</w>": 4937,
      "charged</w>": 4938,
      "objective</w>": 4939,
      "notes</w>": 4940,
      "complaint</w>": 4941,
      "normally</w>": 4942,
      "million": 4943,
      "conta": 4944,
      "fined</w>": 4945,
      "policy</w>": 4946,
      "pay": 4947,
      "classmates</w>": 4948,
      "timid</w>": 4949,
      "discount</w>": 4950,
      "attitude</w>": 4951,
      "mated</w>": 4952,
      "cloth</w>": 4953,
      "collection</w>": 4954,
      "treatment</w>": 4955,
      "africa</w>": 4956,
      "italy</w>": 4957,
      "violent</w>": 4958,
      "lung</w>": 4959,
      "candles</w>": 4960,
      "provide</w>": 4961,
      "dumped</w>": 4962,
      "pronounce</w>": 4963,
      "efficient</w>": 4964,
      "sum</w>": 4965,
      "glan": 4966,
      "bare</w>": 4967,
      "outra": 4968,
      "condu": 4969,
      "steps</w>": 4970,
      "rescued</w>": 4971,
      "cow</w>": 4972,
      "ats</w>": 4973,
      "bone</w>": 4974,
      "gor": 4975,
      "moni": 4976,
      "tionally</w>": 4977,
      "tattoo</w>": 4978,
      "bee</w>": 4979,
      "fainted</w>": 4980,
      "difficulties</w>": 4981,
      "trapped</w>": 4982,
      "phe": 4983,
      "actress</w>": 4984,
      "dure</w>": 4985,
      "bug</w>": 4986,
      "swal": 4987,
      "night": 4988,
      "conditions</w>": 4989,
      "track</w>": 4990,
      "frequently</w>": 4991,
      "heads</w>": 4992,
      "lips</w>": 4993,
      "privac": 4994,
      "privacy</w>": 4995,
      "anytime</w>": 4996,
      "surren": 4997,
      "aimed</w>": 4998,
      "cr": 4999,
      "cough</w>": 5000,
      "ential</w>": 5001,
      "opinions</w>": 5002,
      "pitch</w>": 5003,
      "baggage</w>": 5004,
      "magazines</w>": 5005,
      "electric</w>": 5006,
      "helpless</w>": 5007,
      "ffing</w>": 5008,
      "guarante": 5009,
      "misto": 5010,
      "mistook</w>": 5011,
      "tening</w>": 5012,
      "secretary</w>": 5013,
      "prohibi": 5014,
      "pipe</w>": 5015,
      "hunting</w>": 5016,
      "staff</w>": 5017,
      "unemployed</w>": 5018,
      "seconds</w>": 5019,
      "knee</w>": 5020,
      "chairs</w>": 5021,
      "invest": 5022,
      "effective</w>": 5023,
      "crossing</w>": 5024,
      "ouse</w>": 5025,
      "grandparents</w>": 5026,
      "witness</w>": 5027,
      "switch</w>": 5028,
      "attempted</w>": 5029,
      "rumor": 5030,
      "18": 5031,
      "beating</w>": 5032,
      "overweight</w>": 5033,
      "slight</w>": 5034,
      "strangers</w>": 5035,
      "cations</w>": 5036,
      "spiders</w>": 5037,
      "skipped</w>": 5038,
      "shade</w>": 5039,
      "steak</w>": 5040,
      "significant</w>": 5041,
      "focused</w>": 5042,
      "collecting</w>": 5043,
      "gambling</w>": 5044,
      "charming</w>": 5045,
      "shoulders</w>": 5046,
      "deserved</w>": 5047,
      "tively</w>": 5048,
      "curren": 5049,
      "menu</w>": 5050,
      "terrific</w>": 5051,
      "aire</w>": 5052,
      "carpet</w>": 5053,
      "murdered</w>": 5054,
      "excuses</w>": 5055,
      "believable</w>": 5056,
      "rejected</w>": 5057,
      "poison": 5058,
      "beginner</w>": 5059,
      "suffered</w>": 5060,
      "issu": 5061,
      "volunteered</w>": 5062,
      "load</w>": 5063,
      "ense</w>": 5064,
      "wide</w>": 5065,
      "relu": 5066,
      "reluct": 5067,
      "quietly</w>": 5068,
      "guide</w>": 5069,
      "training</w>": 5070,
      "visa</w>": 5071,
      "trousers</w>": 5072,
      "refle": 5073,
      "debate</w>": 5074,
      "tement</w>": 5075,
      "connected</w>": 5076,
      "dol": 5077,
      "cell": 5078,
      "skeptical</w>": 5079,
      "clue</w>": 5080,
      "although</w>": 5081,
      "visitors</w>": 5082,
      "daughters</w>": 5083,
      "authority</w>": 5084,
      "pressing</w>": 5085,
      "grave</w>": 5086,
      "humble</w>": 5087,
      "tray</w>": 5088,
      "worn</w>": 5089,
      "product</w>": 5090,
      "tune</w>": 5091,
      "hook</w>": 5092,
      "freedom</w>": 5093,
      "demo": 5094,
      "photograph</w>": 5095,
      "rented</w>": 5096,
      "half": 5097,
      "landed</w>": 5098,
      "toma": 5099,
      "aggressive</w>": 5100,
      "ffed</w>": 5101,
      "based</w>": 5102,
      "joined</w>": 5103,
      "sites</w>": 5104,
      "arriving</w>": 5105,
      "flu</w>": 5106,
      "environ": 5107,
      "temper</w>": 5108,
      "aries</w>": 5109,
      "towards</w>": 5110,
      "gol": 5111,
      "scientists</w>": 5112,
      "handker": 5113,
      "archi": 5114,
      "pills</w>": 5115,
      "equi": 5116,
      "century</w>": 5117,
      "envy</w>": 5118,
      "ates</w>": 5119,
      "ggy</w>": 5120,
      "stling</w>": 5121,
      "plastic</w>": 5122,
      "beans</w>": 5123,
      "rumors</w>": 5124,
      "tires</w>": 5125,
      "original</w>": 5126,
      "body": 5127,
      "glo": 5128,
      "scary</w>": 5129,
      "thless</w>": 5130,
      "heading</w>": 5131,
      "camping</w>": 5132,
      "bullet</w>": 5133,
      "walls</w>": 5134,
      "hers</w>": 5135,
      "bald</w>": 5136,
      "junk</w>": 5137,
      "approach</w>": 5138,
      "spil": 5139,
      "loose</w>": 5140,
      "basi": 5141,
      "correctly</w>": 5142,
      "guessed</w>": 5143,
      "magic</w>": 5144,
      "techni": 5145,
      "remote</w>": 5146,
      "scientist</w>": 5147,
      "fork</w>": 5148,
      "darker</w>": 5149,
      "rising</w>": 5150,
      "survivors</w>": 5151,
      "neckla": 5152,
      "necklace</w>": 5153,
      "rescue</w>": 5154,
      "uses</w>": 5155,
      "postpone</w>": 5156,
      "screw</w>": 5157,
      "tin</w>": 5158,
      "typho": 5159,
      "other": 5160,
      "otherwise</w>": 5161,
      "nerves</w>": 5162,
      "abs": 5163,
      "absence</w>": 5164,
      "creative</w>": 5165,
      "swam</w>": 5166,
      "chop": 5167,
      "pardon</w>": 5168,
      "hundreds</w>": 5169,
      "nel</w>": 5170,
      "debts</w>": 5171,
      "tine</w>": 5172,
      "dollar</w>": 5173,
      "candle</w>": 5174,
      "gen</w>": 5175,
      "bluffing</w>": 5176,
      "gray</w>": 5177,
      "thank": 5178,
      "attic</w>": 5179,
      "devoted</w>": 5180,
      "ladder</w>": 5181,
      "receipt</w>": 5182,
      "incident</w>": 5183,
      "stops</w>": 5184,
      "grapes</w>": 5185,
      "prohibited</w>": 5186,
      "grows</w>": 5187,
      "event</w>": 5188,
      "sail": 5189,
      "rushed</w>": 5190,
      "tish</w>": 5191,
      "competent</w>": 5192,
      "sleeve</w>": 5193,
      "washer</w>": 5194,
      "connection</w>": 5195,
      "poet</w>": 5196,
      "especi": 5197,
      "especially</w>": 5198,
      "ruin</w>": 5199,
      "searching</w>": 5200,
      "300</w>": 5201,
      "conclusion</w>": 5202,
      "puppy</w>": 5203,
      "stores</w>": 5204,
      "nail</w>": 5205,
      "infe": 5206,
      "defe": 5207,
      "mentioned</w>": 5208,
      "attra": 5209,
      "sink</w>": 5210,
      "risky</w>": 5211,
      "tedly</w>": 5212,
      "fox</w>": 5213,
      "acts</w>": 5214,
      "tles</w>": 5215,
      "fascinating</w>": 5216,
      "limit</w>": 5217,
      "sins</w>": 5218,
      "dancer</w>": 5219,
      "elephants</w>": 5220,
      "blackboard</w>": 5221,
      "fastest</w>": 5222,
      "awk": 5223,
      "confessed</w>": 5224,
      "customer</w>": 5225,
      "swing</w>": 5226,
      "expenses</w>": 5227,
      "engine": 5228,
      "valid</w>": 5229,
      "pul": 5230,
      "shared</w>": 5231,
      "talent</w>": 5232,
      "ior</w>": 5233,
      "disor": 5234,
      "puts</w>": 5235,
      "breaks</w>": 5236,
      "millionaire</w>": 5237,
      "bush</w>": 5238,
      "apparently</w>": 5239,
      "dragged</w>": 5240,
      "june</w>": 5241,
      "poker</w>": 5242,
      "rights</w>": 5243,
      "announced</w>": 5244,
      "russi": 5245,
      "sir</w>": 5246,
      "corn</w>": 5247,
      "minister</w>": 5248,
      "wire</w>": 5249,
      "hard": 5250,
      "honey</w>": 5251,
      "cheerful</w>": 5252,
      "eves</w>": 5253,
      "cakes</w>": 5254,
      "india</w>": 5255,
      "target</w>": 5256,
      "engagement</w>": 5257,
      "guns</w>": 5258,
      "cautious</w>": 5259,
      "crew</w>": 5260,
      "wolf</w>": 5261,
      "stration</w>": 5262,
      "cheek</w>": 5263,
      "divided</w>": 5264,
      "parts</w>": 5265,
      "lessons</w>": 5266,
      "wishes</w>": 5267,
      "cups</w>": 5268,
      "bookstore</w>": 5269,
      "xu": 5270,
      "main": 5271,
      "handwriting</w>": 5272,
      "pulling</w>": 5273,
      "blanket</w>": 5274,
      "ssor</w>": 5275,
      "drowning</w>": 5276,
      "rain": 5277,
      "neat</w>": 5278,
      "sensible</w>": 5279,
      "spelling</w>": 5280,
      "appeti": 5281,
      "nicer</w>": 5282,
      "heli": 5283,
      "snake</w>": 5284,
      "hypo": 5285,
      "volunteers</w>": 5286,
      "strongly</w>": 5287,
      "sunscreen</w>": 5288,
      "underestimate</w>": 5289,
      "suitable</w>": 5290,
      "knees</w>": 5291,
      "forgetting</w>": 5292,
      "cd</w>": 5293,
      "performance</w>": 5294,
      "halfway</w>": 5295,
      "tial</w>": 5296,
      "grounded</w>": 5297,
      "gru": 5298,
      "mexi": 5299,
      "sion": 5300,
      "drawing</w>": 5301,
      "trash</w>": 5302,
      "classical</w>": 5303,
      "interpreter</w>": 5304,
      "mars</w>": 5305,
      "property</w>": 5306,
      "motivated</w>": 5307,
      "bil": 5308,
      "pathetic</w>": 5309,
      "cheating</w>": 5310,
      "inguish</w>": 5311,
      "verted</w>": 5312,
      "activi": 5313,
      "slightly</w>": 5314,
      "financial</w>": 5315,
      "mature</w>": 5316,
      "exchanged</w>": 5317,
      "finger": 5318,
      "highest</w>": 5319,
      "dd": 5320,
      "arrives</w>": 5321,
      "weekends</w>": 5322,
      "dless</w>": 5323,
      "consequences</w>": 5324,
      "holic</w>": 5325,
      "worker</w>": 5326,
      "agrees</w>": 5327,
      "occur</w>": 5328,
      "attempt</w>": 5329,
      "susp": 5330,
      "gon": 5331,
      "bon</w>": 5332,
      "ware</w>": 5333,
      "soldier</w>": 5334,
      "manual</w>": 5335,
      "shows</w>": 5336,
      "ored</w>": 5337,
      "planes</w>": 5338,
      "cist</w>": 5339,
      "journey</w>": 5340,
      "england</w>": 5341,
      "thoughts</w>": 5342,
      "dislike</w>": 5343,
      "fresh": 5344,
      "ela": 5345,
      "accompli": 5346,
      "absor": 5347,
      "lance</w>": 5348,
      "forty</w>": 5349,
      "glanced</w>": 5350,
      "foreigners</w>": 5351,
      "contains</w>": 5352,
      "cock": 5353,
      "mmuni": 5354,
      "foot": 5355,
      "recall</w>": 5356,
      "pin": 5357,
      "sages</w>": 5358,
      "thri": 5359,
      "ee": 5360,
      "gger</w>": 5361,
      "presence</w>": 5362,
      "interf": 5363,
      "interfere</w>": 5364,
      "errors</w>": 5365,
      "crops</w>": 5366,
      "richer</w>": 5367,
      "demon": 5368,
      "showing</w>": 5369,
      "tage</w>": 5370,
      "tooth</w>": 5371,
      "adults</w>": 5372,
      "dded</w>": 5373,
      "subscri": 5374,
      "fle</w>": 5375,
      "luxu": 5376,
      "softw": 5377,
      "unnecessary</w>": 5378,
      "cellphone</w>": 5379,
      "tue</w>": 5380,
      "tcher</w>": 5381,
      "bow</w>": 5382,
      "sour</w>": 5383,
      "differ</w>": 5384,
      "fooled</w>": 5385,
      "current</w>": 5386,
      "forecast</w>": 5387,
      "degrees</w>": 5388,
      "brain</w>": 5389,
      "helicop": 5390,
      "circum": 5391,
      "located</w>": 5392,
      "bass</w>": 5393,
      "guest</w>": 5394,
      "nuclear</w>": 5395,
      "switched</w>": 5396,
      "leg": 5397,
      "genu": 5398,
      "dedicated</w>": 5399,
      "rest": 5400,
      "discouraged</w>": 5401,
      "intersection</w>": 5402,
      "pray</w>": 5403,
      "conditioner</w>": 5404,
      "accompany</w>": 5405,
      "geon</w>": 5406,
      "spin": 5407,
      "opposite</w>": 5408,
      "whale</w>": 5409,
      "victim</w>": 5410,
      "charac": 5411,
      "conce": 5412,
      "fee": 5413,
      "treating</w>": 5414,
      "pilot</w>": 5415,
      "ly": 5416,
      "oppon": 5417,
      "burglar</w>": 5418,
      "ckey</w>": 5419,
      "adven": 5420,
      "kidna": 5421,
      "conclusions</w>": 5422,
      "ength</w>": 5423,
      "deserted</w>": 5424,
      "pollu": 5425,
      "blocked</w>": 5426,
      "criticism</w>": 5427,
      "land": 5428,
      "players</w>": 5429,
      "20th</w>": 5430,
      "aly": 5431,
      "flash": 5432,
      "handkerchief</w>": 5433,
      "archite": 5434,
      "close": 5435,
      "cherry</w>": 5436,
      "servant</w>": 5437,
      "flood</w>": 5438,
      "achieve</w>": 5439,
      "bathtub</w>": 5440,
      "sse": 5441,
      "dried</w>": 5442,
      "wreck</w>": 5443,
      "comb": 5444,
      "poems</w>": 5445,
      "watches</w>": 5446,
      "consideration</w>": 5447,
      "gently</w>": 5448,
      "families</w>": 5449,
      "panic</w>": 5450,
      "oni": 5451,
      "minded</w>": 5452,
      "currently</w>": 5453,
      "exit</w>": 5454,
      "safely</w>": 5455,
      "tools</w>": 5456,
      "psychi": 5457,
      "yelled</w>": 5458,
      "tracked</w>": 5459,
      "reminded</w>": 5460,
      "ples</w>": 5461,
      "jewel": 5462,
      "wealth</w>": 5463,
      "murder": 5464,
      "banana</w>": 5465,
      "trusts</w>": 5466,
      "wiped</w>": 5467,
      "chair": 5468,
      "antici": 5469,
      "anticipa": 5470,
      "tle</w>": 5471,
      "universe</w>": 5472,
      "phra": 5473,
      "transp": 5474,
      "messages</w>": 5475,
      "expecta": 5476,
      "expectations</w>": 5477,
      "overrea": 5478,
      "supportive</w>": 5479,
      "thrown</w>": 5480,
      "mush": 5481,
      "precious</w>": 5482,
      "thieves</w>": 5483,
      "bott": 5484,
      "mas": 5485,
      "tender</w>": 5486,
      "cence</w>": 5487,
      "pregnant</w>": 5488,
      "gunshots</w>": 5489,
      "addicted</w>": 5490,
      "spider</w>": 5491,
      "destroy</w>": 5492,
      "boar": 5493,
      "judged</w>": 5494,
      "software</w>": 5495,
      "puzzle</w>": 5496,
      "added</w>": 5497,
      "sales</w>": 5498,
      "temporary</w>": 5499,
      "strawberries</w>": 5500,
      "eyesight</w>": 5501,
      "level</w>": 5502,
      "professor</w>": 5503,
      "maid</w>": 5504,
      "confirm</w>": 5505,
      "ex</w>": 5506,
      "devi": 5507,
      "competition</w>": 5508,
      "dealing</w>": 5509,
      "dates</w>": 5510,
      "snea": 5511,
      "accomplish</w>": 5512,
      "circumstances</w>": 5513,
      "applau": 5514,
      "insult</w>": 5515,
      "chase</w>": 5516,
      "critical</w>": 5517,
      "suspici": 5518,
      "emotional</w>": 5519,
      "sphere</w>": 5520,
      "discre": 5521,
      "majority</w>": 5522,
      "vacu": 5523,
      "riding</w>": 5524,
      "door": 5525,
      "ox": 5526,
      "exp": 5527,
      "ggle</w>": 5528,
      "os</w>": 5529,
      "shift</w>": 5530,
      "addressed</w>": 5531,
      "application</w>": 5532,
      "racket</w>": 5533,
      "besides</w>": 5534,
      "repea": 5535,
      "curtain</w>": 5536,
      "sinc": 5537,
      "sincere</w>": 5538,
      "outdoors</w>": 5539,
      "dishwasher</w>": 5540,
      "flag</w>": 5541,
      "vious</w>": 5542,
      "tiny</w>": 5543,
      "which": 5544,
      "whichever</w>": 5545,
      "decent</w>": 5546,
      "robb": 5547,
      "enjoys</w>": 5548,
      "finds</w>": 5549,
      "challeng": 5550,
      "appear</w>": 5551,
      "despise</w>": 5552,
      "wealthy</w>": 5553,
      "earned</w>": 5554,
      "hiking</w>": 5555,
      "mples</w>": 5556,
      "closest</w>": 5557,
      "april</w>": 5558,
      "deal": 5559,
      "religious</w>": 5560,
      "indoors</w>": 5561,
      "thanked</w>": 5562,
      "humans</w>": 5563,
      "awkward</w>": 5564,
      "appreciated</w>": 5565,
      "signs</w>": 5566,
      "laptop</w>": 5567,
      "detective</w>": 5568,
      "painful</w>": 5569,
      "valen": 5570,
      "valentine</w>": 5571,
      "pointed</w>": 5572,
      "volcan": 5573,
      "cared</w>": 5574,
      "intri": 5575,
      "intrigu": 5576,
      "shine</w>": 5577,
      "desert</w>": 5578,
      "thorough</w>": 5579,
      "chor": 5580,
      "197": 5581,
      "chased</w>": 5582,
      "political</w>": 5583,
      "approved</w>": 5584,
      "mmy</w>": 5585,
      "anic</w>": 5586,
      "flin": 5587,
      "arrang": 5588,
      "donated</w>": 5589,
      "daily</w>": 5590,
      "slippery</w>": 5591,
      "brushed</w>": 5592,
      "practicing</w>": 5593,
      "approve</w>": 5594,
      "issues</w>": 5595,
      "ue</w>": 5596,
      "east</w>": 5597,
      "gorgeous</w>": 5598,
      "pretending</w>": 5599,
      "windy</w>": 5600,
      "points</w>": 5601,
      "gulli": 5602,
      "chuck</w>": 5603,
      "tching</w>": 5604,
      "union</w>": 5605,
      "panicked</w>": 5606,
      "grabbed</w>": 5607,
      "counter</w>": 5608,
      "becomes</w>": 5609,
      "innocence</w>": 5610,
      "nal</w>": 5611,
      "zens</w>": 5612,
      "forms</w>": 5613,
      "500</w>": 5614,
      "disp": 5615,
      "guards</w>": 5616,
      "extra": 5617,
      "offend</w>": 5618,
      "shment</w>": 5619,
      "scope</w>": 5620,
      "approached</w>": 5621,
      "15</w>": 5622,
      "aim</w>": 5623,
      "ature</w>": 5624,
      "knocking</w>": 5625,
      "irrelevant</w>": 5626,
      "female</w>": 5627,
      "compare</w>": 5628,
      "appetite</w>": 5629,
      "stated</w>": 5630,
      "mean": 5631,
      "verify</w>": 5632,
      "techno": 5633,
      "tasted</w>": 5634,
      "ssy</w>": 5635,
      "brief</w>": 5636,
      "starved</w>": 5637,
      "atmo": 5638,
      "copies</w>": 5639,
      "sings</w>": 5640,
      "curtains</w>": 5641,
      "charity</w>": 5642,
      "surgeon</w>": 5643,
      "del": 5644,
      "must": 5645,
      "tip": 5646,
      "faces</w>": 5647,
      "victory</w>": 5648,
      "register</w>": 5649,
      "contradi": 5650,
      "paste</w>": 5651,
      "briefly</w>": 5652,
      "diamond</w>": 5653,
      "pencils</w>": 5654,
      "celebrating</w>": 5655,
      "increased</w>": 5656,
      "shoo": 5657,
      "stain</w>": 5658,
      "lamp</w>": 5659,
      "rocks</w>": 5660,
      "flour</w>": 5661,
      "la</w>": 5662,
      "spira": 5663,
      "messed</w>": 5664,
      "affair</w>": 5665,
      "behaving</w>": 5666,
      "british</w>": 5667,
      "buys</w>": 5668,
      "testi": 5669,
      "side": 5670,
      "slip</w>": 5671,
      "owes</w>": 5672,
      "buses</w>": 5673,
      "brand</w>": 5674,
      "rupt</w>": 5675,
      "richest</w>": 5676,
      "log</w>": 5677,
      "respected</w>": 5678,
      "waved</w>": 5679,
      "decorate</w>": 5680,
      "flashlight</w>": 5681,
      "squirre": 5682,
      "production</w>": 5683,
      "assure</w>": 5684,
      "talized</w>": 5685,
      "exams</w>": 5686,
      "freezing</w>": 5687,
      "foun": 5688,
      "prime</w>": 5689,
      "grade</w>": 5690,
      "tricks</w>": 5691,
      "stays</w>": 5692,
      "mmate</w>": 5693,
      "remarks</w>": 5694,
      "tore</w>": 5695,
      "proceed</w>": 5696,
      "fund</w>": 5697,
      "trade</w>": 5698,
      "ambition</w>": 5699,
      "ributed</w>": 5700,
      "tons</w>": 5701,
      "temptation</w>": 5702,
      "essay</w>": 5703,
      "recommended</w>": 5704,
      "expi": 5705,
      "unbelievable</w>": 5706,
      "sandwiches</w>": 5707,
      "pover": 5708,
      "poverty</w>": 5709,
      "welcom": 5710,
      "welcomed</w>": 5711,
      "murderer</w>": 5712,
      "careless": 5713,
      "cyc": 5714,
      "natives</w>": 5715,
      "vita": 5716,
      "sales": 5717,
      "die": 5718,
      "rotten</w>": 5719,
      "chemi": 5720,
      "disappointing</w>": 5721,
      "heaven</w>": 5722,
      "sentences</w>": 5723,
      "demands</w>": 5724,
      "examine</w>": 5725,
      "europe": 5726,
      "retire</w>": 5727,
      "stressed</w>": 5728,
      "construction</w>": 5729,
      "pens</w>": 5730,
      "steady</w>": 5731,
      "alibi</w>": 5732,
      "bedtime</w>": 5733,
      "iner</w>": 5734,
      "customs</w>": 5735,
      "productive</w>": 5736,
      "resig": 5737,
      "ev": 5738,
      "pting</w>": 5739,
      "someplace</w>": 5740,
      "recipe</w>": 5741,
      "reduce</w>": 5742,
      "promoted</w>": 5743,
      "predict</w>": 5744,
      "cott": 5745,
      "osaka</w>": 5746,
      "arro": 5747,
      "role</w>": 5748,
      "zero</w>": 5749,
      "shal": 5750,
      "annoy</w>": 5751,
      "jump": 5752,
      "interview</w>": 5753,
      "comments</w>": 5754,
      "loosen</w>": 5755,
      "carrying</w>": 5756,
      "literature</w>": 5757,
      "negotiations</w>": 5758,
      "amazed</w>": 5759,
      "ency</w>": 5760,
      "sav": 5761,
      "snack</w>": 5762,
      "journalist</w>": 5763,
      "imi": 5764,
      "cooperate</w>": 5765,
      "helicopter</w>": 5766,
      "typhoon</w>": 5767,
      "killing</w>": 5768,
      "diso": 5769,
      "disobe": 5770,
      "dull</w>": 5771,
      "roads</w>": 5772,
      "hitting</w>": 5773,
      "considering</w>": 5774,
      "atmosphere</w>": 5775,
      "chan": 5776,
      "oly": 5777,
      "garden": 5778,
      "stal": 5779,
      "blonde</w>": 5780,
      "priority</w>": 5781,
      "spoiled</w>": 5782,
      "manners</w>": 5783,
      "ji": 5784,
      "sacri": 5785,
      "sacrifi": 5786,
      "cap</w>": 5787,
      "lished</w>": 5788,
      "nine": 5789,
      "pets</w>": 5790,
      "shore</w>": 5791,
      "toothpaste</w>": 5792,
      "shaking</w>": 5793,
      "ripped</w>": 5794,
      "gear</w>": 5795,
      "que": 5796,
      "mark</w>": 5797,
      "plus</w>": 5798,
      "forgiven</w>": 5799,
      "shaken</w>": 5800,
      "ficial</w>": 5801,
      "poor": 5802,
      "pillow</w>": 5803,
      "excep": 5804,
      "replace</w>": 5805,
      "gant</w>": 5806,
      "ham</w>": 5807,
      "scan": 5808,
      "mercy</w>": 5809,
      "struggled</w>": 5810,
      "witne": 5811,
      "director</w>": 5812,
      "declar": 5813,
      "ze": 5814,
      "symptoms</w>": 5815,
      "pounds</w>": 5816,
      "dele": 5817,
      "sauce</w>": 5818,
      "alpha": 5819,
      "expl": 5820,
      "tolerate</w>": 5821,
      "homeless</w>": 5822,
      "realistic</w>": 5823,
      "floo": 5824,
      "remarkable</w>": 5825,
      "enthu": 5826,
      "enthusi": 5827,
      "owner</w>": 5828,
      "amused</w>": 5829,
      "determine</w>": 5830,
      "reaction</w>": 5831,
      "letting</w>": 5832,
      "avoided</w>": 5833,
      "democra": 5834,
      "bbed</w>": 5835,
      "stove</w>": 5836,
      "declined</w>": 5837,
      "hospitalized</w>": 5838,
      "bodyguard</w>": 5839,
      "separated</w>": 5840,
      "delay</w>": 5841,
      "angel</w>": 5842,
      "reputation</w>": 5843,
      "counts</w>": 5844,
      "branch</w>": 5845,
      "insects</w>": 5846,
      "humiliated</w>": 5847,
      "metal</w>": 5848,
      "roommate</w>": 5849,
      "waiter</w>": 5850,
      "latest</w>": 5851,
      "respect": 5852,
      "saint</w>": 5853,
      "inde": 5854,
      "lottery</w>": 5855,
      "kick</w>": 5856,
      "gar</w>": 5857,
      "wed": 5858,
      "experts</w>": 5859,
      "gious</w>": 5860,
      "prince</w>": 5861,
      "aboard</w>": 5862,
      "limited</w>": 5863,
      "bloom</w>": 5864,
      "rolled</w>": 5865,
      "symbo": 5866,
      "differently</w>": 5867,
      "convenience</w>": 5868,
      "hallo": 5869,
      "halloween</w>": 5870,
      "incorrect</w>": 5871,
      "prints</w>": 5872,
      "personality</w>": 5873,
      "mech": 5874,
      "lawyers</w>": 5875,
      "impress</w>": 5876,
      "leaned</w>": 5877,
      "cockroa": 5878,
      "goat</w>": 5879,
      "peri": 5880,
      "ston": 5881,
      "stones</w>": 5882,
      "exception</w>": 5883,
      "frustrated</w>": 5884,
      "oph": 5885,
      "rese": 5886,
      "pretti": 5887,
      "hugged</w>": 5888,
      "suspected</w>": 5889,
      "eighteen</w>": 5890,
      "merci": 5891,
      "stitu": 5892,
      "pk": 5893,
      "consult</w>": 5894,
      "ghing</w>": 5895,
      "cely</w>": 5896,
      "encouraged</w>": 5897,
      "minor</w>": 5898,
      "gullible</w>": 5899,
      "ops</w>": 5900,
      "destination</w>": 5901,
      "bottles</w>": 5902,
      "stream</w>": 5903,
      "flir": 5904,
      "ada</w>": 5905,
      "clothing</w>": 5906,
      "puzzled</w>": 5907,
      "dient</w>": 5908,
      "cottage</w>": 5909,
      "athle": 5910,
      "decorated</w>": 5911,
      "minds</w>": 5912,
      "skills</w>": 5913,
      "pure</w>": 5914,
      "sincer": 5915,
      "luxury</w>": 5916,
      "shallow</w>": 5917,
      "stress</w>": 5918,
      "emplo": 5919,
      "bars</w>": 5920,
      "harm": 5921,
      "influence</w>": 5922,
      "urged</w>": 5923,
      "pays</w>": 5924,
      "deceived</w>": 5925,
      "technology</w>": 5926,
      "compliment</w>": 5927,
      "laws</w>": 5928,
      "sticks</w>": 5929,
      "packing</w>": 5930,
      "requires</w>": 5931,
      "rational</w>": 5932,
      "cloud</w>": 5933,
      "sword</w>": 5934,
      "loyal</w>": 5935,
      "gies</w>": 5936,
      "afterwards</w>": 5937,
      "acks</w>": 5938,
      "participate</w>": 5939,
      "chat</w>": 5940,
      "regularly</w>": 5941,
      "whispered</w>": 5942,
      "ban</w>": 5943,
      "honor</w>": 5944,
      "queen</w>": 5945,
      "tomatoes</w>": 5946,
      "harvest</w>": 5947,
      "incompetent</w>": 5948,
      "disturb</w>": 5949,
      "wings</w>": 5950,
      "length</w>": 5951,
      "shortly</w>": 5952,
      "thumb": 5953,
      "mashed</w>": 5954,
      "gan": 5955,
      "frog</w>": 5956,
      "obliga": 5957,
      "causes</w>": 5958,
      "loving</w>": 5959,
      "acqui": 5960,
      "judging</w>": 5961,
      "analy": 5962,
      "bank": 5963,
      "disaster</w>": 5964,
      "cially</w>": 5965,
      "politician</w>": 5966,
      "const": 5967,
      "websites</w>": 5968,
      "lected</w>": 5969,
      "cane</w>": 5970,
      "pment</w>": 5971,
      "sunset</w>": 5972,
      "absolute</w>": 5973,
      "ousness</w>": 5974,
      "dyed</w>": 5975,
      "hunger</w>": 5976,
      "quarter</w>": 5977,
      "pace</w>": 5978,
      "work": 5979,
      "colds</w>": 5980,
      "ace</w>": 5981,
      "bold</w>": 5982,
      "champi": 5983,
      "reserved</w>": 5984,
      "grow": 5985,
      "worries</w>": 5986,
      "respectful</w>": 5987,
      "backwards</w>": 5988,
      "fewer</w>": 5989,
      "orted</w>": 5990,
      "memorize</w>": 5991,
      "economi": 5992,
      "honestly</w>": 5993,
      "contagious</w>": 5994,
      "astonished</w>": 5995,
      "knowled": 5996,
      "throwing</w>": 5997,
      "viru": 5998,
      "warming</w>": 5999,
      "glu": 6000,
      "sick": 6001,
      "lions</w>": 6002,
      "ignorant</w>": 6003,
      "snowed</w>": 6004,
      "recover</w>": 6005,
      "alcoholic</w>": 6006,
      "lic</w>": 6007,
      "carelessness</w>": 6008,
      "asks</w>": 6009,
      "rats</w>": 6010,
      "tton</w>": 6011,
      "vention</w>": 6012,
      "fries</w>": 6013,
      "gli": 6014,
      "insisted</w>": 6015,
      "reti": 6016,
      "consists</w>": 6017,
      "exe": 6018,
      "command</w>": 6019,
      "suggesting</w>": 6020,
      "balls</w>": 6021,
      "pied</w>": 6022,
      "unlocked</w>": 6023,
      "rapi": 6024,
      "bothered</w>": 6025,
      "skate</w>": 6026,
      "print</w>": 6027,
      "prescri": 6028,
      "trump": 6029,
      "trumpet</w>": 6030,
      "tricked</w>": 6031,
      "hurting</w>": 6032,
      "european</w>": 6033,
      "effect</w>": 6034,
      "haun": 6035,
      "overreacting</w>": 6036,
      "foreigner</w>": 6037,
      "rist</w>": 6038,
      "scarf</w>": 6039,
      "admission</w>": 6040,
      "aid</w>": 6041,
      "spilled</w>": 6042,
      "thful</w>": 6043,
      "whistling</w>": 6044,
      "jogging</w>": 6045,
      "matically</w>": 6046,
      "ony": 6047,
      "phar": 6048,
      "fatter</w>": 6049,
      "inch</w>": 6050,
      "pher</w>": 6051,
      "prince": 6052,
      "princess</w>": 6053,
      "cousins</w>": 6054,
      "basic</w>": 6055,
      "affa": 6056,
      "affairs</w>": 6057,
      "interrupting</w>": 6058,
      "economic</w>": 6059,
      "proper</w>": 6060,
      "slower</w>": 6061,
      "inher": 6062,
      "heater</w>": 6063,
      "entering</w>": 6064,
      "tab": 6065,
      "astrono": 6066,
      "nodded</w>": 6067,
      "rifle</w>": 6068,
      "ested</w>": 6069,
      "ssions</w>": 6070,
      "dolph": 6071,
      "voices</w>": 6072,
      "travels</w>": 6073,
      "aspir": 6074,
      "host": 6075,
      "spotted</w>": 6076,
      "delivered</w>": 6077,
      "surface</w>": 6078,
      "knitting</w>": 6079,
      "faint</w>": 6080,
      "tempted</w>": 6081,
      "fold</w>": 6082,
      "sunrise</w>": 6083,
      "relatives</w>": 6084,
      "heavier</w>": 6085,
      "essential</w>": 6086,
      "fty</w>": 6087,
      "cath": 6088,
      "catholi": 6089,
      "snowman</w>": 6090,
      "watermel": 6091,
      "oxy": 6092,
      "snick": 6093,
      "guarantee</w>": 6094,
      "wooden</w>": 6095,
      "habits</w>": 6096,
      "thankful</w>": 6097,
      "refuge": 6098,
      "regrets</w>": 6099,
      "fled</w>": 6100,
      "cliff</w>": 6101,
      "improving</w>": 6102,
      "sake</w>": 6103,
      "scal": 6104,
      "actions</w>": 6105,
      "interrupted</w>": 6106,
      "materials</w>": 6107,
      "flows</w>": 6108,
      "backed</w>": 6109,
      "fasten</w>": 6110,
      "derly</w>": 6111,
      "behaved</w>": 6112,
      "tale</w>": 6113,
      "gradually</w>": 6114,
      "ladies</w>": 6115,
      "previous</w>": 6116,
      "robo": 6117,
      "osity</w>": 6118,
      "replaced</w>": 6119,
      "insist</w>": 6120,
      "reconsider</w>": 6121,
      "ignorance</w>": 6122,
      "lating</w>": 6123,
      "defend</w>": 6124,
      "accusing</w>": 6125,
      "blowing</w>": 6126,
      "increasing</w>": 6127,
      "infla": 6128,
      "shooting</w>": 6129,
      "fan": 6130,
      "excused</w>": 6131,
      "falls</w>": 6132,
      "legi": 6133,
      "ridden</w>": 6134,
      "independent</w>": 6135,
      "scru": 6136,
      "ya": 6137,
      "lifted</w>": 6138,
      "blackma": 6139,
      "ctable</w>": 6140,
      "plumber</w>": 6141,
      "sec</w>": 6142,
      "wns</w>": 6143,
      "society</w>": 6144,
      "pepper</w>": 6145,
      "suspended</w>": 6146,
      "gonna</w>": 6147,
      "dant</w>": 6148,
      "confuse</w>": 6149,
      "alist</w>": 6150,
      "seme": 6151,
      "semester</w>": 6152,
      "unfortunate</w>": 6153,
      "improvement</w>": 6154,
      "vag": 6155,
      "bel</w>": 6156,
      "rabbits</w>": 6157,
      "refer": 6158,
      "international</w>": 6159,
      "coin</w>": 6160,
      "psychic</w>": 6161,
      "rat</w>": 6162,
      "collapsed</w>": 6163,
      "response</w>": 6164,
      "sixty</w>": 6165,
      "holes</w>": 6166,
      "reaching</w>": 6167,
      "alert</w>": 6168,
      "16": 6169,
      "situations</w>": 6170,
      "checking</w>": 6171,
      "irri": 6172,
      "leather</w>": 6173,
      "predicted</w>": 6174,
      "ade": 6175,
      "stiff</w>": 6176,
      "blown</w>": 6177,
      "politicians</w>": 6178,
      "sheet</w>": 6179,
      "process</w>": 6180,
      "stly</w>": 6181,
      "dece": 6182,
      "approaching</w>": 6183,
      "sunny</w>": 6184,
      "rapidly</w>": 6185,
      "flexi": 6186,
      "access</w>": 6187,
      "satisfactory</w>": 6188,
      "vative</w>": 6189,
      "crawling</w>": 6190,
      "dispo": 6191,
      "che</w>": 6192,
      "bribe</w>": 6193,
      "ing": 6194,
      "overwh": 6195,
      "overwhel": 6196,
      "squee": 6197,
      "tourist</w>": 6198,
      "earthquakes</w>": 6199,
      "steel</w>": 6200,
      "scares</w>": 6201,
      "napk": 6202,
      "reluctant</w>": 6203,
      "forget": 6204,
      "forgetful</w>": 6205,
      "arranged</w>": 6206,
      "rough": 6207,
      "dumb": 6208,
      "tals</w>": 6209,
      "inevi": 6210,
      "inevitable</w>": 6211,
      "litary</w>": 6212,
      "wipe</w>": 6213,
      "comfort</w>": 6214,
      "asth": 6215,
      "asthma</w>": 6216,
      "avoiding</w>": 6217,
      "canada</w>": 6218,
      "onto</w>": 6219,
      "eing</w>": 6220,
      "gossi": 6221,
      "iso": 6222,
      "ref": 6223,
      "refrain</w>": 6224,
      "various</w>": 6225,
      "day": 6226,
      "smokes</w>": 6227,
      "kyo": 6228,
      "kyoto</w>": 6229,
      "subscribe</w>": 6230,
      "dismissed</w>": 6231,
      "spani": 6232,
      "spanish</w>": 6233,
      "tained</w>": 6234,
      "weeds</w>": 6235,
      "sew</w>": 6236,
      "jury</w>": 6237,
      "lemon</w>": 6238,
      "statue</w>": 6239,
      "banged</w>": 6240,
      "files</w>": 6241,
      "resourceful</w>": 6242,
      "attached</w>": 6243,
      "bible</w>": 6244,
      "necessarily</w>": 6245,
      "envious</w>": 6246,
      "latin</w>": 6247,
      "killer</w>": 6248,
      "epi": 6249,
      "da</w>": 6250,
      "swimmer</w>": 6251,
      "heated</w>": 6252,
      "pronun": 6253,
      "pronunci": 6254,
      "pronunciation</w>": 6255,
      "pickpockets</w>": 6256,
      "teenagers</w>": 6257,
      "anced</w>": 6258,
      "tap</w>": 6259,
      "cutting</w>": 6260,
      "rome</w>": 6261,
      "scar</w>": 6262,
      "collected</w>": 6263,
      "stylish</w>": 6264,
      "composition</w>": 6265,
      "amusing</w>": 6266,
      "sar": 6267,
      "rable</w>": 6268,
      "safer</w>": 6269,
      "tour</w>": 6270,
      "resume</w>": 6271,
      "printer</w>": 6272,
      "imagin": 6273,
      "liest</w>": 6274,
      "furious</w>": 6275,
      "troubled</w>": 6276,
      "quarre": 6277,
      "toe</w>": 6278,
      "joy</w>": 6279,
      "objection</w>": 6280,
      "came": 6281,
      "cement</w>": 6282,
      "term</w>": 6283,
      "bumped</w>": 6284,
      "deliber": 6285,
      "kidnapped</w>": 6286,
      "tality</w>": 6287,
      "youth</w>": 6288,
      "inct</w>": 6289,
      "paci": 6290,
      "dation</w>": 6291,
      "assi": 6292,
      "ckers</w>": 6293,
      "mani": 6294,
      "robbery</w>": 6295,
      "span</w>": 6296,
      "45</w>": 6297,
      "longest</w>": 6298,
      "schools</w>": 6299,
      "permit</w>": 6300,
      "yea": 6301,
      "yeah</w>": 6302,
      "ba</w>": 6303,
      "cage</w>": 6304,
      "begged</w>": 6305,
      "marks</w>": 6306,
      "collect</w>": 6307,
      "punishment</w>": 6308,
      "speakers</w>": 6309,
      "consciousness</w>": 6310,
      "swept</w>": 6311,
      "treats</w>": 6312,
      "chica": 6313,
      "chicago</w>": 6314,
      "psycho": 6315,
      "partner</w>": 6316,
      "chri": 6317,
      "posse": 6318,
      "nut</w>": 6319,
      "unique</w>": 6320,
      "politely</w>": 6321,
      "digging</w>": 6322,
      "bees</w>": 6323,
      "mix</w>": 6324,
      "blast</w>": 6325,
      "hambur": 6326,
      "para": 6327,
      "brings</w>": 6328,
      "opera</w>": 6329,
      "soap</w>": 6330,
      "statement</w>": 6331,
      "threat</w>": 6332,
      "fab": 6333,
      "argued</w>": 6334,
      "dining</w>": 6335,
      "collea": 6336,
      "skip</w>": 6337,
      "shouting</w>": 6338,
      "civili": 6339,
      "anist</w>": 6340,
      "sending</w>": 6341,
      "wedne": 6342,
      "wednesday</w>": 6343,
      "forgave</w>": 6344,
      "religion</w>": 6345,
      "bury</w>": 6346,
      "resources</w>": 6347,
      "pages</w>": 6348,
      "reh": 6349,
      "labor</w>": 6350,
      "disco": 6351,
      "snee": 6352,
      "hardest</w>": 6353,
      "cran": 6354,
      "clung</w>": 6355,
      "causing</w>": 6356,
      "pork</w>": 6357,
      "pulse</w>": 6358,
      "overse": 6359,
      "overseas</w>": 6360,
      "selected</w>": 6361,
      "follows</w>": 6362,
      "specific</w>": 6363,
      "sized</w>": 6364,
      "motion</w>": 6365,
      "painter</w>": 6366,
      "jar</w>": 6367,
      "affected</w>": 6368,
      "registered</w>": 6369,
      "solar</w>": 6370,
      "ato": 6371,
      "garlic</w>": 6372,
      "hei": 6373,
      "sank</w>": 6374,
      "sets</w>": 6375,
      "cotton</w>": 6376,
      "justice</w>": 6377,
      "pest</w>": 6378,
      "stressful</w>": 6379,
      "bowed</w>": 6380,
      "alice</w>": 6381,
      "memories</w>": 6382,
      "stung</w>": 6383,
      "wolves</w>": 6384,
      "perman": 6385,
      "permanent</w>": 6386,
      "execu": 6387,
      "inha": 6388,
      "barber</w>": 6389,
      "spiri": 6390,
      "brilli": 6391,
      "brilliant</w>": 6392,
      "claims</w>": 6393,
      "objected</w>": 6394,
      "flexible</w>": 6395,
      "mail": 6396,
      "outraged</w>": 6397,
      "spicy</w>": 6398,
      "van</w>": 6399,
      "touching</w>": 6400,
      "creepy</w>": 6401,
      "haunted</w>": 6402,
      "procedure</w>": 6403,
      "listens</w>": 6404,
      "quired</w>": 6405,
      "tests</w>": 6406,
      "applies</w>": 6407,
      "trigger</w>": 6408,
      "pharma": 6409,
      "tis</w>": 6410,
      "pression</w>": 6411,
      "mask</w>": 6412,
      "troops</w>": 6413,
      "tant</w>": 6414,
      "root</w>": 6415,
      "absur": 6416,
      "absurd</w>": 6417,
      "burn": 6418,
      "burnt</w>": 6419,
      "recovery</w>": 6420,
      "unknown</w>": 6421,
      "nightm": 6422,
      "nightmare</w>": 6423,
      "relief</w>": 6424,
      "smoked</w>": 6425,
      "proved</w>": 6426,
      "organization</w>": 6427,
      "career</w>": 6428,
      "farmers</w>": 6429,
      "inet</w>": 6430,
      "victims</w>": 6431,
      "robber</w>": 6432,
      "prover": 6433,
      "bears</w>": 6434,
      "counci": 6435,
      "council</w>": 6436,
      "devil</w>": 6437,
      "preci": 6438,
      "humid</w>": 6439,
      "score</w>": 6440,
      "ceable</w>": 6441,
      "emotions</w>": 6442,
      "deva": 6443,
      "adapt</w>": 6444,
      "hilari": 6445,
      "hilarious</w>": 6446,
      "greatly</w>": 6447,
      "courte": 6448,
      "og": 6449,
      "oxygen</w>": 6450,
      "tends</w>": 6451,
      "allergies</w>": 6452,
      "stroke</w>": 6453,
      "ffy</w>": 6454,
      "stabbed</w>": 6455,
      "sable</w>": 6456,
      "coast</w>": 6457,
      "ach</w>": 6458,
      "refugees</w>": 6459,
      "snore</w>": 6460,
      "shops</w>": 6461,
      "intoler": 6462,
      "somehow</w>": 6463,
      "fireplace</w>": 6464,
      "champ": 6465,
      "champag": 6466,
      "champagne</w>": 6467,
      "fuss</w>": 6468,
      "mexico</w>": 6469,
      "thur": 6470,
      "elderly</w>": 6471,
      "lacks</w>": 6472,
      "purchase</w>": 6473,
      "arrogant</w>": 6474,
      "phones</w>": 6475,
      "laughs</w>": 6476,
      "refre": 6477,
      "resigned</w>": 6478,
      "driven</w>": 6479,
      "curiosity</w>": 6480,
      "dering</w>": 6481,
      "directions</w>": 6482,
      "declared</w>": 6483,
      "pour</w>": 6484,
      "addict</w>": 6485,
      "colder</w>": 6486,
      "ups</w>": 6487,
      "arrow</w>": 6488,
      "marath": 6489,
      "inflation</w>": 6490,
      "typi": 6491,
      "ken": 6492,
      "priest</w>": 6493,
      "penny</w>": 6494,
      "oa": 6495,
      "bomb": 6496,
      "treasure</w>": 6497,
      "payment</w>": 6498,
      "items</w>": 6499,
      "ful": 6500,
      "wow</w>": 6501,
      "kilometers</w>": 6502,
      "christi": 6503,
      "frighten</w>": 6504,
      "melted</w>": 6505,
      "skill</w>": 6506,
      "nations</w>": 6507,
      "poten": 6508,
      "reve": 6509,
      "oy": 6510,
      "oysters</w>": 6511,
      "toothache</w>": 6512,
      "uneas": 6513,
      "uneasy</w>": 6514,
      "brui": 6515,
      "predictable</w>": 6516,
      "hint</w>": 6517,
      "asser": 6518,
      "amends</w>": 6519,
      "fixing</w>": 6520,
      "boil</w>": 6521,
      "reven": 6522,
      "peanu": 6523,
      "gramm": 6524,
      "grammar</w>": 6525,
      "overheard</w>": 6526,
      "mum</w>": 6527,
      "sock</w>": 6528,
      "teens</w>": 6529,
      "pianist</w>": 6530,
      "pairs</w>": 6531,
      "frank</w>": 6532,
      "neu": 6533,
      "beware</w>": 6534,
      "injuries</w>": 6535,
      "desire</w>": 6536,
      "jects</w>": 6537,
      "virus</w>": 6538,
      "trai": 6539,
      "mosquito</w>": 6540,
      "lef": 6541,
      "lefto": 6542,
      "briefcase</w>": 6543,
      "wheel": 6544,
      "warm": 6545,
      "warmth</w>": 6546,
      "dential</w>": 6547,
      "tripped</w>": 6548,
      "confess</w>": 6549,
      "choir</w>": 6550,
      "mustache</w>": 6551,
      "mented</w>": 6552,
      "sser</w>": 6553,
      "convi": 6554,
      "postcard</w>": 6555,
      "alternatives</w>": 6556,
      "cloudy</w>": 6557,
      "coughed</w>": 6558,
      "bones</w>": 6559,
      "gence</w>": 6560,
      "preju": 6561,
      "prejudi": 6562,
      "faced</w>": 6563,
      "cies</w>": 6564,
      "tful</w>": 6565,
      "blaming</w>": 6566,
      "deals</w>": 6567,
      "holds</w>": 6568,
      "distinguish</w>": 6569,
      "risked</w>": 6570,
      "disturbing</w>": 6571,
      "passing</w>": 6572,
      "railroad</w>": 6573,
      "monkeys</w>": 6574,
      "needing</w>": 6575,
      "conser": 6576,
      "conservative</w>": 6577,
      "stadi": 6578,
      "stadium</w>": 6579,
      "gement</w>": 6580,
      "strictly</w>": 6581,
      "lincol": 6582,
      "lincoln</w>": 6583,
      "inva": 6584,
      "prettier</w>": 6585,
      "impoli": 6586,
      "standards</w>": 6587,
      "tha": 6588,
      "worm</w>": 6589,
      "measures</w>": 6590,
      "propose</w>": 6591,
      "prefers</w>": 6592,
      "gust</w>": 6593,
      "attor": 6594,
      "investigating</w>": 6595,
      "remembers</w>": 6596,
      "photogra": 6597,
      "explaining</w>": 6598,
      "ammuni": 6599,
      "ammunition</w>": 6600,
      "mile</w>": 6601,
      "injury</w>": 6602,
      "startled</w>": 6603,
      "monkey</w>": 6604,
      "anony": 6605,
      "sheets</w>": 6606,
      "patients</w>": 6607,
      "short": 6608,
      "dumbfounded</w>": 6609,
      "pig</w>": 6610,
      "requested</w>": 6611,
      "opposed</w>": 6612,
      "military</w>": 6613,
      "make": 6614,
      "turkey</w>": 6615,
      "destiny</w>": 6616,
      "carbon</w>": 6617,
      "deliver</w>": 6618,
      "community</w>": 6619,
      "agreeing</w>": 6620,
      "elds</w>": 6621,
      "confusing</w>": 6622,
      "cabin</w>": 6623,
      "ited</w>": 6624,
      "heroin</w>": 6625,
      "pink</w>": 6626,
      "horror</w>": 6627,
      "cellar</w>": 6628,
      "shortage</w>": 6629,
      "misjudged</w>": 6630,
      "considerate</w>": 6631,
      "cured</w>": 6632,
      "heating</w>": 6633,
      "mption</w>": 6634,
      "obeyed</w>": 6635,
      "hostages</w>": 6636,
      "skating</w>": 6637,
      "babies</w>": 6638,
      "savings</w>": 6639,
      "fran": 6640,
      "swit": 6641,
      "switzer": 6642,
      "switzerland</w>": 6643,
      "beaten</w>": 6644,
      "erced</w>": 6645,
      "tories</w>": 6646,
      "associ": 6647,
      "teased</w>": 6648,
      "hiring</w>": 6649,
      "rant</w>": 6650,
      "fussy</w>": 6651,
      "presented</w>": 6652,
      "slammed</w>": 6653,
      "bore</w>": 6654,
      "discussing</w>": 6655,
      "lowered</w>": 6656,
      "betray</w>": 6657,
      "wis": 6658,
      "leads</w>": 6659,
      "remembering</w>": 6660,
      "11</w>": 6661,
      "numb</w>": 6662,
      "immediate</w>": 6663,
      "knives</w>": 6664,
      "irresponsible</w>": 6665,
      "link</w>": 6666,
      "sarca": 6667,
      "temple</w>": 6668,
      "rug": 6669,
      "rugby</w>": 6670,
      "tidy</w>": 6671,
      "ckled</w>": 6672,
      "sinking</w>": 6673,
      "stake</w>": 6674,
      "whistle</w>": 6675,
      "rates</w>": 6676,
      "negotiate</w>": 6677,
      "fooling</w>": 6678,
      "reserve</w>": 6679,
      "cheat</w>": 6680,
      "kar": 6681,
      "intimi": 6682,
      "dove</w>": 6683,
      "pacific</w>": 6684,
      "thumb</w>": 6685,
      "environment</w>": 6686,
      "sture</w>": 6687,
      "limits</w>": 6688,
      "wind": 6689,
      "sung</w>": 6690,
      "pin</w>": 6691,
      "delivery</w>": 6692,
      "dily</w>": 6693,
      "exten": 6694,
      "genuine</w>": 6695,
      "mately</w>": 6696,
      "quitting</w>": 6697,
      "ia</w>": 6698,
      "marathon</w>": 6699,
      "thesis</w>": 6700,
      "sewing</w>": 6701,
      "constant</w>": 6702,
      "happiest</w>": 6703,
      "assa": 6704,
      "occasion</w>": 6705,
      "vey</w>": 6706,
      "architect</w>": 6707,
      "opportunities</w>": 6708,
      "closing</w>": 6709,
      "gladly</w>": 6710,
      "butterflies</w>": 6711,
      "ax</w>": 6712,
      "portu": 6713,
      "pessi": 6714,
      "pessimi": 6715,
      "abandon</w>": 6716,
      "196": 6717,
      "angle</w>": 6718,
      "cooperation</w>": 6719,
      "swims</w>": 6720,
      "revolu": 6721,
      "dye</w>": 6722,
      "mage</w>": 6723,
      "flun": 6724,
      "despite</w>": 6725,
      "completed</w>": 6726,
      "persist": 6727,
      "extent</w>": 6728,
      "fo</w>": 6729,
      "fabul": 6730,
      "fabulous</w>": 6731,
      "delicate</w>": 6732,
      "lin</w>": 6733,
      "ensive</w>": 6734,
      "include</w>": 6735,
      "visits</w>": 6736,
      "onions</w>": 6737,
      "slu": 6738,
      "pollution</w>": 6739,
      "bat</w>": 6740,
      "selfi": 6741,
      "pigs</w>": 6742,
      "salmon</w>": 6743,
      "hopefully</w>": 6744,
      "lame</w>": 6745,
      "records</w>": 6746,
      "sufficient</w>": 6747,
      "dishon": 6748,
      "camp</w>": 6749,
      "globa": 6750,
      "coal</w>": 6751,
      "graphy</w>": 6752,
      "surf": 6753,
      "mber": 6754,
      "boiling</w>": 6755,
      "surf</w>": 6756,
      "plates</w>": 6757,
      "wins</w>": 6758,
      "giggled</w>": 6759,
      "pad</w>": 6760,
      "wives</w>": 6761,
      "mechanic</w>": 6762,
      "opponent</w>": 6763,
      "basis</w>": 6764,
      "serves</w>": 6765,
      "policemen</w>": 6766,
      "sympathy</w>": 6767,
      "elled</w>": 6768,
      "forehead</w>": 6769,
      "compete</w>": 6770,
      "faults</w>": 6771,
      "tone</w>": 6772,
      "arrange</w>": 6773,
      "estimated</w>": 6774,
      "create</w>": 6775,
      "intelligence</w>": 6776,
      "modest</w>": 6777,
      "slavery</w>": 6778,
      "controlled</w>": 6779,
      "conduct</w>": 6780,
      "countless</w>": 6781,
      "elephant</w>": 6782,
      "asia</w>": 6783,
      "guitari": 6784,
      "guitarist</w>": 6785,
      "account": 6786,
      "accountant</w>": 6787,
      "bak": 6788,
      "bakery</w>": 6789,
      "chim": 6790,
      "chimney</w>": 6791,
      "phrase</w>": 6792,
      "resemb": 6793,
      "release</w>": 6794,
      "migra": 6795,
      "teria</w>": 6796,
      "mosquitoes</w>": 6797,
      "chubby</w>": 6798,
      "citizens</w>": 6799,
      "caution</w>": 6800,
      "regards</w>": 6801,
      "responsibilities</w>": 6802,
      "surprises</w>": 6803,
      "textbooks</w>": 6804,
      "wink</w>": 6805,
      "insecure</w>": 6806,
      "merciful</w>": 6807,
      "thrilled</w>": 6808,
      "listed</w>": 6809,
      "eased</w>": 6810,
      "bear": 6811,
      "coughing</w>": 6812,
      "lighter</w>": 6813,
      "tape</w>": 6814,
      "mere</w>": 6815,
      "experiences</w>": 6816,
      "protection</w>": 6817,
      "ur</w>": 6818,
      "sympathetic</w>": 6819,
      "imports</w>": 6820,
      "bon": 6821,
      "grams</w>": 6822,
      "fear": 6823,
      "eater</w>": 6824,
      "ized</w>": 6825,
      "bartender</w>": 6826,
      "bent</w>": 6827,
      "gossip</w>": 6828,
      "sample</w>": 6829,
      "horrified</w>": 6830,
      "199": 6831,
      "isolated</w>": 6832,
      "ingre": 6833,
      "ums</w>": 6834,
      "batter": 6835,
      "batteries</w>": 6836,
      "astronomy</w>": 6837,
      "sincerely</w>": 6838,
      "spagh": 6839,
      "spaghett": 6840,
      "spaghetti</w>": 6841,
      "click</w>": 6842,
      "ounding</w>": 6843,
      "identify</w>": 6844,
      "magi": 6845,
      "vul": 6846,
      "wheat</w>": 6847,
      "lighten</w>": 6848,
      "disgusted</w>": 6849,
      "landing</w>": 6850,
      "woken</w>": 6851,
      "remark</w>": 6852,
      "depressing</w>": 6853,
      "devastated</w>": 6854,
      "skirts</w>": 6855,
      "crimes</w>": 6856,
      "warrant</w>": 6857,
      "blankets</w>": 6858,
      "courageous</w>": 6859,
      "embas": 6860,
      "embassy</w>": 6861,
      "discreet</w>": 6862,
      "wisdom</w>": 6863,
      "evacu": 6864,
      "sign": 6865,
      "partners</w>": 6866,
      "adorable</w>": 6867,
      "judg": 6868,
      "greed</w>": 6869,
      "trust": 6870,
      "trustworthy</w>": 6871,
      "cooks</w>": 6872,
      "threatening</w>": 6873,
      "seventeen</w>": 6874,
      "spinach</w>": 6875,
      "device</w>": 6876,
      "chain</w>": 6877,
      "needle</w>": 6878,
      "stretched</w>": 6879,
      "loses</w>": 6880,
      "thursday</w>": 6881,
      "owned</w>": 6882,
      "hockey</w>": 6883,
      "stable</w>": 6884,
      "conscienti": 6885,
      "conscientious</w>": 6886,
      "greek</w>": 6887,
      "physical</w>": 6888,
      "greedy</w>": 6889,
      "trout</w>": 6890,
      "approval</w>": 6891,
      "praise</w>": 6892,
      "picky</w>": 6893,
      "costu": 6894,
      "costume</w>": 6895,
      "golden</w>": 6896,
      "alphabet</w>": 6897,
      "explor": 6898,
      "brace": 6899,
      "bracelet</w>": 6900,
      "depo": 6901,
      "deposit</w>": 6902,
      "dig</w>": 6903,
      "blocks</w>": 6904,
      "gather</w>": 6905,
      "scheduled</w>": 6906,
      "effects</w>": 6907,
      "smooth</w>": 6908,
      "textbook</w>": 6909,
      "orities</w>": 6910,
      "occasion": 6911,
      "confir": 6912,
      "14</w>": 6913,
      "description</w>": 6914,
      "dor</w>": 6915,
      "dealt</w>": 6916,
      "applauded</w>": 6917,
      "filthy</w>": 6918,
      "promotion</w>": 6919,
      "potential</w>": 6920,
      "outfit</w>": 6921,
      "pra": 6922,
      "hesitated</w>": 6923,
      "explode</w>": 6924,
      "sits</w>": 6925,
      "image</w>": 6926,
      "conten": 6927,
      "fifth</w>": 6928,
      "pessimistic</w>": 6929,
      "funds</w>": 6930,
      "hay</w>": 6931,
      "persistent</w>": 6932,
      "wrapped</w>": 6933,
      "slapped</w>": 6934,
      "forbi": 6935,
      "zon</w>": 6936,
      "engineer</w>": 6937,
      "tori": 6938,
      "rebe": 6939,
      "peanuts</w>": 6940,
      "affects</w>": 6941,
      "ffel</w>": 6942,
      "hunter</w>": 6943,
      "phy</w>": 6944,
      "wisely</w>": 6945,
      "relatively</w>": 6946,
      "balance</w>": 6947,
      "tested</w>": 6948,
      "regretted</w>": 6949,
      "shelter</w>": 6950,
      "anished</w>": 6951,
      "19</w>": 6952,
      "bites</w>": 6953,
      "ologist</w>": 6954,
      "global</w>": 6955,
      "discovery</w>": 6956,
      "heartbroken</w>": 6957,
      "encoura": 6958,
      "symbol</w>": 6959,
      "rot</w>": 6960,
      "flattered</w>": 6961,
      "terr": 6962,
      "terrori": 6963,
      "surfing</w>": 6964,
      "absorbed</w>": 6965,
      "intrigued</w>": 6966,
      "atomic</w>": 6967,
      "heights</w>": 6968,
      "physics</w>": 6969,
      "tin": 6970,
      "aspirin</w>": 6971,
      "connect</w>": 6972,
      "chickens</w>": 6973,
      "differences</w>": 6974,
      "stare</w>": 6975,
      "surrendered</w>": 6976,
      "turtles</w>": 6977,
      "chairman</w>": 6978,
      "salesman</w>": 6979,
      "fuel</w>": 6980,
      "communication</w>": 6981,
      "lting</w>": 6982,
      "fashioned</w>": 6983,
      "contain</w>": 6984,
      "version</w>": 6985,
      "december</w>": 6986,
      "forgi": 6987,
      "acquaint": 6988,
      "defeat</w>": 6989,
      "mr</w>": 6990,
      "colon": 6991,
      "ankle</w>": 6992,
      "ller</w>": 6993,
      "vague</w>": 6994,
      "braz": 6995,
      "brazil</w>": 6996,
      "drun": 6997,
      "aches</w>": 6998,
      "attracted</w>": 6999,
      "asse": 7000,
      "fields</w>": 7001,
      "accomplished</w>": 7002,
      "outs</w>": 7003,
      "stomacha": 7004,
      "dicta": 7005,
      "narro": 7006,
      "imita": 7007,
      "described</w>": 7008,
      "ruthless</w>": 7009,
      "smelled</w>": 7010,
      "acknowled": 7011,
      "defense</w>": 7012,
      "business": 7013,
      "indeed</w>": 7014,
      "homesick</w>": 7015,
      "created</w>": 7016,
      "candi": 7017,
      "citizen</w>": 7018,
      "rub</w>": 7019,
      "ah</w>": 7020,
      "seeds</w>": 7021,
      "stir</w>": 7022,
      "slave</w>": 7023,
      "acquired</w>": 7024,
      "depri": 7025,
      "forces</w>": 7026,
      "resili": 7027,
      "resilient</w>": 7028,
      "chest": 7029,
      "somewhat</w>": 7030,
      "attorney</w>": 7031,
      "uniform</w>": 7032,
      "deer</w>": 7033,
      "ray</w>": 7034,
      "stics</w>": 7035,
      "colu": 7036,
      "nia</w>": 7037,
      "photographer</w>": 7038,
      "spirits</w>": 7039,
      "suggestions</w>": 7040,
      "plug</w>": 7041,
      "bleed</w>": 7042,
      "carries</w>": 7043,
      "diseas": 7044,
      "diseases</w>": 7045,
      "kilograms</w>": 7046,
      "fearless</w>": 7047,
      "kn": 7048,
      "restaurants</w>": 7049,
      "wrist</w>": 7050,
      "theft</w>": 7051,
      "childish</w>": 7052,
      "lemon": 7053,
      "quo": 7054,
      "complains</w>": 7055,
      "helmet</w>": 7056,
      "concei": 7057,
      "chores</w>": 7058,
      "wood": 7059,
      "intentionally</w>": 7060,
      "mixed</w>": 7061,
      "flirting</w>": 7062,
      "magnifi": 7063,
      "magnificent</w>": 7064,
      "events</w>": 7065,
      "fireworks</w>": 7066,
      "leading</w>": 7067,
      "tane": 7068,
      "backyard</w>": 7069,
      "ress</w>": 7070,
      "mild</w>": 7071,
      "steam</w>": 7072,
      "instrument</w>": 7073,
      "proverb</w>": 7074,
      "scam</w>": 7075,
      "responded</w>": 7076,
      "kite</w>": 7077,
      "tan</w>": 7078,
      "ffle</w>": 7079,
      "exaggerate</w>": 7080,
      "surrender</w>": 7081,
      "recovering</w>": 7082,
      "ggles</w>": 7083,
      "embarrass</w>": 7084,
      "guts</w>": 7085,
      "waitress</w>": 7086,
      "interven": 7087,
      "avoidable</w>": 7088,
      "crush</w>": 7089,
      "thermo": 7090,
      "dropping</w>": 7091,
      "roast</w>": 7092,
      "resolved</w>": 7093,
      "breath": 7094,
      "yog": 7095,
      "pipes</w>": 7096,
      "imagining</w>": 7097,
      "don": 7098,
      "call": 7099,
      "fbi</w>": 7100,
      "cefully</w>": 7101,
      "reality</w>": 7102,
      "sealed</w>": 7103,
      "shamp": 7104,
      "shampoo</w>": 7105,
      "festi": 7106,
      "arm": 7107,
      "powerless</w>": 7108,
      "fying</w>": 7109,
      "possibilities</w>": 7110,
      "vacc": 7111,
      "compani": 7112,
      "crushed</w>": 7113,
      "sober</w>": 7114,
      "rubber</w>": 7115,
      "perfu": 7116,
      "perfume</w>": 7117,
      "ideal</w>": 7118,
      "philo": 7119,
      "rode</w>": 7120,
      "cycles</w>": 7121,
      "hospitality</w>": 7122,
      "bid</w>": 7123,
      "borate</w>": 7124,
      "material</w>": 7125,
      "talk": 7126,
      "talkative</w>": 7127,
      "tered</w>": 7128,
      "scandal</w>": 7129,
      "smashed</w>": 7130,
      "smoker</w>": 7131,
      "beers</w>": 7132,
      "ener</w>": 7133,
      "sneaky</w>": 7134,
      "lor": 7135,
      "straw</w>": 7136,
      "manipu": 7137,
      "vations</w>": 7138,
      "potato</w>": 7139,
      "investment</w>": 7140,
      "lifetime</w>": 7141,
      "disappear</w>": 7142,
      "gifted</w>": 7143,
      "appointed</w>": 7144,
      "alarmed</w>": 7145,
      "approxi": 7146,
      "approximately</w>": 7147,
      "reduced</w>": 7148,
      "pan</w>": 7149,
      "rup": 7150,
      "groups</w>": 7151,
      "cheeks</w>": 7152,
      "react</w>": 7153,
      "acquitted</w>": 7154,
      "natur": 7155,
      "naturally</w>": 7156,
      "toa": 7157,
      "vivid</w>": 7158,
      "rever": 7159,
      "jet</w>": 7160,
      "offering</w>": 7161,
      "barks</w>": 7162,
      "thinner</w>": 7163,
      "occasionally</w>": 7164,
      "12</w>": 7165,
      "checks</w>": 7166,
      "bulb</w>": 7167,
      "democracy</w>": 7168,
      "stering</w>": 7169,
      "squirrel</w>": 7170,
      "designed</w>": 7171,
      "obse": 7172,
      "butto": 7173,
      "ac</w>": 7174,
      "employee</w>": 7175,
      "confirmed</w>": 7176,
      "ruled</w>": 7177,
      "tear</w>": 7178,
      "reported</w>": 7179,
      "contented</w>": 7180,
      "desig": 7181,
      "estate</w>": 7182,
      "permi": 7183,
      "eth": 7184,
      "forbidden</w>": 7185,
      "peel": 7186,
      "unpleasant</w>": 7187,
      "hurri": 7188,
      "hori": 7189,
      "gal": 7190,
      "onable</w>": 7191,
      "rash</w>": 7192,
      "eiffel</w>": 7193,
      "minimum</w>": 7194,
      "degree</w>": 7195,
      "volcano</w>": 7196,
      "expressed</w>": 7197,
      "selfie</w>": 7198,
      "teasing</w>": 7199,
      "weak": 7200,
      "80</w>": 7201,
      "ninety</w>": 7202,
      "amp": 7203,
      "kindly</w>": 7204,
      "carpen": 7205,
      "upside</w>": 7206,
      "attributed</w>": 7207,
      "lish": 7208,
      "moz": 7209,
      "mozart</w>": 7210,
      "rug</w>": 7211,
      "shark</w>": 7212,
      "frost</w>": 7213,
      "stinks</w>": 7214,
      "ferred</w>": 7215,
      "ingly</w>": 7216,
      "congratulated</w>": 7217,
      "glance</w>": 7218,
      "overworked</w>": 7219,
      "gay</w>": 7220,
      "jewelry</w>": 7221,
      "shaved</w>": 7222,
      "sev": 7223,
      "severe</w>": 7224,
      "sip</w>": 7225,
      "70</w>": 7226,
      "practically</w>": 7227,
      "shovel</w>": 7228,
      "shining</w>": 7229,
      "sus</w>": 7230,
      "gues</w>": 7231,
      "vitamin": 7232,
      "vitamins</w>": 7233,
      "cockroaches</w>": 7234,
      "hyp": 7235,
      "hypnoti": 7236,
      "demonstra": 7237,
      "cds</w>": 7238,
      "rage</w>": 7239,
      "conscience</w>": 7240,
      "priva": 7241,
      "privately</w>": 7242,
      "repeating</w>": 7243,
      "discover</w>": 7244,
      "ice": 7245,
      "flames</w>": 7246,
      "title</w>": 7247,
      "supervi": 7248,
      "flooded</w>": 7249,
      "chy</w>": 7250,
      "acquaintance</w>": 7251,
      "belts</w>": 7252,
      "civil</w>": 7253,
      "sweets</w>": 7254,
      "ddled</w>": 7255,
      "dolls</w>": 7256,
      "pa</w>": 7257,
      "tings</w>": 7258,
      "instal": 7259,
      "uc": 7260,
      "russia</w>": 7261,
      "questioning</w>": 7262,
      "penalty</w>": 7263,
      "stern</w>": 7264,
      "stomachache</w>": 7265,
      "idio": 7266,
      "refund</w>": 7267,
      "businessman</w>": 7268,
      "anni": 7269,
      "recess</w>": 7270,
      "principles</w>": 7271,
      "developed</w>": 7272,
      "relevant</w>": 7273,
      "sunlight</w>": 7274,
      "region</w>": 7275,
      "achievement</w>": 7276,
      "runner</w>": 7277,
      "interests</w>": 7278,
      "deprived</w>": 7279,
      "pru": 7280,
      "clean": 7281,
      "barbe": 7282,
      "cracked</w>": 7283,
      "inappropriate</w>": 7284,
      "tho": 7285,
      "anonymous</w>": 7286,
      "cup": 7287,
      "swel": 7288,
      "ggling</w>": 7289,
      "scratch</w>": 7290,
      "character</w>": 7291,
      "cali": 7292,
      "relaxing</w>": 7293,
      "ut": 7294,
      "examples</w>": 7295,
      "40</w>": 7296,
      "broom</w>": 7297,
      "partly</w>": 7298,
      "calmed</w>": 7299,
      "lates</w>": 7300,
      "spelled</w>": 7301,
      "communicate</w>": 7302,
      "restra": 7303,
      "produce</w>": 7304,
      "handbag</w>": 7305,
      "included</w>": 7306,
      "cope</w>": 7307,
      "makeup</w>": 7308,
      "punish</w>": 7309,
      "chap": 7310,
      "ballo": 7311,
      "vio": 7312,
      "catches</w>": 7313,
      "spla": 7314,
      "official</w>": 7315,
      "zard</w>": 7316,
      "solid</w>": 7317,
      "boiled</w>": 7318,
      "inherited</w>": 7319,
      "traditional</w>": 7320,
      "beginners</w>": 7321,
      "drill</w>": 7322,
      "slim</w>": 7323,
      "boarding</w>": 7324,
      "mid</w>": 7325,
      "raising</w>": 7326,
      "spontane": 7327,
      "tank</w>": 7328,
      "bare": 7329,
      "type": 7330,
      "filed</w>": 7331,
      "margar": 7332,
      "votes</w>": 7333,
      "butcher</w>": 7334,
      "unsure</w>": 7335,
      "pee": 7336,
      "chef</w>": 7337,
      "fascinated</w>": 7338,
      "urge</w>": 7339,
      "criminals</w>": 7340,
      "fea": 7341,
      "villagers</w>": 7342,
      "shattered</w>": 7343,
      "mentary</w>": 7344,
      "chopsticks</w>": 7345,
      "dual</w>": 7346,
      "parent</w>": 7347,
      "fur</w>": 7348,
      "catholic</w>": 7349,
      "wrap</w>": 7350,
      "sucker</w>": 7351,
      "200</w>": 7352,
      "salty</w>": 7353,
      "curse</w>": 7354,
      "janu": 7355,
      "january</w>": 7356,
      "sarcastic</w>": 7357,
      "cheered</w>": 7358,
      "sum": 7359,
      "gram</w>": 7360,
      "quarrel</w>": 7361,
      "peacefully</w>": 7362,
      "silk</w>": 7363,
      "tigers</w>": 7364,
      "vacant</w>": 7365,
      "nause": 7366,
      "sharpen": 7367,
      "ii</w>": 7368,
      "repeated</w>": 7369,
      "shivering</w>": 7370,
      "delu": 7371,
      "deliberately</w>": 7372,
      "protested</w>": 7373,
      "gaining</w>": 7374,
      "corrected</w>": 7375,
      "msy</w>": 7376,
      "nings</w>": 7377,
      "refreshing</w>": 7378,
      "gamble</w>": 7379,
      "impul": 7380,
      "dangers</w>": 7381,
      "awoke</w>": 7382,
      "guessing</w>": 7383,
      "educated</w>": 7384,
      "urs</w>": 7385,
      "trial</w>": 7386,
      "cas": 7387,
      "facing</w>": 7388,
      "swol": 7389,
      "swollen</w>": 7390,
      "sep": 7391,
      "septe": 7392,
      "september</w>": 7393,
      "strate": 7394,
      "strategy</w>": 7395,
      "obliged</w>": 7396,
      "testify</w>": 7397,
      "extro": 7398,
      "tile</w>": 7399,
      "generation</w>": 7400,
      "tube</w>": 7401,
      "bump": 7402,
      "troubles</w>": 7403,
      "panting</w>": 7404,
      "callous</w>": 7405,
      "ain</w>": 7406,
      "enthusia": 7407,
      "enthusiastic</w>": 7408,
      "equipment</w>": 7409,
      "understand": 7410,
      "understandable</w>": 7411,
      "admini": 7412,
      "blos": 7413,
      "blosso": 7414,
      "hometown</w>": 7415,
      "noises</w>": 7416,
      "shado": 7417,
      "cry": 7418,
      "intru": 7419,
      "outlive</w>": 7420,
      "buttoned</w>": 7421,
      "tiles</w>": 7422,
      "watering</w>": 7423,
      "barn</w>": 7424,
      "spoons</w>": 7425,
      "wered</w>": 7426,
      "growth</w>": 7427,
      "organic</w>": 7428,
      ";</w>": 7429,
      "ufo</w>": 7430,
      "rank</w>": 7431,
      "snap</w>": 7432,
      "drawn</w>": 7433,
      "red": 7434,
      "waist</w>": 7435,
      "worthless</w>": 7436,
      "flute</w>": 7437,
      "disrespectful</w>": 7438,
      "revenge</w>": 7439,
      "193": 7440,
      "acciden": 7441,
      "barked</w>": 7442,
      "tightly</w>": 7443,
      "speeding</w>": 7444,
      "extre": 7445,
      "banks</w>": 7446,
      "butterfly</w>": 7447,
      "millions</w>": 7448,
      "bber": 7449,
      "confli": 7450,
      "conflict</w>": 7451,
      "shelves</w>": 7452,
      "verge</w>": 7453,
      "racist</w>": 7454,
      "weighed</w>": 7455,
      "carpenter</w>": 7456,
      "unmarried</w>": 7457,
      "snowstorm</w>": 7458,
      "bble</w>": 7459,
      "traitor</w>": 7460,
      "differs</w>": 7461,
      "primary</w>": 7462,
      "obedient</w>": 7463,
      "humanity</w>": 7464,
      "ye": 7465,
      "yell</w>": 7466,
      "é</w>": 7467,
      "notified</w>": 7468,
      "jumping</w>": 7469,
      "preaching</w>": 7470,
      "sickness</w>": 7471,
      "em</w>": 7472,
      "boun": 7473,
      "dge": 7474,
      "frightening</w>": 7475,
      "disobeyed</w>": 7476,
      "counted</w>": 7477,
      "expelled</w>": 7478,
      "protesters</w>": 7479,
      "195": 7480,
      "contribute</w>": 7481,
      "announcement</w>": 7482,
      "insp": 7483,
      "inspired</w>": 7484,
      "concerns</w>": 7485,
      "lec": 7486,
      "spoil</w>": 7487,
      "hurricane</w>": 7488,
      "tery</w>": 7489,
      "biting</w>": 7490,
      "demanding</w>": 7491,
      "winner</w>": 7492,
      "trage": 7493,
      "doubtful</w>": 7494,
      "revolution</w>": 7495,
      "taxis</w>": 7496,
      "occupied</w>": 7497,
      "nights</w>": 7498,
      "dug</w>": 7499,
      "wounds</w>": 7500,
      "separate</w>": 7501,
      "exist": 7502,
      "existence</w>": 7503,
      "mug</w>": 7504,
      "refer</w>": 7505,
      "dope</w>": 7506,
      "decline</w>": 7507,
      "cameras</w>": 7508,
      "guilt</w>": 7509,
      "worth": 7510,
      "worthwhile</w>": 7511,
      "calmly</w>": 7512,
      "sweating</w>": 7513,
      "prescribed</w>": 7514,
      "benefit</w>": 7515,
      "card": 7516,
      "cardboard</w>": 7517,
      "prom</w>": 7518,
      "flights</w>": 7519,
      "idiots</w>": 7520,
      "narrow": 7521,
      "narrowly</w>": 7522,
      "revol": 7523,
      "outcome</w>": 7524,
      "overcome</w>": 7525,
      "matches</w>": 7526,
      "repair": 7527,
      "spar": 7528,
      "anniver": 7529,
      "annivers": 7530,
      "anniversary</w>": 7531,
      "tossed</w>": 7532,
      "escaping</w>": 7533,
      "eds</w>": 7534,
      "trusting</w>": 7535,
      "squa": 7536,
      "mutual</w>": 7537,
      "produces</w>": 7538,
      "gasol": 7539,
      "gasoline</w>": 7540,
      "ghs</w>": 7541,
      "resort</w>": 7542,
      "tterly</w>": 7543,
      "reception</w>": 7544,
      "irrita": 7545,
      "lyri": 7546,
      "passen": 7547,
      "passenger</w>": 7548,
      "whales</w>": 7549,
      "van": 7550,
      "prudent</w>": 7551,
      "atlan": 7552,
      "elaborate</w>": 7553,
      "wandered</w>": 7554,
      "diabe": 7555,
      "geo": 7556,
      "icy</w>": 7557,
      "impolite</w>": 7558,
      "watermelon</w>": 7559,
      "mushrooms</w>": 7560,
      "jun": 7561,
      "location</w>": 7562,
      "unbear": 7563,
      "napkin</w>": 7564,
      "dges</w>": 7565,
      "califor": 7566,
      "california</w>": 7567,
      "fountain</w>": 7568,
      "bra</w>": 7569,
      "advertising</w>": 7570,
      "witnesses</w>": 7571,
      "acity</w>": 7572,
      "ece</w>": 7573,
      "babysi": 7574,
      "babysitter</w>": 7575,
      "archa": 7576,
      "four": 7577,
      "knit</w>": 7578,
      "pole</w>": 7579,
      "greater</w>": 7580,
      "sax": 7581,
      "saxoph": 7582,
      "saxophone</w>": 7583,
      "mono": 7584,
      "july</w>": 7585,
      "faithful</w>": 7586,
      "russian</w>": 7587,
      "calculated</w>": 7588,
      "dissatisfied</w>": 7589,
      "wages</w>": 7590,
      "resignation</w>": 7591,
      "organ</w>": 7592,
      "tues": 7593,
      "paralle": 7594,
      "coca": 7595,
      "cocaine</w>": 7596,
      "liqu": 7597,
      "soil</w>": 7598,
      "museums</w>": 7599,
      "ethi": 7600,
      "campus</w>": 7601,
      "talents</w>": 7602,
      "paran": 7603,
      "quanti": 7604,
      "housework</w>": 7605,
      "assigned</w>": 7606,
      "myster": 7607,
      "barefoot</w>": 7608,
      "chips</w>": 7609,
      "contributed</w>": 7610,
      "ore": 7611,
      "nick": 7612,
      "nickname</w>": 7613,
      "microphone</w>": 7614,
      "tui": 7615,
      "pod</w>": 7616,
      "string</w>": 7617,
      "protecting</w>": 7618,
      "con</w>": 7619,
      "finicky</w>": 7620,
      "calend": 7621,
      "calendar</w>": 7622,
      "item</w>": 7623,
      "sack</w>": 7624,
      "quarters</w>": 7625,
      "tighten</w>": 7626,
      "tuber": 7627,
      "tubercu": 7628,
      "tuberculo": 7629,
      "tuberculosis</w>": 7630,
      "suspicion</w>": 7631,
      "inviting</w>": 7632,
      "logic</w>": 7633,
      "intense</w>": 7634,
      "ories</w>": 7635,
      "marked</w>": 7636,
      "cello</w>": 7637,
      "comic</w>": 7638,
      "hats</w>": 7639,
      "struggle</w>": 7640,
      "forcing</w>": 7641,
      "sued</w>": 7642,
      "judgment</w>": 7643,
      "disagreed</w>": 7644,
      "farther</w>": 7645,
      "ist</w>": 7646,
      "shown</w>": 7647,
      "volunteering</w>": 7648,
      "sixteen</w>": 7649,
      "wanna</w>": 7650,
      "festival</w>": 7651,
      "saturdays</w>": 7652,
      "congratulations</w>": 7653,
      "crept</w>": 7654,
      "ttering</w>": 7655,
      "fatal</w>": 7656,
      "relieve</w>": 7657,
      "taining</w>": 7658,
      "congress</w>": 7659,
      "shrin": 7660,
      "sailors</w>": 7661,
      "patiently</w>": 7662,
      "one": 7663,
      "nosy</w>": 7664,
      "philoso": 7665,
      "regarded</w>": 7666,
      "exceptions</w>": 7667,
      "fairy</w>": 7668,
      "itali": 7669,
      "italian</w>": 7670,
      "species</w>": 7671,
      "divide</w>": 7672,
      "bowling</w>": 7673,
      "chewed</w>": 7674,
      "prior</w>": 7675,
      "persever": 7676,
      "telephoned</w>": 7677,
      "picas": 7678,
      "picasso</w>": 7679,
      "lord</w>": 7680,
      "ids</w>": 7681,
      "enor": 7682,
      "sweep</w>": 7683,
      "infection</w>": 7684,
      "beds</w>": 7685,
      "agi": 7686,
      "illu": 7687,
      "cable</w>": 7688,
      "asian</w>": 7689,
      "stink</w>": 7690,
      "tales</w>": 7691,
      "mass</w>": 7692,
      "vocation</w>": 7693,
      "immature</w>": 7694,
      "bes</w>": 7695,
      "numer": 7696,
      "fingernails</w>": 7697,
      "bankrupt</w>": 7698,
      "sible</w>": 7699,
      "nurser": 7700,
      "nursery</w>": 7701,
      "protected</w>": 7702,
      "alley</w>": 7703,
      "fulfill</w>": 7704,
      "simpler</w>": 7705,
      "travelers</w>": 7706,
      "portugal</w>": 7707,
      "contacts</w>": 7708,
      "obsessed</w>": 7709,
      "decrea": 7710,
      "scrubbed</w>": 7711,
      "sentenced</w>": 7712,
      "wil": 7713,
      "exercising</w>": 7714,
      "crafty</w>": 7715,
      "gang</w>": 7716,
      "suspects</w>": 7717,
      "scratched</w>": 7718,
      "specialist</w>": 7719,
      "horizon</w>": 7720,
      "lists</w>": 7721,
      "pal</w>": 7722,
      "comman": 7723,
      "pushing</w>": 7724,
      "offensive</w>": 7725,
      "mul": 7726,
      "severely</w>": 7727,
      "imported</w>": 7728,
      "mice</w>": 7729,
      "economics</w>": 7730,
      "extreme</w>": 7731,
      "behaves</w>": 7732,
      "starve</w>": 7733,
      "stitches</w>": 7734,
      "wiser</w>": 7735,
      "ports</w>": 7736,
      "undant</w>": 7737,
      "dishonest</w>": 7738,
      "peaceful</w>": 7739,
      "try": 7740,
      "doubted</w>": 7741,
      "intends</w>": 7742,
      "fee</w>": 7743,
      "shoela": 7744,
      "stew</w>": 7745,
      "seek</w>": 7746,
      "brightest</w>": 7747,
      "fare</w>": 7748,
      "voy": 7749,
      "voyage</w>": 7750,
      "liber": 7751,
      "overtime</w>": 7752,
      "dresses</w>": 7753,
      "controver": 7754,
      "marrying</w>": 7755,
      "lers</w>": 7756,
      "wido": 7757,
      "disgra": 7758,
      "dresser</w>": 7759,
      "empha": 7760,
      "shouted</w>": 7761,
      "lip": 7762,
      "lipstick</w>": 7763,
      "acu": 7764,
      "label</w>": 7765,
      "eli": 7766,
      "deepest</w>": 7767,
      "dressing</w>": 7768,
      "23</w>": 7769,
      "nove": 7770,
      "distant</w>": 7771,
      "nical</w>": 7772,
      "exha": 7773,
      "abolished</w>": 7774,
      "hide": 7775,
      "ko": 7776,
      "patter": 7777,
      "pattern</w>": 7778,
      "tricky</w>": 7779,
      "iceber": 7780,
      "iceberg</w>": 7781,
      "tative</w>": 7782,
      "tragedy</w>": 7783,
      "automobile</w>": 7784,
      "key": 7785,
      "musc": 7786,
      "muscles</w>": 7787,
      "sorts</w>": 7788,
      "superior</w>": 7789,
      "programs</w>": 7790,
      "fuse</w>": 7791,
      "bothers</w>": 7792,
      "overslept</w>": 7793,
      "adequ": 7794,
      "thought": 7795,
      "doo": 7796,
      "hike</w>": 7797,
      "cler": 7798,
      "blinded</w>": 7799,
      "plot</w>": 7800,
      "lett": 7801,
      "voting</w>": 7802,
      "cue</w>": 7803,
      "imm": 7804,
      "volle": 7805,
      "volley": 7806,
      "volleyball</w>": 7807,
      "intentions</w>": 7808,
      "disposal</w>": 7809,
      "texting</w>": 7810,
      "where": 7811,
      "whereab": 7812,
      "whereabouts</w>": 7813,
      "advanced</w>": 7814,
      "froze</w>": 7815,
      "claimed</w>": 7816,
      "adjust</w>": 7817,
      "repairing</w>": 7818,
      "ley</w>": 7819,
      "nate</w>": 7820,
      "diplomatic</w>": 7821,
      "compreh": 7822,
      "honey": 7823,
      "observant</w>": 7824,
      "18</w>": 7825,
      "floats</w>": 7826,
      "kan": 7827,
      "hotels</w>": 7828,
      "insulted</w>": 7829,
      "mule</w>": 7830,
      "past": 7831,
      "musical</w>": 7832,
      "receiving</w>": 7833,
      "ctic</w>": 7834,
      "entitled</w>": 7835,
      "activity</w>": 7836,
      "rivers</w>": 7837,
      "diamonds</w>": 7838,
      "celebrated</w>": 7839,
      "lyrics</w>": 7840,
      "color": 7841,
      "fiction</w>": 7842,
      "claim</w>": 7843,
      "questioned</w>": 7844,
      "medal</w>": 7845,
      "juni": 7846,
      "junior</w>": 7847,
      "berry</w>": 7848,
      "cabinet</w>": 7849,
      "tag</w>": 7850,
      "stained</w>": 7851,
      "invention</w>": 7852,
      "enjoy": 7853,
      "poetry</w>": 7854,
      "hawai": 7855,
      "exhibi": 7856,
      "folks</w>": 7857,
      "pharmacy</w>": 7858,
      "warmly</w>": 7859,
      "diplomat</w>": 7860,
      "unbearable</w>": 7861,
      "backup</w>": 7862,
      "bullets</w>": 7863,
      "hairstyle</w>": 7864,
      "client</w>": 7865,
      "croo": 7866,
      "vege": 7867,
      "dv": 7868,
      "backpack</w>": 7869,
      "mushroom</w>": 7870,
      "earrings</w>": 7871,
      "chocolates</w>": 7872,
      "scarcely</w>": 7873,
      "anticipated</w>": 7874,
      "coma</w>": 7875,
      "cleaner</w>": 7876,
      "insured</w>": 7877,
      "criticized</w>": 7878,
      "ood</w>": 7879,
      "melo": 7880,
      "practical</w>": 7881,
      "thera": 7882,
      "inform</w>": 7883,
      "corpor": 7884,
      "pound</w>": 7885,
      "expression</w>": 7886,
      "dorm</w>": 7887,
      "ttable</w>": 7888,
      "signing</w>": 7889,
      "lousy</w>": 7890,
      "cucu": 7891,
      "comb</w>": 7892,
      "catching</w>": 7893,
      "screw": 7894,
      "screwdriver</w>": 7895,
      "tuesday</w>": 7896,
      "finishing</w>": 7897,
      "annoys</w>": 7898,
      "confron": 7899,
      "stating</w>": 7900,
      "demonstration</w>": 7901,
      "phew</w>": 7902,
      "endure</w>": 7903,
      "steep</w>": 7904,
      "reck": 7905,
      "sipped</w>": 7906,
      "creeps</w>": 7907,
      "stingy</w>": 7908,
      "parano": 7909,
      "paranoid</w>": 7910,
      "blush</w>": 7911,
      "extraordinary</w>": 7912,
      "spontaneous</w>": 7913,
      "update</w>": 7914,
      "telescope</w>": 7915,
      "speech": 7916,
      "speechless</w>": 7917,
      "typewriter</w>": 7918,
      "histo": 7919,
      "histori": 7920,
      "pear": 7921,
      "magician</w>": 7922,
      "kore": 7923,
      "unreliable</w>": 7924,
      "thorou": 7925,
      "thorough": 7926,
      "thoroughly</w>": 7927,
      "bugging</w>": 7928,
      "evident</w>": 7929,
      "intments</w>": 7930,
      "margarine</w>": 7931,
      "teddy</w>": 7932,
      "seat": 7933,
      "fried</w>": 7934,
      "harmless</w>": 7935,
      "pierced</w>": 7936,
      "biology</w>": 7937,
      "firefigh": 7938,
      "emptied</w>": 7939,
      "bel": 7940,
      "melting</w>": 7941,
      "machines</w>": 7942,
      "unavoidable</w>": 7943,
      "indivi": 7944,
      "olymp": 7945,
      "olympic</w>": 7946,
      "dren": 7947,
      "drenched</w>": 7948,
      "ple": 7949,
      "ald</w>": 7950,
      "broad": 7951,
      "antly</w>": 7952,
      "elders</w>": 7953,
      "eyebro": 7954,
      "eyebrows</w>": 7955,
      "stupi": 7956,
      "vir": 7957,
      "estab": 7958,
      "stored</w>": 7959,
      "survivor</w>": 7960,
      "tide</w>": 7961,
      "erran": 7962,
      "errands</w>": 7963,
      "armchair</w>": 7964,
      "breast</w>": 7965,
      "tenden": 7966,
      "tendency</w>": 7967,
      "bark</w>": 7968,
      "snows</w>": 7969,
      "temples</w>": 7970,
      "parks</w>": 7971,
      "backs</w>": 7972,
      "bach": 7973,
      "bachel": 7974,
      "cardi": 7975,
      "poorly</w>": 7976,
      "fax</w>": 7977,
      "duck</w>": 7978,
      "ripe</w>": 7979,
      "massage</w>": 7980,
      "towel": 7981,
      "towels</w>": 7982,
      "treaty</w>": 7983,
      "highway</w>": 7984,
      "washes</w>": 7985,
      "ckles</w>": 7986,
      "feed": 7987,
      "feedback</w>": 7988,
      "forks</w>": 7989,
      "peaches</w>": 7990,
      "instruments</w>": 7991,
      "swiss</w>": 7992,
      "pleasan": 7993,
      "pleasantly</w>": 7994,
      "robot</w>": 7995,
      "assist</w>": 7996,
      "dinosa": 7997,
      "dinosaurs</w>": 7998,
      "agri": 7999
    },
    "id_to_token": {
      "0": "<PAD>",
      "1": "<UNK>",
      "2": "<BOS>",
      "3": "<EOS>",
      "4": "!",
      "5": "\"",
      "6": "$",
      "7": "%",
      "8": "&",
      "9": "'",
      "10": "+",
      "11": ",",
      "12": "-",
      "13": ".",
      "14": "/",
      "15": "0",
      "16": "1",
      "17": "2",
      "18": "3",
      "19": "4",
      "20": "5",
      "21": "6",
      "22": "7",
      "23": "8",
      "24": "9",
      "25": ":",
      "26": ";",
      "27": "</w>",
      "28": "?",
      "29": "a",
      "30": "b",
      "31": "c",
      "32": "d",
      "33": "e",
      "34": "f",
      "35": "g",
      "36": "h",
      "37": "i",
      "38": "j",
      "39": "k",
      "40": "l",
      "41": "m",
      "42": "n",
      "43": "o",
      "44": "p",
      "45": "q",
      "46": "r",
      "47": "s",
      "48": "t",
      "49": "u",
      "50": "v",
      "51": "w",
      "52": "x",
      "53": "y",
      "54": "z",
      "55": "­",
      "56": "°",
      "57": "é",
      "58": "ï",
      "59": "ú",
      "60": "ü",
      "61": "–",
      "62": "—",
      "63": "‘",
      "64": "’",
      "65": "€",
      "66": "e</w>",
      "67": ".</w>",
      "68": "t</w>",
      "69": "th",
      "70": "s</w>",
      "71": "ou",
      "72": "n</w>",
      "73": "d</w>",
      "74": "to",
      "75": "y</w>",
      "76": "'</w>",
      "77": "i</w>",
      "78": "you",
      "79": "er",
      "80": "in",
      "81": "you</w>",
      "82": "to</w>",
      "83": "m</w>",
      "84": "g</w>",
      "85": "the</w>",
      "86": "at</w>",
      "87": "ar",
      "88": "is</w>",
      "89": "ed</w>",
      "90": "do",
      "91": "an",
      "92": "ing</w>",
      "93": "?</w>",
      "94": "or",
      "95": "a</w>",
      "96": "l</w>",
      "97": "er</w>",
      "98": "ve</w>",
      "99": "me</w>",
      "100": "re",
      "101": "ha",
      "102": "no",
      "103": "wh",
      "104": "k</w>",
      "105": "on",
      "106": "ll</w>",
      "107": "tom</w>",
      "108": "w</w>",
      "109": "that</w>",
      "110": "it</w>",
      "111": "en",
      "112": "wa",
      "113": "f</w>",
      "114": "st",
      "115": "he</w>",
      "116": "li",
      "117": "an</w>",
      "118": "ch",
      "119": "in</w>",
      "120": "le",
      "121": "on</w>",
      "122": "ere</w>",
      "123": "di",
      "124": "go",
      "125": "ti",
      "126": "do</w>",
      "127": "en</w>",
      "128": "ri",
      "129": "of</w>",
      "130": "st</w>",
      "131": "for",
      "132": "r</w>",
      "133": "this</w>",
      "134": "al",
      "135": "ro",
      "136": "ke</w>",
      "137": "wi",
      "138": "lo",
      "139": "we</w>",
      "140": "gh",
      "141": "don</w>",
      "142": "ld</w>",
      "143": "re</w>",
      "144": "ho",
      "145": "have</w>",
      "146": "be",
      "147": "ly</w>",
      "148": "se</w>",
      "149": "es</w>",
      "150": "was</w>",
      "151": ",</w>",
      "152": "ne",
      "153": "p</w>",
      "154": "are</w>",
      "155": "so",
      "156": "what</w>",
      "157": "my</w>",
      "158": "la",
      "159": "co",
      "160": "now</w>",
      "161": "can</w>",
      "162": "for</w>",
      "163": "se",
      "164": "ma",
      "165": "wan",
      "166": "le</w>",
      "167": "your</w>",
      "168": "th</w>",
      "169": "be</w>",
      "170": "sh",
      "171": "ver",
      "172": "ght</w>",
      "173": "me",
      "174": "the",
      "175": "ay</w>",
      "176": "out</w>",
      "177": "ch</w>",
      "178": "one</w>",
      "179": "ould</w>",
      "180": "want</w>",
      "181": "su",
      "182": "ab",
      "183": "know</w>",
      "184": "ea",
      "185": "not</w>",
      "186": "si",
      "187": "ce</w>",
      "188": "et</w>",
      "189": "bo",
      "190": "ra",
      "191": "thing</w>",
      "192": "pp",
      "193": "thin",
      "194": "tt",
      "195": "o</w>",
      "196": "like</w>",
      "197": "and</w>",
      "198": "all</w>",
      "199": "she</w>",
      "200": "un",
      "201": "with</w>",
      "202": "te",
      "203": "dn</w>",
      "204": "how</w>",
      "205": "bu",
      "206": "sa",
      "207": "rea",
      "208": "te</w>",
      "209": "el",
      "210": "ac",
      "211": "wor",
      "212": "they</w>",
      "213": "think</w>",
      "214": "ar</w>",
      "215": "hi",
      "216": "ther</w>",
      "217": "ent</w>",
      "218": "ta",
      "219": "did</w>",
      "220": "ver</w>",
      "221": "sp",
      "222": "ted</w>",
      "223": "go</w>",
      "224": "fi",
      "225": "mi",
      "226": "ust</w>",
      "227": "his</w>",
      "228": "very</w>",
      "229": "ca",
      "230": "day</w>",
      "231": "ts</w>",
      "232": "there</w>",
      "233": "mor",
      "234": "ry</w>",
      "235": "sn</w>",
      "236": "de",
      "237": "lea",
      "238": "get</w>",
      "239": "mo",
      "240": "mar",
      "241": "here</w>",
      "242": "time</w>",
      "243": "fe",
      "244": "ss</w>",
      "245": "king</w>",
      "246": "fa",
      "247": "about</w>",
      "248": "didn</w>",
      "249": "sed</w>",
      "250": "dy</w>",
      "251": "ur",
      "252": "od</w>",
      "253": "ok</w>",
      "254": "mp",
      "255": "we",
      "256": "sto",
      "257": "him</w>",
      "258": "ally</w>",
      "259": "any",
      "260": "ag",
      "261": "were</w>",
      "262": "up</w>",
      "263": "going</w>",
      "264": "ci",
      "265": "as</w>",
      "266": "some",
      "267": "ex",
      "268": "happ",
      "269": "ds</w>",
      "270": "gi",
      "271": "no</w>",
      "272": "any</w>",
      "273": "vi",
      "274": "why</w>",
      "275": "will</w>",
      "276": "ru",
      "277": "\"</w>",
      "278": "pro",
      "279": "tion</w>",
      "280": "po",
      "281": "had</w>",
      "282": "as",
      "283": "has</w>",
      "284": "fu",
      "285": "ter</w>",
      "286": "just</w>",
      "287": "if</w>",
      "288": "oun",
      "289": "sti",
      "290": "id</w>",
      "291": "ys</w>",
      "292": "ought</w>",
      "293": "ong</w>",
      "294": "ked</w>",
      "295": "need</w>",
      "296": "mary</w>",
      "297": "hel",
      "298": "qu",
      "299": "con",
      "300": "de</w>",
      "301": "ni",
      "302": "so</w>",
      "303": "come</w>",
      "304": "ear",
      "305": "her</w>",
      "306": "let</w>",
      "307": "ind</w>",
      "308": "op",
      "309": "who</w>",
      "310": "good</w>",
      "311": "or</w>",
      "312": "ting</w>",
      "313": "where</w>",
      "314": "would</w>",
      "315": "ty</w>",
      "316": "mu",
      "317": "ks</w>",
      "318": "ever",
      "319": "more</w>",
      "320": "every",
      "321": "par",
      "322": "of",
      "323": "end</w>",
      "324": "got</w>",
      "325": "us</w>",
      "326": "ang",
      "327": "tal",
      "328": "when</w>",
      "329": "by</w>",
      "330": "help</w>",
      "331": "should</w>",
[...]
